#version: 0.2
É Ľ
Ì ģ
č Ċ
É Ķ
Ġ t
r e
Ì Ģ
Ġ n
p l
Ġ [
a a
Ġ a
Ġ b
Ġ s
Å ĭ
i n
e r
l e
o n
Ġt o
É ª
Ġ k
Ã ¡
Ġ p
h e
ÉĽ ÉĽ
Ġ d
Ġ pl
Ġ l
a r
Ġ w
Ġ o
Ġ f
Ġ g
Ġ m
a n
Ġ (
r i
Ġ 2
e n
Ã ł
g e
Ġ v
a t
o r
a l
Ġ c
â Ģ
in g
Ê Ĭ
Ġt he
r o
Ġo f
i t
Ġ h
e ÉĽ
] Ìģ
Ġ y
Ġl a
o m
e d
n e
i s
e l
Ã Ń
o u
b a
n d
i l
Ġ e
o ÉĶ
o o
k p
Ġ z
re e
a s
Ġb e
Ã ¬
] ÌĢ
âĢ ¢
b o
a Åĭ
Ġ âĢ¢
u u
Ġa d
Ġ in
r a
V ar
o l
Ã º
r Éª
a m
i ri
Ġt h
Ã¡ Ã¡
b ÉĽ
r ÉĽÉĽ
i e
i m
Ġb a
u l
p e
Ġ Var
t h
Ã ³
u s
Ġk a
n g
e s
a k
r aa
ÉĶ ÉĶ
al l
i g
o g
Ã ©
Åĭ m
ÉĶ ge
on e
i c
Ġn y
e e
Ġa nd
a d
o Åĭ
Ġk p
Ġs t
o t
Ġ A
u t
Ġ T
m a
Ã £
a re
i r
n n
Ġ Ġ
o w
a g
Ã ²
v e
le e
s e
Î µ
aa re
Ġ is
c e
b e
y ÉĽ
Í »
r ÉĽ
Ġ ]Ìģ
âĢ ¦
c t
b i
u g
en t
l a
u n
Ġ le
ÉĶ g
Ġad j
Ġad v
Ì ĥ
k ÉĶ
m p
l ÉĽ
Ġa n
s t
it h
om e
u r
er s
âĢ¦ âĢ¦
l y
l Éª
ĠT he
a y
Ġn e
b ÊĬ
i d
Ìģ ]
b ÉĶ
i on
Ã ¹
Ġw ith
t er
Ġf or
s s
l ÉĽÉĽ
Ġs e
l ÉĶ
y pe
Ġ re
e re
g b
l aa
l i
u o
Ġth at
n y
c h
Ġn a
r ÉĶ
Ġt e
Ġt ype
a ge
n ÉĽÉĽ
âĢ Ļ
g Éª
Ġw h
Éª ÉĽ
l o
Ġ he
m b
re ba
Åĭ k
m ÉĽ
n a
n t
er ÉĽÉĽ
Ġd a
an d
Ġs o
Ġ on
ÌĢ ]
Ġ Åĭm
Ġc h
c k
Ãł Ãł
Ġs h
i i
e t
an t
k y
r Ã¬
Ġg b
Ġb on
Ã ¨
Ġg y
h t
Ġo r
Ġb o
u p
Ġs m
n ÉĶ
Ġk ÉĶ
il d
Ġ N
v er
Ġd e
n aa
Ġf o
Ġ one
t o
u nd
Ġy ou
r ÃŃ
a p
Ġn ot
on g
Ġp o
É ²
ro m
r u
Ġs ome
i re
ÉĽ g
oo d
uu ri
in e
er ÉĽ
u ri
Ġm a
th ing
Ġl i
n Éª
e g
re bÉĽ
Ġh as
n ÉĽ
á º
Ġw a
Ġ ro
Ġ us
áº ½
n s
Ġ ]ÌĢ
ou r
aa ra
aa rÉĽÉĽ
Ġk o
i ree
Ġ it
l l
Ġm e
n i
Ã¡ Ãł
ak e
d Ãł
Ġf rom
Ġsm all
Ġd o
Ġm an
all y
ers on
a b
t e
ic k
ar d
en d
Ġ I
ig ht
Ġ D
ar a
er aa
Ġl ÉĽ
Ġb i
p ÉĶ
Ġ S
Ġs g
Ġg o
ÉĶ Åĭ
Ġs a
k e
p ÉĽ
ar ÉĽÉĽ
âĢ¦âĢ¦ âĢ¦âĢ¦
k o
m e
an e
b on
Ġd i
q u
Ġh a
aa le
th er
Ġch ild
at er
ne e
il l
g a
Ġs u
Ġc on
p o
Ġk yÉĽ
oÉĶ re
r y
Ġm o
s o
Ġp ÉĶge
g y
el l
B a
m m
t a
at e
ro w
Ġp erson
Åĭ g
en e
eÉĽ rÉĽ
Ġsome thing
l ÃŃ
Ã µ
Ġ K
Ġ O
Ġt ree
Ġ ÌĢ
Ġe x
or aa
aa l
Ġa t
or o
Ġn ÉĶ
o f
r Ã¡Ã¡
Ġ Åĭ
Å ©
Ġy el
ar ge
Ìģ .
in d
or ÉĽÉĽ
Ġ ÉĶ
Ġb om
oo re
Ġn aÅĭ
Ġn aa
z e
Ġ Ìģ
Ãº Ãº
Ġwh o
a ce
b ÃŃ
Ãł Ã¡
l Ã©
u m
ÉĽ re
im e
Ġth ing
Ġa ct
Ġp oÉĶ
at h
ĉ ĉ
as t
a v
er i
Ġf e
s h
Ġs p
f f
Ġ un
ÉĽ ge
Ìģ :
am e
d e
i ve
Åĭ kp
is h
k Ã¡
ÉĶ re
Ġt aa
Ġw e
og i
or n
Ìĥ Ìģ
Ġa re
Ġp e
eÉĽ re
Ġg aa
m ÉĶ
y i
Ġl arge
Ġo ut
or t
ou s
oo k
i le
y e
Ġb y
Ġus ed
Ġ W
Ġ ri
ar t
Ġy ÉĽ
Ġw as
il i
Ã£ a
Ġ up
Ġb ie
er y
uo ri
i b
i f
n ne
Ġm aÅĭ
Ġha ve
g bÉĽ
ra in
Ãº Ã³
l d
Ġz aa
Ġ rÉª
Éª Éª
en s
as s
a le
ar aa
id e
Ãµ ÉĶ
d z
. .
Ġs aa
ĠĠ ĠĠ
es t
l Ã¬
Ġny ÉĽ
n o
t y
Ġn o
Ġw ater
b iri
b ie
Åĭ e
an s
eÉĽ le
oÉĶ rÉĶ
ol i
áº½ ÉĽ
b Ãł
b Ã¬
m o
an g
ne ss
d a
i v
k ÊĬ
Ġb ut
Ġc om
Ġt a
Ġb ÉĽ
Ġf l
at ion
ro und
Ġw or
is t
ee re
ru it
u re
es s
ad e
w e
Ê §
el aa
ul i
i p
Ġp ro
Ġg bÉĽ
e ct
m ent
Ġb aa
ou nd
k u
Ġ j
Ġd ÉĶÉĶ
Ġb u
Ã¡ Åĭ
Ġp a
el ÉĽ
am p
Ġs he
Ġz u
Ġa l
Ġv ery
al a
g ÉĶ
Ġl o
Ġw aa
m ÉĽÉĽ
r ÊĬ
Ġ čĊ
Ġw om
is e
im al
l ÊĬ
Ä ©
Ġy e
Ġst r
m Ã¡
ol o
u e
re ss
or a
Ġh o
eÉĽ raa
n z
s Éª
u ally
aa raa
n ÃŃ
Ġ P
ĠK a
b il
d ÉĶ
pl e
Ġo ver
ge re
eÉĽ rebÉĽ
el y
bo g
aa ne
Ġa s
Åĭ ÉĽ
Ġg r
iri be
Ġan imal
u d
uu ree
ie s
l Ã¡Ã¡
t ÉĶ
an nÉĽÉĽ
uu ro
ag a
d o
j ect
ÉĽ rÉĽ
ÌĢ Ìĥ
ar m
ÉĶÉĶ re
f e
n Ã¡Ã¡
o re
u Åĭ
Ġ -
Ġf ruit
or ÉĶ
Ġ en
Ġ Ba
Ġp i
Ġd eÉĽ
ol d
r on
y u
Ġm ake
an ce
am a
ic h
Ġle g
p ÊĬ
Ġ F
Ġo b
a ch
b om
c he
r Ã¡Ãł
s ÉĽ
Éª rÉª
Ġp ÉĽ
Ġb l
Ġto o
Ġc l
ro Åĭ
ou t
Ġkp ÉĽ
aare ba
Ġd og
ar re
Ġw ill
an ne
Ġh is
ou se
aÅĭ k
ul t
nn ÉĽÉĽ
l Ã³
p ÉĶge
w ay
y el
ÌĢ .
al k
Ġh er
Ġn im
s ÉĶ
in k
Ġm ÉĶ
Ġc o
Ġy i
Ġwom an
Ġ ÌĢ]
Ġt ÉĶ
as e
am b
ul o
are ba
b ÉĽÉĽ
p en
s Ãł
Ġ M
Ġ ]
Ġ qu
Ġt w
Ġn ÉĽ
Ġp ot
m Ãł
m ÃŃ
o ri
Ġ B
Ġt u
aa na
Ġs w
he n
il le
oÅĭ k
f t
Ġm ade
it e
it y
d ay
p er
t ing
z u
Ã¡ rÉª
Ġm i
en ÉĽ
eÉĽ ne
oÉĶ raa
Ġwh ich
s a
z ÉĽ
Ġa ll
le ss
Ġp re
ar k
at ed
aÅĭ a
Ġin ter
Ġin to
ath er
g ÃŃ
l Ãł
Ì Į
d ÊĬ
g Ãł
t ÉĽ
re d
Ġa r
an y
Ġbe c
us e
one y
Ġb ir
in t
le ba
Ġf ood
d Ã£
Ġ ÉĽ
re at
it ion
aÅĭ g
uu li
âĢ¦âĢ¦âĢ¦âĢ¦ âĢ¦âĢ¦âĢ¦âĢ¦
lÃ© Ã©
b aa
b Ã¡
g Ã¬
l le
Ġs ÉĽ
Ġf oo
âĢ ĺ
ul l
us h
ma le
ow n
t le
t Éª
y Ã¨
z ÉĶ
Ġ H
Ġ r
Ġ rain
Ìģ ,
Ġg et
aÅĭ kp
d i
d aa
p i
Ì Ĥ
Ġn u
Ġb ÉĶ
Ġp ÉĶ
Ġp art
Ġm ed
al le
ĠÅĭ a
Ġob ject
d y
g ht
r Ã©
z a
Ġp are
Ġd ay
Ġpl ant
Ġh ard
ou ld
us t
ic e
bi iree
l Ã¡
u nn
Ġk u
Ġk y
Ġd on
ig i
nn Éª
ug i
d ÉĽ
f ul
s aa
Ġt ra
Ġg ÉĶ
Ġg be
Ġc ar
Ġh and
ÃŃ Ã©
Ġe ar
im o
ĠĠ Ġ
ĠD ag
Ġpl ace
ab le
k Ã²
m aa
y ÉĶ
Ġb re
Ġs c
on ni
Ġl ÉĶ
Ġl ong
Ġg bo
ne ma
ug h
b u
k Ã³
t Ã¡
aa la
Ġp u
eÉĽ lÉĽ
kp ÉĽ
Ġhe ad
Ġmed ic
w a
Ġb ig
Ġk pe
Ġl Éª
Ġg round
aÅĭ e
ak y
d er
Ġn Éª
Ġc ome
Ġwor k
t Ãł
z Ãº
Ġp ie
an na
Ġth is
Ġbir d
k a
n Ãł
o p
p Éª
r Ã¡
s ÊĬ
v ed
in al
Ġp ron
or m
Ġc an
Ġba re
ÉĶge re
ee t
ii ree
Ġex p
g Ã¡
k Ãł
Ġ /
Ġ G
Ġb ur
Åĭ gb
Ġf ir
en ÉĽÉĽ
Ġc a
Ġ ÊĬ
Ġa p
Ġd ÉĶ
Ġd is
Ġg a
Ġg u
an a
Ġz ÉĽ
us ed
Ç İ
Ġd u
al ÉĽÉĽ
Ġc lo
el i
v en
w ÉĽ
y Í»
Ġ im
Ġs l
on d
Ġp ow
Ġof f
ii re
Ġinter j
B o
b Ã²
k Ãº
m ÊĬ
n Ã¡
p are
Ġa b
Ġf arm
Ġg iv
Ġm ÉĽ
an ky
Ġe at
ee p
Ġma le
Ġyel i
bil ii
o ple
r Ã³
ÌĢ -
Ġk oÅĭ
ĠT h
bi iri
áº½ e
Ġgr ass
o ree
t u
on nee
Ġl u
ge e
mp ÉĽ
Ġmo ve
yÃ¨ l
d u
s Ã¡
er a
le bÉĽ
on t
Ġd ÉĽ
en ne
el ÉĽÉĽ
Ġyou ng
um an
ib le
ille t
n u
r ink
Ġb ro
Ġg yÉĽ
at ive
Ġh im
eÉĽ lÉĽÉĽ
Ġba g
bi le
Ġse ed
Ġus ually
Å© u
ĠyÉĽ lÉĽ
d ition
e ge
l lÉĽÉĽ
m ine
r re
w ÉĶ
Ġ 1
Ġn ame
on o
Ġg ba
it o
Ġy a
Ġro und
aal oÅĭ
b b
c o
f ter
v ing
Ġs up
in i
er al
he d
Ġd aa
Ġl ight
Ġw ÉĽ
al aa
Ġh ouse
om p
oo l
uu raa
Ġfor m
ane ma
Ġpe ople
d Ã¬
Ġ Y
Ġ ra
re n
Ġa way
Ġm u
Ġm illet
an k
eÉĽ rÉĽÉĽ
Ġan y
Ġre f
Ġre s
und er
uuri bo
Ġli ke
ga in
Ġcom pl
Ġexp ress
d en
k ol
p a
s m
z ÊĬ
Ġt ake
Ġa gain
le d
an ge
Ġc le
Ġthe y
el f
il y
Ã¡Ã¡ rÉª
Ġba d
ir uu
nn ÉĶ
la ck
ÉĶÅĭ e
.. ..
n er
n im
Ġ C
er ÉĶ
on aa
Ġw ell
Ġm at
an z
Ġbe t
ow l
ug o
un eral
age re
ĠF o
Ġbec ome
f o
f ÊĬ
m Ã¡Ã¡
m bÉĶ
p h
t he
Ġ L
Ġt ime
aa nÉĽÉĽ
Ġd ry
Ġl it
en aa
ro o
ie f
Ġba ck
ur al
ĠThe y
ta in
n ow
r Ãł
z i
Ġ E
Ġa fter
Ġs k
Ġs ur
Ġp ut
Ġd Ã£
Ġo pen
Ġg ood
oÉĶ rÉĽÉĽ
Ġbe ing
ol le
ÉĶÉĶ rÉĽÉĽ
ad j
oÅĭ i
Ġbon d
Ġcompl et
e f
g ÉĽ
g rÉª
g Ã³
p s
v es
Ġb it
Ġs ak
Ġf a
Ġc ut
eÉĽ nÉĽÉĽ
om m
Ġz e
Ġz ÉĶ
aÅĭ aa
uu lo
ul ar
Ġsh ort
Ġthing s
Ġstr ong
Ġgiv en
g o
l ing
n ÊĬ
t ÊĬ
t ere
Ġt ÉĽ
ÌĢ ,
in s
Ġd id
ar rÉĽÉĽ
oÉĶ nÉĽÉĽ
Ġz o
Ġka re
og il
ad v
ug iri
un t
Ìĥ Ìģ]
nt ÉĶ
ĠÅĭm aa
nÃŃ mÃŃ
l oÅĭ
p ÃŃ
z ÉªÉĽ
Ġ end
Ġ under
Ġt ak
Ġb el
Ġs ÉĶ
Åĭ i
on ne
Ġto p
Ġd own
Ġf all
Ġf ire
eÉĽ nÉĽ
Ġy am
oÉĶ le
oÉĶ reba
ÉĶge le
nn aa
ur n
ĠI f
Ġmedic inal
g i
g bo
r ÃłÃł
Ġs ou
er re
he re
Ġl ook
Ġw ild
Ġm y
Ġc ook
oÉĶ lÉĶ
Ġba b
ng a
ig iri
Ġhe av
Ġsu ff
bÃŃ rÃ¬
Ġho le
aa lÉĽÉĽ
Ġb ri
Ġs ee
on i
or ri
Ġc at
om a
Ġbe en
Ã¬ rÃ¬
Ġth ick
Ġan t
ĠÅĭm ÉĽ
Ġbon s
ÉĽg ÉĽ
Ġdi ff
Ġexpress ion
Ġcomplet ely
D a
l oo
l Ã²
l Ã¡Ãł
n v
z o
z Ã¡
z eÉĽ
Ġ ed
ÉĽ Åĭ
Ìģ ?
Ġa m
Ġb oÅĭ
Ġs pe
Ġp at
Ġpl ay
Ġf ri
Ġg ro
Ġg reat
ÃŃ rÃ¬
Ġe Åĭ
oo th
as on
ol a
one ma
ag ra
Ã¹ rÃ¬
Ġwith out
Ġbo dy
uri bo
Ġme at
Ġfe male
Ġ- ,
g yÉĽ
o ther
p ort
v el
Ġ rÉĽ
ÌĢ :
Ġo ther
Ġm aa
Ġm oney
Ġthe ir
ou nt
ul li
ere bÉĽ
É² ÊĬ
Ġsome one
aale ba
b ee
h a
k ÉĶÉĶ
l lÉª
p ar
t Ã²
t ies
w n
z Ãł
z Ã¬
Ġ u
Ġ ru
Ġt am
in y
Ġl og
Ġw ood
Ġf i
Ġf uneral
ge le
Ġc ow
uu lee
Ġin s
Ġle av
Ġse t
ene mÉĽ
uori bo
we en
Ġsuff er
b Éª
c ed
f Éª
g re
g ba
i ent
r Îµ
t en
á ¹
Ġ 3
Ìģ -
Ġb lack
in ni
Ġp er
Ġd ie
Ġd es
ar y
al m
Ġthe re
ne mÉĽ
ba Åĭ
kp Ã³
Ãº Åĭ
ul lo
Ġst ick
ÉĶg ÉĽÉĽ
Ġyou r
Ġcon tain
Ġpro per
che d
d ge
e p
e Åĭ
l lÉĽ
n oo
w o
w ard
ĉ čĊ
Ġa c
on ÉĽÉĽ
on nÉĽÉĽ
Ġto ma
Ġf u
an ny
an gy
en a
at ure
Ġc orn
ro g
us ually
Ġst ate
ÉĶg ÉĶ
ÉĶg rÉĶ
ĠkÉĶ kÉĶ
Ġfl our
bog i
Ġfruit s
unn i
Ġfir st
f a
f Ã¡Ã¡
f ore
g Ã²
i ze
m i
n at
n ot
r ing
t i
Ġs ound
he s
ar oo
ri bo
Ġthe m
eÉĽ mÉĽ
kp e
Ġz a
as te
Ġbe g
aÅĭ gb
Åĭm aa
Ġst ra
nn ÉĽ
ÉĶg erÉĽÉĽ
ÉĶg erÉĶ
Ġan other
ur ing
Ã¹ Ã²
Ġbo y
ÉĽge re
T h
b Ãº
b Ã¡Ã¡
c es
g u
g ÊĬ
g lÉª
h o
l ÃłÃł
l ÃłÃ¡
m Ã©
r rÉĽÉĽ
s Ã£
v ÉĽ
Ġn oÉĶre
aa laa
Ġk ol
Ġk ÃµÉĶ
Ġp ito
Ġd ri
Ġw hen
Ġg row
en ce
Ġc are
ing er
ro ugh
om ach
ÃŃ rÃŃ
ba d
kp Ãł
ir t
Ġre d
our n
ĠW hen
if ul
Ġfoo Åĭ
Ġbet ween
Ġheav y
Ġproper ties
b Ã¹
d Ã¡Ã¡
i Åĭ
n Ãº
s p
s ÃłÃł
u lee
w ÊĬ
w ith
y o
Ġb ÉĶge
in ime
Ġto ÉĶ
Ã¡ nÉª
Ġd rink
Ġw ÉĶÉĶ
Ġy ÉĶÉĶ
ou n
Ġe mp
th at
Ġkp aa
ut s
ÉĶg rÉĽÉĽ
Ġmo ther
Ġex t
Ġbom p
Ġal ong
Ġtra dition
Ġsk in
g r
p ri
s Ãº
t Ã³
Ġ Z
ÉĽ rÉĽÉĽ
aa ba
Ġa round
in nee
on a
on imo
he ad
Ġd ag
Ġf ull
Ġm en
Ġc he
ol oÅĭ
Ġth an
ak ing
all a
Ġny Îµ
Ġst one
nn Ã¬
ÉĶg eraa
lÉĽ Åĭ
Ġse ason
li ke
uo ree
Ġwh at
Ġdi v
Ġchild ren
Ġbom b
Ġfl at
Ġanimal s
Ġed ible
Ġleav es
f or
g h
l Ã¨
n Ê§
s c
s Ã¡Ã¡
z ard
re sh
Ġb aÅĭ
Ġb iri
Ġs oÉĶ
Ġs ig
Ġk aÅĭk
Ġk now
Ġp ol
Ġd aare
Ġv o
Ġh ad
Ġy aga
ou th
oo reba
all ÉĽÉĽ
ic ally
Ġst re
ĠT e
Ġso ri
Ġsh ar
Ġsh ould
ii raa
qu id
Ġsu d
Ä© i
1 9
f Ãł
l la
m Ã³
t ed
v ÊĬ
y uo
Ġ ĉ
re ad
Ġb ug
Ġb oÉĶrÉĶ
Ġs ap
in ess
Ġk ÉĶÉĶ
Ġd ist
Ġw o
Ġm ar
an f
Ġc ro
Ġh u
Ġy u
el le
ou gh
im b
og iri
Ġny ÉĶ
ct ion
Ġle ft
Ġre mo
Ġwh y
Ġro om
ns o
Ġwe ak
Ġtw o
Ġsw eet
Ġcontain er
Ġsud den
a f
a ut
f ÉĽ
f orm
k uri
t aa
Ġ J
Ġ iri
Ġt ight
Ġt alk
Ġs ick
Ġf owl
en nÉĽÉĽ
Ġh old
oÉĶ lÉĽÉĽ
kp aa
Ġbe fore
aÅĭ ene
uu l
ol aa
iri i
Ġth row
ie ved
ig h
Ġle ÉĽ
gb Ãł
Ġwh ite
ky e
Ġman y
Ġsu b
ala ba
Ġlit tle
Ġsou p
Ġpat ient
Ġgro up
a in
d ÉªÉĽ
l laa
m ee
p ro
p Ã¬
r d
v o
y a
y ing
z aa
z Éª
Ġ V
Ġ ent
Ġa g
Ġb oÅĭk
Ġb ush
Ġs al
in ee
Ġl ÉĶÉĶ
Ġf ast
Ġg bi
Ġm is
an aa
Ġy ÉĶ
Ġla g
Ġe ye
Ġz ie
Ġbe e
Ġbe re
Ġbe at
ol l
ol ÉĶ
Åĭm ÉĽ
ÉĶge laa
ÉĶg lÉĶ
Ġne w
ere d
Ġsm ooth
Ġli bie
Ġgo at
Ġcon t
ili be
oli bo
Ġbaa la
Ġj ust
Ġky Îµ
ĠTh at
sm all
Ġbab y
Ġdiff ic
á¹ ¹
T he
d aare
f aa
g rÃŃ
k yÉĽ
m Éª
o lee
p Ãł
p ÉªÉĽ
r Ã¨
w Éª
Ġb one
le s
Ġk uri
Ġp ig
Ġp ass
ar ing
Ġw all
Ġw here
Ġo ld
Ġf ace
Ġm aale
an naa
en i
or ree
Ġh ot
ou d
kp Éª
Ġbe aut
og ÉĶ
Ġny u
un nee
gb Ã²
Ġda b
Ġon ly
ver y
Ġpo int
Ġpa in
Ġleg s
ĠDag aare
ĠDag aaba
Ġpow er
a w
b er
b and
p erson
r Ã²
s i
s u
s Ã¹
t t
v ÉĶ
v il
z ie
Ġ âĢĺ
Ġt i
Ġn g
Ġn i
Ġb aare
Ġs en
Ġs eÉĽ
Åĭ kÉĶ
er oo
on no
Ġk aa
Ġp ri
Ġd ak
Ġd ire
Ġf ish
Ġg ive
ge d
Ġc alaba
it i
is on
nd ÉĶ
oo ri
kp Ã¡
as h
as k
Ġbe an
Ã¬ Ã¬
Ġin t
im m
ul lee
pe re
ÉĶge lÉĶ
ag ÉĽÉĽ
Ġne ck
ĠS he
Ġcon f
Ġat t
ze erÉĽÉĽ
eri be
Ġj o
Ġbre ak
Ġpie ce
2 0
T e
h uman
m bÉĽ
n f
p ing
s ed
u ree
x ed
z Ã¹
Í Ĥ
Ġa ng
Ġs ing
Ġs it
Åĭ ÉĶ
Åĭ ÉĽÉĽ
in ter
le mÉĽ
Ġk aÅĭa
Ġd ise
Ġd eep
Ġw ant
Ġw alk
Ġf in
Ġm on
Ġm et
ge ther
al f
Ġc la
Ġc old
oÉĶ laa
am m
iri t
Ġth rough
og o
Ã£ Ã£
ir ty
ow ing
Åĭk ÊĬ
É² Éª
ru m
Ġli quid
Ġdo es
ke y
row n
ÃºÃº rÃŃ
eri ous
eÉĽle bÉĽ
ĠH e
ege t
Ġmu ch
Ġsak uuri
ogil o
P Í»
b le
b ÃłÃł
c ome
d le
f aare
h at
i al
k ed
n ÃłÃł
s eÉĽ
t ÉªÉĽ
y aa
y ÊĬ
Ġb ogi
Ġs og
Ġs qu
Ġk ind
Ġp ra
Ġd ra
Ġd ark
Ġl and
Ġw ay
at o
Ġy age
oÉĶ ne
Ġbe h
ig ire
Ġny ÉĶge
Ġst omach
ir ri
nn ÊĬ
mp ÉĶ
ur ri
Ġus e
Ġha ir
Ġcon j
ĠÌĢ Ìĥ
dz ÉĽ
ĠĠĠĠ Ġ
uli bo
Ġco ver
Ġfir m
Ġim m
Ġsudden ly
Ġbeaut iful
Ġdise ase
a z
b Ã³
i ge
m an
o d
p Ã¡
Ġt ri
Ġt iny
re s
Ġn ar
Ġb ow
Ġs ug
le bÉĶ
Ġk ye
Ġl oo
Ġw ri
Ġw ere
Ġg ra
Ġg ather
Ġm ud
Ġv eget
or re
Ġz i
aÅĭ m
Ġin st
Ġka le
ir l
ag era
ug g
ÉĶg re
ÉĶg laa
ny u
Ġso ft
Ġbon t
É² ÉĽ
Ġit s
dÃł Ã¡
Ġman ner
ĠI t
ĠW e
ang er
Ġar row
ugi ro
Ġcar ry
a ve
c lo
d ak
e le
f l
f ÉĶ
k on
k Ã©
l u
l Îµ
n Ã¬
n yÉĽ
p Ã²
r ÃłÃ¡
t eÉĽ
w are
w ÉªÉĽ
y es
z age
Ġ R
Ġ Éª
Ġ Ìģ]
Ġn eÉĽ
Ġn anny
Ġb orn
Ġs i
Ġs ol
Åĭ aa
Åĭ Éª
in ne
er rÉĽÉĽ
on ÉĶ
Ġto day
Ġto gether
Ġd áº½ÉĽ
Ġw ould
Ġf at
Ġf am
Ġg Éª
Ġg ame
an ÉĽÉĽ
en nÉĽ
Ġc ra
Ġc ame
it al
it ies
Ġh it
Ġy Îµ
Ġla st
Ġe ven
kp ÉĶ
Ġbe ans
Ġin c
Ãº lÃŃ
Ġth ief
Ã³ rÃŃ
oÅĭ kp
ag reba
se re
ent y
ent ly
mp ÊĬ
Ġre t
ch ool
mb ers
Ġpo ison
ÉĽg rÉĽ
ine a
ll Ã¬
ick ed
ĠlÉĽ nso
Ġsa le
pÉĽ mpÉĽ
ĉĉ ĉ
ile d
bom p
Ġfoo t
tu al
Ġsup port
Ġbel ieved
Ġshar p
Ġremo ve
Ġcalaba sh
1 1
A R
N g
a c
b s
b eÉĽ
d Ã¡
d om
d ÉĶÉĶ
f u
k are
l lÉĶ
n ake
o y
p u
p Ã¡Ã¡
p Ã¡rÉª
t ak
v Ã¡
v Å©
w Ãł
w ater
y ÃŃ
Ġ U
Ġ i
Ġ Ìĥ
Ġb and
Ġs po
Ġs ide
Ġd anky
Ġd uring
ar n
ar s
Ġw orn
Ġf ÉĶ
Ġf et
Ġf ound
Ġf inger
Ġg aÅĭ
Ġg one
Ġg rain
Ġg irl
Ġm oÉĶ
Ġm ark
en y
Ġh un
Ġh ap
om b
il aa
am ÉĽÉĽ
im es
ng Îµ
es ter
Åĭm Éª
ee le
Ġst and
ĠT o
ug iree
Ġle ad
Ġda w
Ġon ce
É² ÉĶ
ÉĽg erÉĽÉĽ
ÉĽg erÉĽ
ĠD ef
bon s
oÉĶre bÉĶ
ell ing
mm o
sh ip
if e
Ä© Ä©
eÉĽne mÉĽ
Ġca use
Ġgu inea
Ġclo th
Ġclo se
Ġagain st
.... ....
Ġbond irii
AR T
B e
D ag
I M
a ct
a use
c le
d Ã²
f rom
f ruit
k an
k en
k Ã¹
k aÅĭk
m it
n Îµ
o ge
p ie
p ot
s ÉªÉĽ
s aal
s ens
t ree
t Ã¡Ã¡
v a
v Éª
y Ã©
z eere
Ã ´
Ç Ĵ
Ġ el
Ġ uu
Ġ rÃ¡Ã¡
Ġt eÉĽ
Ġt ÃµÉĶ
Ġt áº½e
re st
Ġn ÉĶÉĶ
aa ma
Ġb uri
Ġb eÉĽrÉĽ
Ġs our
Ġs chool
Ġto m
Ġk am
Ġp eg
Ġd ance
Ġf ron
Ġm id
Ġm ouse
Ãł rÉª
Ġy iri
Ġz ÉĶÉĶ
am ine
Ġba ge
th ers
og a
ic al
Ġst op
ve re
be re
bi lee
Ġle an
ÉĶg reba
Ġse Åĭ
Ġre st
gÉª rÉª
Ġhe l
ÃłÃł lÉª
ii le
ky iri
ÉĽg re
Ġli zard
Ġro of
ns ÊĬ
Ġbi le
Ġbi biiri
ÉĶÅĭ ÉĽÉĽ
bÃŃ Ã©
ĉĉ čĊ
Ġsp irit
ogi ro
dz Éª
Ġlo c
Ġqu ick
rÃ© Ã©
igi raa
Ġap pe
Ġcle an
Ġsur pri
Ġemp ty
Ġtradition ally
Ġdiffic ult
IM P
) ,
b in
b aare
b Í»
b ÉªÉĽ
d Éª
g Ã©
k Ã£
l ÃºÃº
m s
m on
n w
t Ã¹
w iri
y Ã³
Ġ ÉĶÉĶ
Ġ if
Ġt all
Ġn ga
Ġb r
Ġb al
Ġb ot
Ġb rown
Ġs ame
on naa
Ġk an
Ġp ush
Ġd end
ar i
Ġw u
Ġw it
Ġw iri
Ġg l
Ġg re
Ġg ÉĽrÉĽ
Ġm il
Ġm us
Ġv ÉĽ
Ġh ar
Ġh ow
Ġh oney
eÉĽ laa
is ed
is hed
ÃŃ rÃ©
ou ght
ba b
bo Åĭ
bo Åĭk
Ã¡Ã¡ lÉª
Ġba le
Ã³ lÃŃ
ÉĶge reba
one e
Ġny o
Ġst ri
Ġst alk
ir ree
ag raa
ag erÉĽÉĽ
ug ht
ent ion
kÉĶ kÉĶ
Ġre l
Ġgy eg
ap ed
ther n
mm ÊĬ
Ġex c
ous ly
Ġwom en
Ġho e
aane ma
Ġbl ind
ĠM tt
ĠnÉĽ ne
ĠTh is
Ġfron t
- ÌĢ
1 0
1 3
1 6
D Í»
S a
c y
d ie
d ap
d ab
d Ã£a
e ar
g be
h ol
k ÉĽ
l ish
n oÉĶ
p p
p Ãº
p ically
s w
s ak
t uo
t ÃºÃ³
y Îµ
Ġ erÉĽ
ÉĶ bÉĶ
Ġt ro
pl ace
Ġa ir
Ġa nn
Ġb ÊĬ
Ġb oÉĶ
Ġb all
Ġb lo
Ġb aal
Ġb ask
Ġs el
Ġs lee
Ġs age
Ġs ÉĶre
Åĭ a
in ce
on s
Ġp alm
Ġd al
Ġl ÊĬ
Ġf ell
Ġf resh
Ġm aking
Ġm outh
en naa
Ġv Å©
Ġc ur
Ġc our
ro om
Ġh at
Ġy et
om o
om ÉĶ
Ġe le
Ġe yes
pe ct
og ili
Åĭm ÃłÃł
Ġny ere
Ġkp i
ut e
yÉĽ lÉĽ
bi ree
mp Éª
ur ree
Ġon es
Ġbon f
É² Ã¡Åĭ
ÉĽg ÉĽÉĽ
Ġma in
Ġwa ist
Ġro ad
ni fe
Ġsa w
Ġsp ot
Ġun t
Ġri ver
Ġri ght
ang ing
uuli bo
Ġear ly
Ġpron oun
Ġsl im
Ġab out
Ġeat ing
Ġcle ar
Ġmat ter
Ġfri end
Ġsuffer ing
sp ital
Ġsub st
ĠV ol
Ġfam ily
Ġret urn
Ġbask et
1 2
1 4
1 5
F o
P l
T o
b t
b Ã¨
g n
l it
p t
p oÉĶ
r Í»
r un
r ated
t oo
t ype
t ÉªÉª
v aa
v are
w h
y s
Ġt imes
re m
Ġn ens
Ġa ne
Ġb ul
Ġb aaloÅĭ
Ġs im
Ġs un
Ġs ens
er t
er oÅĭ
le t
on j
Ġto wn
Ġk yi
Ġd irty
Ġpl u
Ġw et
Ġw ife
Ġf ather
Ġm iire
ri age
Ġv al
at ural
Ġc or
ro ss
Ġh igh
ne mÉĶ
is ter
Ġe ach
Ġe vil
uu laa
ol lÉĽÉĽ
pe c
og erÉĽÉĽ
Ġkp a
Ġkp aÅĭkp
Ġst e
Ġst u
Ġst ill
ir uÅĭ
nn ÃŃ
ow er
ag rÉĽÉĽ
la ge
Ġne mb
ere k
Ġch ange
Ġsh irt
Ġpo s
É² Ã¡
ire d
ÉĽg rÉĽÉĽ
eg on
Ġro pe
ns ÉĶ
ight ly
ĠD a
Ġgo d
me ÅĭÉĽ
bon t
po e
Ġnaa ne
ty pically
ĠgbÉĽ re
Ġstr ugg
Ġho spital
Ġgr ind
ĠH uman
Ġhand s
Ġmedic ine
Ġground n
Ġcan not
Ġbur n
co hol
Ġany thing
Ġ3 0
rog ative
ourn al
ĠJ ournal
20 19
Ġmet al
Ġnanny ige
ĠHuman ities
. )
N o
b it
b ut
c ing
d ing
d áº½ÉĽ
f Ãº
g g
g Ã¨
g ood
k es
k oÉĶre
k ÃºÃ³
l ÃºÅĭ
s Ã³
s ide
t ra
u oni
v aare
v est
y ÉĶÉĶ
Ġt er
Ġt ap
Ġt urn
aa naa
aa roÅĭ
Ġa yi
Ġb at
Ġb ark
Ġs nake
in aa
Ġk aara
Ġk nife
Ġp ull
Ġd el
Ġd as
Ġd aÅĭ
Ġw al
Ġw oÉĶ
Ġw icked
Ġg ane
Ġm ee
Ġm ine
Ġm enne
ge t
Ġv e
Ġv aara
or uu
or rÉĽÉĽ
or se
Ġh us
Ġh ide
ÃŃ ÃŃ
Ġe very
oo t
Ġz age
Ġz enÉĽ
Ġbe bi
uu ni
uu nee
ol ÉĽÉĽ
Ġny e
ut ter
ag re
se ct
un i
ÉĶg raa
Ġte ach
Ġhe re
mb le
Åĭk Ã¡
ÃłÃł rÉª
ÉĽg eraa
Ġro ugh
ÉĶÅĭ ÉĶ
Ġsa id
Ġmo re
ĠpÉĶge s
ale ct
da w
Ġwor th
Ġshe a
Ġshe ll
Ġal so
ĠP ers
ÌĢÌĥ ]
bom b
Ġcl an
Ġbec ause
Ġr un
Ġbre w
eli be
Ġref use
Ġbit s
tÃ² Ã²
ward s
Th ing
Ġhu ng
ÍĤ Ìģ
* *
K o
P rog
b ÉĶge
b aarÉĽÉĽ
c er
d oÅĭ
f ace
g ra
g lÃ¡Ã¡
i iri
k aa
k ale
l Ãº
p per
s en
s ome
t on
t om
t Ã¬
t es
v al
w Ã¡
w Ã³
x y
y Ã¡
z ÃŃÃ©
Ġt ig
Ġt end
Ġn uts
pl y
Ġb amb
Ġs li
Ġs we
Ġs elf
Åĭ ee
er ature
er nat
Ġk yu
Ġp ar
Ġp ad
Ġp up
Ġp eÉĽrÉĽ
Ġd ig
Ġd one
Ġd rum
Ġw eÉĽ
Ġo thers
Ġf el
Ġf ree
Ġf ig
Ġm ound
Ġm ourn
ge reba
Ġv are
or oÅĭ
al aÅĭ
Ġc ap
Ġc olle
Ġy ie
el d
oo p
oo ree
kp ÉªÉĽ
kp onni
Ġz eÉĽre
am mo
im p
im ee
ng lish
Åĭm ÉªÉĽ
ÉĶge lÉĽÉĽ
ee mÉĽ
se t
la w
st one
Ġne Åĭk
Ã¹ Ã¹
gb ÉĽÉĽ
ch ild
nt ÉĽ
nt Éª
Ġso il
Ġch ief
ck s
Ġsh ow
Ġsh ake
ant ity
ĠkÉĶ ns
Ġde ad
ong ue
Ġme as
ko re
me at
Ġha ving
Ġwho se
Ġfe el
Åĭkp ÉĽ
Ġare a
Ġcom p
Ġcom ing
Ê§ Éª
Ġj u
Ġbu ild
che s
Ġbl ood
Ġnim i
Ġ] ÌĥÌģ
Ġtw ist
Ġpre pare
âĢ¦âĢ¦âĢ¦âĢ¦âĢ¦âĢ¦âĢ¦âĢ¦ âĢ¦âĢ¦âĢ¦âĢ¦
Ġfarm ing
Ġins ide
Ġstra w
Ġstra ight
ĠZ enÉĽ
Ġsurpri se
D e
] ÌĮ
b al
b ÉªrÉª
b iruu
c c
d ag
f aarÉĽÉĽ
g ze
l ong
n É²
o le
p y
p eÉĽ
r rÉª
r ong
s elf
w Ã¬rÃ¬
x t
y ÃºÃ³
Ġ eÉĽ
Ġ ill
Ġt ens
Ġt ont
ÌĢ )
Ġn en
Ġa w
Ġb an
Ġb id
Ġb end
Ġs erÉĽ
Ġs aÅĭa
Ġs erious
Åĭ Ã¡Ã¡
on human
Ġk og
Ġk Í»
Ġk uuri
Ġk ono
Ġp eÉĽ
Ġd oÉĶ
Ġpl enty
Ġl aa
ar ch
Ġw ol
Ġw uli
Ġo w
Ġf le
Ġf ly
Ġf aara
Ġf ight
Ġg ÉĽ
Ġg ree
Ġg ol
Ġg ot
Ġm ay
ri c
ge rebÉĽ
Ġv ÉĶ
at a
at ch
or oo
or row
al t
al th
Ġc all
Ġc ount
eÉĽ Åĭaa
ne y
nd i
nd Ãł
kp Ã©
kp onnee
Ġz uo
Ġz anz
Ġz agere
bo ge
bo ree
Ãº rÃŃ
am pe
bÉĽ re
ie t
us es
all ow
oÅĭ aa
Ġst ing
Ġst age
ĠA s
nn i
yÉĽ re
ug ri
st r
lÉª ÉĽ
ĠThe re
Ġne ar
ere nt
uo lee
ny e
lo ph
Ġhe art
mb er
Ġch ick
ck ing
ck et
Ġbo il
ĠkÉĶ ntÉĶ
Ġde c
eg rÉĽ
te mp
Ġbi iri
pÉĽ ge
Ġdi alect
Ġwho le
bÃŃ lÃ©
lÃ© Åĭ
um o
ÉĽge lÉĽ
Ġri tual
Ġwas h
ang u
Ã¡Åĭ Éª
Ġal way
Ġlo st
do ge
Ġen g
Ġcl oud
unn o
Ġear th
Ġsl ow
Ġlu ck
du ce
Ġsup ernat
Ġspe ak
Ġĉ Ġĉ
Ġmar riage
Ġatt ention
Ġpoison ous
Ã´ Åĭ
Ġhar vest
Ġpos ition
xy loph
Ġalway s
D ef
M a
N e
O C
P ÉĶge
T a
a pe
c on
c ond
c co
d ent
d ÃºÃ³
f ÉªÉª
g erÉĽÉĽ
h Ã¡
i a
i raa
k araa
k olo
l bÉĽ
l aare
m Ã¬
m ak
m aale
n ÉªÉĽ
n ky
n oÉĶre
o b
o orÉĽÉĽ
p se
p Ã¹
p elaa
p ÉªrÉª
p Ä©Ä©
s ing
s ÃŃ
t Ã©
u al
u oraa
w aa
w eÉĽ
w oÉĶ
w Ã²
y iri
y oÉĶre
z y
Ã ¢
Ã »
Ġ Ã¡
Ġ lee
Ġ rÊĬ
Ìģ !
Ġt uo
Ġt aste
Ġt ired
ÌĢ ?
pl ess
Ġb ol
Ġb aara
Ġb ook
Ġs ent
Ġs Ã£a
Åĭ Ã¡
le g
on na
Ġto Åĭ
Ġk oÉĶreba
Ġp el
Ġp us
Ġp aste
Ġd an
Ġd om
Ġd est
Ġd aky
Ġw in
Ġw of
Ġw ind
Ġf aa
Ġg ÉĶÉĶ
Ġg Îµ
Ġ( '
en ee
Ġv u
Ġv is
at ing
or y
Ġc r
Ġc ol
Ġc ry
Ġh id
Ġh anging
Ġla mp
ed s
el oo
el li
ÃŃ mÃŃ
ba re
ba ge
ba cco
il li
il ii
Ġe Åĭe
Ġe sc
oÉĶ bo
kp oÅĭi
Ġz eÉĽrÉĽ
Ġz oro
as ter
aÅĭ enÉĽÉĽ
Ġin sect
Ã³ Åĭ
ig iree
Ġny og
ot o
ot hes
are d
se ed
ug ree
ÉĶg lÉĽÉĽ
ay uo
ter ÉĽÉĽ
Ġre ally
ny i
ny aa
Ġte ÅĭÉĽ
Åĭk aa
nt Ã¡
Ġda kp
ĠÅĭm e
ĠÅĭm o
ĠkÉĶ nd
Ġme Åĭ
Ġman g
Ġgo ing
bon d
Ãµ o
Ġsp read
gbÉĽ re
ale ba
ĠĠĠĠ ĠĠĠĠ
Ġta il
Ġal cohol
Ġlo ve
Ġstr ing
Ġstr ange
bil lee
Ġas ib
Ġtoo k
Ġtoo th
Ġcl imb
Ġqu antity
Ġqu iet
Ġmi xed
Ġpre gn
Ġobject s
Ġbur nt
Ġdu or
Ġlu mp
Ġseed s
ank s
Ġref used
ĠL k
ugiri bo
gbo ri
Ġcook ed
Ġstre t
Ġang er
inter rogative
Ġbeh av
ĠÌĥ ]Ìģ
Ġfet ish
ĠTo day
Ġquick ly
Ġbr an
angu age
D ans
K a
N ÃŃmÃŃ
P ART
Y ou
a ÉĽ
a ir
b ir
b ÉªÉª
d anky
f Ã³
f ish
f ather
g er
g rÃ¬
g erÉĽ
h ÉĽ
i our
k am
k ÃµÉĶ
m in
n ge
o e
o ke
p aa
p ÃŃÃ©
s Ã²
s ÉĶre
s ale
u ce
v ent
w ÉĶÉĶ
y Ã¡Ã¡
y Ã²
y age
Ġ âĢ
Ġ xyloph
ÉĶ rÉĽÉĽ
Ġt un
Ġt eÉĽrÉĽ
Ġt est
Ġt ip
Ġt uuro
re t
ÌĢ !
Ġn ight
Ġb og
Ġb aÅĭe
Ġs y
Ġs ÉĽre
on nÉĶ
Ġk eep
Ġp en
Ġp al
Ġp Ä©i
Ġd ro
Ġd am
Ġd oÉĶrÉĶ
Ġd ress
Ġl ot
Ġl aara
Ġl anguage
Ġf areba
Ġg ÉĶÅĭ
Ġm ie
Ġm ere
Ġm eet
ri be
Ġv i
Ġv il
Ġc ast
Ġthe n
Ġy ire
ou thern
ba g
nd Ã¡Ã¡
il t
Ġe gg
kp ere
bo ri
bo li
Ġin d
Ġin f
Ġth in
ul uu
ul laa
og ra
Ã© Ã©
Åĭm aara
Ġny iile
Ġkp aroo
ut ion
ir on
be le
Ġle ather
Ġle af
mp h
Ġne g
Ġre c
Ġwh ile
ÃłÃł nÉª
Ġgb ÉĽÉĽ
Ġbon v
Ġor der
Ġbo re
Ġfo re
Ġpo or
É² Ãł
Ġli bi
our ney
Ġme le
ĠD e
Ġbi k
ĠS aa
ĠS ing
me Åĭ
ga le
Ġsu ch
so ba
ĠpÉĶge lee
ell ow
Åĭg ÊĬ
Ġtree s
Ġat ta
Ġat temp
ÉĽge rebÉĽ
ogi lee
Ġri tes
Ġno ba
Ġno thing
Ġpro t
uÅĭ i
Ġnim iri
ĠM y
âĢ¦âĢ¦âĢ¦âĢ¦âĢ¦âĢ¦âĢ¦âĢ¦ âĢ¦âĢ¦âĢ¦âĢ¦âĢ¦âĢ¦âĢ¦âĢ¦
Ġbre ast
Ġgbo ri
orm ally
ÉĶgere bÉĶ
Ġ1 2
Ġbet ter
mÃ¡Ã¡ rÊĬ
Ġlook ing
Ġbri de
Ġdiff erent
vel op
Ġins ult
Ġper form
uul uÅĭ
oll ow
Ġsing ular
Ġpra ise
ĠÌĢÌĥ ]
Ġnar row
Ġloo se
Dag aare
Ġgre en
Ġcour t
É²Ã¡Åĭ Ã¡Ã¡
Ġstrugg le
Ġgroundn uts
Ġhus band
Ġcolle ct
Ġslow ly
Ġsupernat ural
' )
. /
0 0
E nglish
L egon
P erson
S e
a che
b Ã©
d am
d Ã¹
d Ã¨
d aarÉĽÉĽ
d end
f Ã¡
f ood
g round
h er
i ed
k uuri
k arÉĽÉĽ
l am
l Ã¹
m u
m oÉĶ
m bÊĬ
n al
o pe
o se
p ed
p Ã³
p ill
p eÉĽle
r ans
s g
t ÉĽgÉĽ
v ore
x e
y er
Ç Ĳ
Ġ 5
Ġ ÉĶÅĭ
ÉĽ ne
Ìģ Ìģ
ÉĶ ÉĽ
Ġt en
Ġt ÉĶÉĶ
Ġt amb
ÌĢ /
Ġn ut
Ġn ow
Ġn ent
pl ant
Ġa bÉĽ
Ġa Åĭg
Ġb ed
Ġb us
Ġb ang
Ġb uulo
Ġs as
Ġs Îµ
Ġs ong
Ġs ize
in n
Ġk oro
Ġp or
Ġp un
Ġp ay
Ġp ere
Ġp rom
Ġd Ã£a
Ġd anger
Ġl Îµ
Ġl aare
Ġw ÉĶ
Ġw ee
Ġw ent
Ġw id
Ġo o
Ġo ÉĶ
Ġg oÉĶ
Ġg aÅĭg
Ġm erÉĽ
Ġm ess
ri ed
ri ght
Ġv ig
Ġv ÉĽÅĭ
Ġc ou
Ġh ome
Ġh alf
il lee
Ġe ÅĭÉĽ
kp oÅĭ
kp Ã²
Ġz eg
ree ment
Ġbe er
bo Åĭg
bo dy
Ġin v
ol li
Ġth ink
Ġth ought
ie h
ie le
Ġka p
ng ma
ng me
ak ed
ee rebÉĽ
oÅĭ e
oÅĭ g
Ġkp aara
Ġst ore
ir st
nn Ã¡
ag eraa
Ã² rÃŃ
ent ÉĶ
Ġle t
Ġle ave
mp ÉĶge
ur b
Ġne ed
ion s
Ġse x
gb ÉªÉĽ
Ġso re
ĠÅĭm amp
Ġgb or
Ġbon ny
ĠN eg
ver bs
Ġde ath
Ġde velop
to ri
Ġpo ri
Ġpo st
eg ÉĽ
Ġro dent
ns ÉĽ
Ġdo ge
Ġsa uce
Ġcon dition
Ġmo ving
gy e
ell ig
bÃŃ rÃŃ
ĠpoÉĶ rÉĶ
kÃ¡ rÃ¡Ã¡
orn ing
ĠW hat
amp ana
Ġlo ad
bog iri
aga in
ĠF ut
Ġtu ber
oÅĭk omm
Ġpre par
Ġbir th
pi iri
Ġnu mbers
ugi raa
maa roÅĭ
Ġca used
Ġbro ken
Ġra ised
Ġres pect
zi iri
Ġcook ing
ĠboÅĭ g
Ġac c
Ġac ross
Ġdri ed
Ġdrink ing
head ed
Ġdiv in
Ġcro ss
Ġcont in
Ġpain ful
Ġpri ce
Ġfin ished
ial og
ato poe
Ġuse less
Ġfirm ly
Ġveget able
fl our
ester day
Ġbot tom
Ġones elf
Ġunt il
Ġsubst ance
bÃ¨ bÃŃ
Dans ieh
atopoe ia
L i
N u
P o
P ers
b re
b ug
c ow
d on
d al
d og
d ress
d aky
f ere
f uri
g Ã¹
g rÉĶ
g lÃ¬
h ana
i ous
k Ã¡Ã¡
k Ã¨
l arge
m Îµ
m Ã¹
m aara
m oney
n eÉĽ
n ce
n lÉĽ
n ÃºÃº
n ÃłÃ¡
o ck
s el
s are
s ent
t Ãº
u b
u ro
y Ã¬
z z
z ÃŃ
z iiree
Ġ Ã
Ġ rÃ¡Ãł
Ġt an
Ġt eÉĽre
Ġt eÉĽrebÉĽ
Ġn oÉĶ
Ġn ÉĶÅĭ
Ġa bo
Ġb er
Ġb ent
Ġb ath
Ġs pl
Ġs an
Ġs id
Ġs uuri
Ġs eÉĽrÉĽ
Ġs oÉĶrÉĶ
Åĭ Ã©
in naa
er ri
Ġto bacco
Ġk on
Ġk al
Ġk oÉĶ
Ġk us
Ġk ot
Ġp aa
Ġp eri
Ġp orri
Ġpl ural
Ġl ÉĽÉĽ
Ġl ÉĶÉĶre
Ġw i
Ġw el
Ġw oÅĭ
Ġw aare
Ġw ono
Ġo k
Ġo il
Ġf oÉĶ
Ġf ur
Ġf lo
Ġf ara
Ġf uuro
Ġg ar
Ġg our
Ġm ak
Ġm ater
Ġm ort
Ġm orning
an ary
en nee
Ġv ul
Ġv elaa
Ġv Å©u
or ry
al s
Ġc row
Ġc ult
Ġc alm
Ġh uman
Ġh orse
Ġy uori
om atopoeia
ne mb
el ope
ba ck
nd Ã¬
Ġe ff
kp iri
kp ala
Ġz an
Ġbe b
Ġin form
ol uÅĭ
Ġth orn
Ġth ose
ie lee
pe ge
ng ÉĽ
ak ye
all aa
og rÉĽÉĽ
og iree
og era
Åĭm Ã¡Ã¡
Ġny i
Ġny ag
ad y
be ene
bi y
bi Åĭ
Ġle re
Ġfor ce
Ġse arch
lÉĶ re
Ġre g
gb ÃŃ
ny aÅĭaa
Ġte g
mb Ã¡
mb ÃŃ
mb ie
mb Ã²
Åĭk Ãł
mÉĽ lÉĽ
nt e
Ġch o
ii bu
Ġbon di
Ġgy i
Ġgy aÅĭgb
Ġde me
Ġde af
ru ct
Ġli ps
Ġro t
ns Éª
end ed
ara ct
pÉĶ l
Ġsa c
ko ri
ko ree
po re
ĠK yÉĽ
Ġbom bo
Ġnaa g
ÃºÃº rÃ¬
Ġun w
de ree
Ġgaa bo
art ed
if t
ÃºÃ³ rÃ¬
dz Ãł
Ġsaa Åĭ
Ġno ise
Ġbut ter
Ġta kp
Ġwor m
ku ree
Ġj ourney
Ġpa ir
Ġshe ep
Ġstr anger
ĠdeÉĽ nÉĽ
Ġbl ade
Ġcl othes
lÃ³ Åĭ
Ġco ve
ĠB e
ĠB ayuo
ille d
zÉĽ le
Ġdu oro
Ġsl ightly
bÃ² gÃŃ
bÃ² gÃ¬
kÃº rÃŃ
Ġres id
pa ir
nim iri
ĠC or
ĠC onj
Ġsur face
Ġopen ing
Ġkare m
Ġfall ing
Ġmy st
Ġant elope
Ġmaa roÅĭ
Ġru bb
Ġext ra
gr ass
Ġpol ice
Ġni Åĭe
Ġbeh ind
Ġveget ation
Ġsi x
Ġmark et
Ġmid dle
Ġloc al
rem ely
atural ness
Ġcor pse
Ġmound s
Ġmeas ure
Ġtwist ed
Ġfle sh
Ġgree ting
Ġcloud s
Ġasib iti
Ġvil lage
pill ar
Ġgour d
- Ìģ
C h
D o
E G
G lo
G ood
S ing
W ater
a wa
a ced
b all
b one
b ara
b aal
d as
d eri
f arm
g oÉĶ
g ir
g la
g bÉĶ
g eraa
g lÃ¡Ãł
i Åĭk
i ally
k at
k us
k Ã£a
k á¹¹
l are
m pe
m bile
n en
n oore
n ens
o gere
p ow
p Í»
p Ä©i
r ate
r ka
s Ã¬
s qu
t ÃŃ
v Ãł
v ÃŃ
v ers
w om
w Ãº
w ood
y Ãł
y ed
z ÉĶÉĶ
Å ı
Ç Ķ
â Ĩ
Ġ utter
Ìģ '
Ġt ie
Ġt rans
Ġn ÉĶg
Ġn ang
Ġn ormally
Ġa ra
Ġa head
Ġb ÉĽÉĽ
Ġb ite
Ġb owl
Ġb ring
Ġs at
Ġs us
Ġs la
Ġs ay
Ġs ane
Ġs aal
Ġs igi
Ġs ister
er f
er ing
on y
on omatopoeia
Ġto g
Ġto u
Éª Åĭ
Ġk ara
Ġk no
Ġk oÉĶrÉĶ
Ġk aareba
Ġp im
Ġp ers
Ġp ile
Ġp ress
Ġp uuro
Ġp ond
Ġp ester
Ġl ie
Ġl ine
Ġl ate
Ġl oud
Ġo li
Ġo wn
Ġf ar
Ġf ent
Ġf our
Ġf if
Ġf oÉĶrÉĶ
Ġf uuribo
Ġg or
Ġg al
Ġg are
Ġg un
Ġg um
Ġg oÉĶrÉĶ
Ġg eÅĭ
Ġm el
Ġm ad
Ġm ind
Ġm araa
Ġm ust
an ing
en ess
ge l
Ġv erÉĽ
Ġv ara
Ġv oÉĶrÉĶ
Ġc ould
Ġc alf
ing ly
eÉĽ bo
Ġy og
Ġy aara
Ġy ÉĽre
Ġy agra
Ġy esterday
Ġla zy
ed i
el uu
ou red
nd e
nd ÉĽ
il s
il ing
Ġe Åĭkp
kp a
kp ÉªÉª
kp oli
kp aÅĭkp
Ġz om
Ġz am
Ġz ÉĶÅĭ
Ġz ÉĶÉĶre
as hed
Ġbe ar
Ġad ult
ra ge
am ed
Ã¡Ã¡ nÉª
bÉĽ lemÉĽ
ul aa
ng th
ig ree
ig iribe
Åĭm Ã¡
Åĭm Ã¡nÉª
ic t
ic y
Ġny uuro
ee bo
Ġkp oÅĭkp
ma re
are m
ir c
nn Ã¡Ãł
ĠĠ čĊ
ce pt
Ìĥ ÌĢ
kÉĶ ns
st e
st ri
Ġne at
id aa
Ã¹ lÃ¬
Ġse par
gb Ã¡
gb Ã³
gb Ã¨
ny ÉĶge
ch ing
age s
mb Ãł
mb iri
ĠÅĭm ÉĽg
ĠÅĭm aara
Ġch aract
ÃłÃł lÊĬ
Ġsh are
ii lee
ant ly
ky i
Ġgy e
Ġgy oÅĭ
Ġsm ell
Ġsm oke
Ġde g
ap ÉĶge
Ġma ize
eg ion
áº½ áº½
Ġit e
Ġme ant
Ġman ne
te en
ĠD ab
Ġbi Åĭi
pÉĽ gÉª
me le
Ġsu kyiri
Ġcon s
gy i
Ġbom pe
Ġbom pÉĽ
av ed
Ġfe ar
Ġfe ast
Ġsp ace
Ġun c
ÉĽge le
ÉĶre bÉĶ
Ġwe ight
ĠW est
Ġri ce
Ġri ch
dz Ã¬
Ġsaa na
no on
bÃ¬ rÃŃ
mo ther
Ġfl ow
Ġpro ble
Ġj ud
Ġbu y
Ã¡Åĭ Ã¡
Ġwaa bo
nz ÉĶ
sÉª rÉª
bog ri
bog ree
Ġen nÉĽ
Ġleg erÉĽ
Ġnim ib
Ġco b
Ġtw ine
gÃł Åĭg
Ġpart ic
ght en
Ġgbe g
Ġsc ar
Ġsc ra
kÃ³ gÃŃ
pÉª lÃłÃ¡
gÃ¡ nÉª
ĠG hana
Ġab le
Ġbro ther
Ġres ult
ĠC h
Ġmat ure
ĠdÃ£ ad
unt ed
Ġtak en
Ġcat tle
Ġam ount
Ġfri ed
ha ve
kÉĶÉĶ loÅĭ
Ġfi xed
kpÃ³ Åĭ
kpe le
sÃ£ ak
Ġcare ful
dÃ¡Ã¡ nÃ¡
Ġext remely
Ġtradition al
Ġdiv or
Ġstre am
Ġcro ps
ogiri bo
Ġtight ly
Ġsick ness
Ġpoint ed
Ġng ma
Ġint ellig
Ġmon key
Ġcla im
Ġsqu ee
Ġkale Åĭk
ĠR egion
ĠU pper
Ġhun ter
Ġhel pless
pp ery
lit erature
run k
âĢ¦âĢ¦âĢ¦âĢ¦âĢ¦âĢ¦âĢ¦âĢ¦âĢ¦âĢ¦âĢ¦âĢ¦ âĢ¦âĢ¦
Ġcount ry
Ġdec or
Ġdest ro
Ġbehav iour
Ġxyloph one
Ġpun ish
Ġcontin u
ialog ue
Ġporri dge
Ġeff ort
Ġresid ue
Glo ss
. âĢĻ
1 7
3 0
B ad
E ye
G be
N Ãº
Z i
b uri
b lack
d und
e ye
f ÃµÉĶ
f irst
g ar
g an
g Îµ
g lÃŃ
g rÃ¡Ã¡
g rÊĬ
h y
i ver
i inee
k oÉĶ
k ta
k oli
k Ã¹rÃ¬
l and
m at
m ba
m Í»
m ere
m ÃłÃł
m ind
m ade
n ÉĶÉĶ
n Ã©
n Ã¡Ãł
n onhuman
p Ã£
p ulo
p ond
r al
r ÃºÅĭ
s aare
s erÉĽÉĽ
s ure
s ue
s ely
t ÉĽÉĽ
t am
t ake
t ÃºÃº
t ens
t ÉªrÉª
t aÅĭe
v i
v Ã¹
w l
w Ã©
w oore
w orm
y ee
z ed
z oo
z are
z ug
z oore
Ġ 6
Ġ id
Ġ rÉĶ
Ġ iron
ÉĶ raa
Ġt re
Ġt in
Ġt ere
Ġt ru
Ġt ry
Ġt uÅĭ
Ġn ur
Ġa ss
Ġa ta
Ġa ff
Ġa xe
Ġb in
Ġb ar
Ġb Ã¡Ã¡
Ġb ÉĶÉĶ
Ġb Í»
Ġb eÉĽrebÉĽ
Ġs aÅĭ
Ġs ad
Ġs ag
Åĭ enÉĽ
on es
Ġto t
Ġto ri
Ġk e
Ġk at
Ġk ÊĬ
Ġk ne
Ġk oÅĭk
Ġk oÉĶraa
Ġk erek
Ġp h
Ġp ul
Ġp Í»
Ġp ÉĶg
Ġp ire
Ġp ÉĽg
Ġp arÉĽÉĽ
Ġp eÉĽraa
Ġp eÉĽrebÉĽ
Ġp iire
Ġd at
Ġd and
Ġd aara
Ġd oÉĶrebÉĶ
Ġpl aced
Ġl Ã¡Ã¡
Ġl orry
Ġo g
Ġf la
Ġf eg
Ġf est
Ġf inal
Ġf eet
Ġg ri
Ġg ara
Ġg ently
Ġm er
Ġm iri
Ġm are
Ġm ii
Ġm ara
Ġm oore
Ġm ist
Ġm orÉĶ
Ġm erebÉĽ
en ÉĶ
en ime
Ġv aaraa
Ġv areba
or ns
or ous
Ġc e
Ġc ool
âĢ Ŀ
ro at
it or
Ġh y
eÉĽ naa
Ġy iribe
ed e
nd ÃłÃ¡
kp ÊĬ
Ã¬ rÃŃ
bo l
ol lee
Ġth resh
ie re
im aa
ul ty
ul imo
us k
us ing
ig ri
og re
Åĭm Ãł
Åĭm ÊĬ
Åĭm ane
Ġny a
Ġny aa
Ġny aal
Ġst ep
Ġst unted
ĠA ll
ĠA yuo
nn ing
be erÉĽÉĽ
yÉĽ rÉĽÉĽ
bi eri
Ġle ss
Ġle ÉĽre
ÉĶg a
kÉĶ nn
mp oÉĶ
st er
st and
Ġne ver
ter oo
ny ere
Ġhe ld
mb ÃŃrÃ¬
Åĭk Ã³
Åĭk Ã£a
nt s
nt Ãł
nt ÊĬ
nt Í»
nt ÉªÉĽ
Ġso ba
Ġsh oot
Ġsh ape
et e
Ġgb el
Ġbo le
Ġsm ear
ĠkÉĶ mb
to cks
Ġpo ss
É² ÉªrÉª
ru ment
ÉĽg rÉª
Ġli fe
Ġli ves
Ġli kes
nÉª mb
Ġro am
Ġme mbers
dÃł Ê§
Ġdo or
ab it
ĠD ÉĽre
pÉĶ le
ke le
ke lee
pÉĽ le
ater pillar
po ri
Ġmo squ
gy ere
ene ma
ĠnÉĶ kp
Ġnaa saal
ÃºÃº lÃŃ
bÃŃ nÃŃ
ath ers
Ġfe athers
sh aped
Ġsp ro
kÃ¡ lÉª
Ġwe ar
Ġwe ed
ogi raa
eÉĽre bÉĽÉĽ
Ġout side
Ġup right
ib ling
ĠnyÉĽ rÉĽ
Ġwor ld
we ight
Ġbaa raa
ku Åĭk
Ġbu ro
Ġwaa na
nz ÉªÉĽ
ĠP ART
aga o
Ġen ough
Ġen clo
Ġpi er
arre l
yel b
Ġnim ip
ĠM aa
zu iÅĭ
Ġall ow
lÃł Åĭ
Ġr an
Ġnu bi
ĠpÉĶ le
Ġpare nts
dÉĽ rÉª
Ġtra p
Ġear s
Ġpu oro
Ġwork ers
Ġpie ces
Ġca uses
Ġap p
Ġpow d
Ġpow ers
Ġpow der
Ġeat en
Ġlu ro
Ġbro om
ĠY ou
Ġres pond
Ġafter noon
tere d
ogil uu
nÃŃmÃŃ rÃ¬
Ġtak ing
Ġant s
Ġspe c
Ġfri ghten
Ġfi eld
Ġset tle
Ġdes pair
ep t
wo orÉĽÉĽ
Ġgrow th
Ġshould er
Ġhu ge
Ġag reement
Ġmis s
wÉª rÉĽ
Ġdire ct
Ġjo ke
ÍĤ ÌĢ
Ġsit u
bÃłÃł lÊĬ
Ġimm ature
Ġkye be
Ġinst rument
clo th
Ġsol id
Ġstand ing
Ġdaw daw
........ ........
mit es
Ġappe ar
Ġann oy
Ġblo ated
Ġslee p
Ġslim y
wh ich
Ġmee ting
Ġteach er
Ġsli ppery
Ġpup py
Ġvare v
Ġju mp
Ġhid den
Ġpregn ant
ĠâĢ ĵ
Ġind ic
Ġattemp t
Ġdanger ous
Ġwee k
Ġcou rage
sel ves
ĠÃ Ĵ
Ġabo ve
Ġmort ar
Ġcrow d
Ġmyst erious
wom an
Åı ÉĶ
âĨ ĵ
Ġcharact er
Ġproble m
Ġaff ect
Ġenclo sure
. -
1 8
B aa
D aa
D ÉĶÉĶ
D Ã£
E res
G o
I t
N a
P L
S t
W a
a x
b y
b ul
b ig
b arÉĽÉĽ
b oro
b orn
b aaraa
b ulo
b any
b ini
d Ãº
e k
e x
f oÉĶ
f Ã¹
g ing
g Í»
g bi
g bÊĬ
g da
g rÃ¡Ãł
g aÅĭg
g anaa
k in
k ak
k aare
k ere
k ant
k ap
l Í»
l bÉĶ
l ight
l ook
m y
m eÉĽ
m ÉªÉĽ
m Ã¨
m uri
m ara
m biiree
m ÃłÃłlÉª
n are
n Í»
n ent
p ress
r bÉĶ
r up
s on
s oÉĶ
s ÉĽre
s amp
s ugo
s ÉĶgelaa
t age
t ÉĽrÉĽ
t ongue
u oÅĭaa
v ÉªÉĽ
v Ã¡Ãł
v orous
w or
w erÉĽ
w eÉĽlÉĽ
w ho
y ou
y oÉĶ
y ÃłÃł
z uri
z anz
É ¡
á ½
Ġ Ã¡nÉª
Ġt y
Ġt Éª
Ġt al
Ġt as
Ġt age
Ġt ara
Ġt ÉĽre
Ġt áº½ÉĽ
Ġt eere
Ġt reat
Ġt igiri
re l
re p
Ġn ÊĬ
Ġn am
Ġn uuri
Ġn est
Ġn agra
Ġn aturalness
Ġa Åĭ
Ġa sh
Ġa ku
Ġa zuiÅĭ
Ġb erÉĽ
Ġb arÉĽÉĽ
Ġb ell
Ġs am
Ġs ow
Ġs ell
Ġs eÉĽre
Ġs ans
Ġs amp
Ġs nat
Ġs ÉĶgerÉĶ
Ġs ÉĶgereba
in v
er ment
Ġto ra
Ġto wards
Ġk ÉĽ
Ġk or
Ġk ur
Ġk amp
Ġk aaraa
Ġk ooreba
Ġk ept
Ã¡ n
Ġp ÉĽÉĽ
Ġp il
Ġp ur
Ġp uri
Ġp aara
Ġp aale
Ġp ast
Ġp ort
Ġp uori
Ġp ure
Ġp ound
Ġd w
Ġd ou
Ġd oÅĭ
Ġd arÉĽÉĽ
Ġd ish
Ġd ust
Ġd uoribo
Ġpl e
Ġl im
Ġl ig
Ġl ow
Ġl ÉĶre
Ġl aareba
Ġl ying
ar aÅĭ
Ġw uo
Ġw eÉĽrÉĽ
Ġw oÅĭi
Ġw onimo
Ġw rest
Ġw rong
Ġf ul
Ġf ine
Ġf ill
Ġf ind
Ġf uribo
Ġg i
Ġg og
Ġg areba
Ġm or
Ġm ass
en ni
Ġv a
Ġv aa
Ġv erebÉĽ
Ġv ari
or d
al aaraa
Ġc ri
Ġc ase
ing s
it ch
it che
Ġh i
Ġh ur
Ġh ook
eÉĽ mÉĽÉĽ
eÉĽ loo
Ġy o
Ġy ÉĽÉĽ
Ġy oÅĭ
Ġla d
Ġla Åĭ
om ing
el lÉĽÉĽ
ou l
ba lee
ba mb
ba Åĭk
nd ÃŃ
il o
il ar
Ġe m
Ġe ight
kp o
kp Ã¡Ã¡
kp aare
kp Ã´Åĭ
Ġz on
Ġz aÅĭ
Ġz og
Ġz eÉĽrebÉĽ
Ġbe am
bo re
bo le
bo lee
bo lo
uu r
Ġin ward
ol y
ol laa
iri bee
Ġth roat
bÉĽ rÉĽÉĽ
ie ves
Ġba reba
ul bo
pe le
ng ko
ng ka
ak oraa
ig n
og ri
og ree
ÉĶge leba
ic ious
Ġny on
Ġny eÉĽrÉĽ
ad awa
ut ton
ĠT Z
ir ge
ir rel
nn oo
se erÉĽÉĽ
be bi
yÉĽ le
âĢ¦ .
ct or
ent ÉĶÅĭ
la ce
kÉĶ ntÉĶ
mp ÃŃ
Ġan sw
st ly
ers ion
lÉª gÉª
lÉª mÃ¡
id er
bÉĶ le
Ġse vere
Ġre gre
laa ra
laa rÉĽÉĽ
ny a
age reba
Ġwh ip
lo c
Ġhe n
Ġhe ar
Ġhe ight
Åĭk Ã£
nt ere
Ġda v
Ġda le
Ġon to
Ġsh all
Ġsh out
Ġgb ara
Ġgb iribe
Ġbon y
Ġgy o
Ġgy ere
Ġbo x
Ġbo iled
ĠkÉĶ mp
ĠkÉĶ mbÉĶ
ĠkÉĶ llÉĶ
ĠN a
ĠN g
ĠN o
Ġde bt
ong y
Ġpo p
É² Ãº
Ġli ft
eg iri
eg erÉĽÉĽ
nÉĽ ne
Ġro ll
Ġro bb
ns Ã¡Ã¡
Ġko e
Ġme aning
ni vorous
Ġdo ing
Ġman e
te erÉĽÉĽ
ard s
ĠD uring
Ġbi y
pÉĶ lÉĶ
ĠS ince
ĠS pec
pÉĽ rÉĽ
bon f
qu al
po s
po se
Å© Å©
ĠÉĶ rÉĶ
Ġbom a
Ġnaa d
av a
Ġfe elÉĽ
Åĭkp Ã³
kÃ¡ rÉª
Ġpe el
Ġgaa ÉĽ
ile Åĭ
ĠW a
ĠyÉĽ rÉĽ
ĠyÉĽ reba
Ġwas p
if y
dz ÊĬ
.. .
ĠnyÉĽ llÉĽ
Ġno se
bÃ¬ rÃ¬
iv al
Ġwor d
we ar
Ê§ ÉĽ
ĠdÉĶÉĶ ta
Ġbu ying
Ġye le
Ġye ar
ĠP Í»
bog iree
Ġgr anary
fe male
ĠdeÉĽ ne
ĠF OC
ĠpÉĽ nemÉĽ
ĠpÉĽ nnÉĽ
Ġbl unt
ĠtÉĶ nema
sÃł lÉª
Ġqu est
Ġtw ins
Ġpot s
ori bo
Ġsw elling
Ġsw allow
Ġmi x
less ness
Ġpre vent
Ġrain y
alle nge
za ÉĽ
Ġku Åĭk
saa laa
ĠlÉĶ reba
ĠlÉĶ nnÉĶ
Ġkpe re
Ġbird s
ĠG od
Ġca ution
Ġap ply
ĠzÉĽ nz
Ġdu ck
rÃ³ Ã³
du or
Ġbro th
dÃ¬ Ã¨
ph ant
ĠE ven
olle n
Ġbit ter
Ġsou l
Ġbri ght
Ġcat ch
zÃ¡ nz
Ġam ong
ha ir
Ġu oro
gba le
á¹ į
ĠkÉĶkÉĶ l
Ã¹Ã² rÃ¬
ĠwÉĶÉĶ rÉĶ
gr and
lÃ¨ Ã¨
Ġdist urb
Ġdiffic ulty
The y
mÉª lÉª
Ġpower ful
Ġconf used
Ġatt end
Ġcla y
Ġpra ct
Ġdra g
Ġdra w
Ġimm edi
Ġmud dy
Ġcarry ing
fu om
Ġdanky ini
Ġuu no
Ġtom orrow
Ġkam aa
Ġkam aana
Ġbot tle
Ġwit ch
Ġmus ical
ĠvÅ© Å©
Ġcur ved
wh ite
ert ile
pec ially
Ġdel ay
Ġwicked ness
cer n
Ġcomp ound
Ġprepare d
Ġill ness
Ġtont onema
Ġow ner
Ġeng age
Ġwin now
Ġesc aped
Ġstret ch
Ġdro p
Ġegg s
Ġrec ently
Ġbang le
Ġmater ial
ká¹¹ á¹¹
Ġsepar ate
Ġite ms
Ġjud ge
Ġfest ival
Ġmosqu ito
Ġspro ut
Ġsitu ation
Eres ong
itche n
Ġregre t
. '
2 2
2 4
5 2
D rink
D ialogue
K ÉĶ
M tt
N yÉĽ
S G
S aa
S ome
S outhern
W hat
Y u
a bab
b an
b ri
b el
b ÉĶÉĶ
b ÃłÃ¡
b ath
b eÉĽre
b uuli
b aaloÅĭ
c l
c ar
c ut
d ÃŃ
d oÉĶ
d arÉĽÉĽ
d av
d ale
d own
f i
f el
f ÃŃ
f ee
f Ã£
f are
f ire
f Ã¡rÉª
f ice
f oori
g ÉĽÉĽ
g Ã¡Ã¡
g are
g iv
g ori
i er
j oy
k al
k ing
k om
k ad
k amp
k oÉĶnÉĽÉĽ
l s
l li
l ind
l ogi
m uu
m ant
m Ã¡Ãł
m ÉªÉª
m outh
n am
n Ã³
n ic
n ut
n se
n ÉĶg
n nee
o k
o on
p iri
p Ã©
p Ã¨
p uri
p ile
p Ã£a
p áº½ÉĽ
p ito
p aalaa
r Ã¹
r ÃºÃº
s y
s al
s it
s as
s ug
s ÉĽge
s Ã£a
s ÉªÉª
s araa
s aÅĭkp
t one
t ÉĽre
t ÉĶre
t aÅĭaa
v elaa
v Å©u
w eÉĽmÉĽ
y ÉĽÉĽ
y am
y ÉªÉĽ
y iree
z up
z ÃłÃ¡
z ib
z amb
z áº½e
z ÉĶÅĭe
Ã ®
Ġ 7
Ġ 8
Ġ er
Ġ ug
Ġ ur
Ġ eÉĽrÉĽ
Ġ ÉĽrÉĽ
ÉĽ le
ÉĽ roo
ÉĽ lemÉĽ
Ìģ /
ÉĶ lÉĶ
Ġt ee
Ġt arge
Ġt um
Ġt iire
Ġt ÉĶglÉĶ
Ġt ask
Ġt ongue
re am
Ġn nÉª
Ġn uuli
aa bo
Ġa ma
Ġa Åĭk
Ġb ire
Ġb ara
Ġb ÉĶÅĭ
Ġb ÉĶre
Ġb oÉĶraa
Ġb uulee
Ġb arn
Ġs er
Ġs on
Ġs ed
Ġs Ã£
Ġs and
Ġs aale
Ġs elÉĽ
Ġs imm
Ġs owing
Ġs ince
Ġs ibling
le Åĭ
le ase
Ġto e
Ġto r
Ġto loÅĭ
Ġk n
Ġk in
Ġk er
Ġk ill
Ġk ans
Ġk omm
Ã¡ rÃ¡
Ġp ick
Ġp orÉĶ
Ġp ille
Ġp aalÉĽÉĽ
he red
Ġd eÉĽrÉĽ
Ġd ind
Ġd areba
Ġd omp
Ġd runk
Ġd itch
Ġd irge
Ġpl ent
ar r
ar ie
Ġw on
Ġw ide
Ġw elÉĽ
Ġw arn
Ġw atch
Ġo ur
Ġo ily
Ġf re
Ġf eÉĽ
Ġf ed
Ġf uri
Ġf aareba
Ġf anf
Ġf ollow
Ġf illed
Ġg oo
Ġg aÅĭk
Ġg uulo
Ġm al
Ġm ag
Ġm arÉĽÉĽ
Ġm oÉĶlÉĶ
Ġm alt
an ces
ri st
ge se
ge lÉĶ
Ġv an
Ġv ere
Ġv alle
Ġv eÉĽlÉĽ
at ely
at hered
or s
ro l
ro verbs
it s
Ġh on
Ġh aara
Ġh ip
Ġy aare
Ġla m
Ġla ugh
om it
om biri
ne Åĭk
is s
nd a
nd aa
nd ÊĬ
il ity
Ġe v
Ġe as
Ġe mm
Ġe art
Ġe qual
kp ÃŃ
kp Ã£
kp ÃłÃ¡
kp áº½ÉĽ
kp ÉĽrÉĽ
kp ÉªrÉª
kp aana
kp ulee
kp eÉĽÅĭaa
Ġz up
Ġz ib
Ġz eÉĽraa
Ġz ege
Ġz eÉĽrÉĽÉĽ
as hes
aÅĭ ÉĽÉĽ
Ġad d
ra ft
Ġth ree
Ġth anks
Ã¡Ã¡ rÊĬ
bÉĽ mp
bÉĽ lle
ie ree
th ick
th nic
us ers
ng y
ak are
ÉĶÉĶ raa
Ã© Åĭ
Ã© lÃ©Åĭ
Åĭm e
Åĭm eÉĽ
Åĭm eÉĽle
Åĭm amp
Ġny oÉĶ
Ġny ÉĶgrÉĶ
Ġkp Îµ
Ġkp erÉĽ
Ġkp eÉĽÅĭaa
ma ge
nn Ã¡Ã¡
ct ric
Ġle ÉĽrÉĽ
ÉĶg leba
ÉĶg era
kÉĶ re
mp a
Ġan aÅĭ
Ġne mp
Ġne Åĭkp
Ġne xt
bÉĶ lÉĶ
ter y
ss ip
Ġse le
Ġse Åĭe
Ġse cond
Ġre se
gb Ã¹
ch er
ch ange
Ġte ge
Ġte mb
Ġte ars
age la
lo ri
Ġhe el
mb Ã¡Ã¡
mb Ã³
Ġda p
Ġda pÉĽ
and az
Ġon a
ĠÅĭm eÉĽlÉĽ
ĠÅĭm enaa
Ġsh ot
Ġgy il
Ġgy erÉĽ
Ġgy aÅĭg
Ġbo ast
Ġbo orÉĶ
Ġbo daa
Ġbo abab
ĠkÉĶ n
ĠkÉĶ nn
ĠkÉĶ reba
ĠkÉĶ nÉĶ
Ġde mon
naa saal
Ġpo le
Ġpo kp
Ġpo orÉĽÉĽ
É² Ã¹
É² ÉªÉĽ
É² ÃłÃł
ÉĽg rebÉĽ
Ġli ving
ns ÉªÉĽ
Ġme mber
dÃł lÃ©Ã©
Ġsmall er
Ġdo ba
Ġdo ctor
Ġman go
ab iri
ard en
ĠD agao
Ġbi bile
Ġgo ssip
Ġsa fe
Ġsu ck
Ġcon cern
oÉĶre Åĭ
ĠpÉĶge ba
Åĭg ÃºÃ³
ĠO h
aal ba
ĠnÉĶ rÉĽÉĽ
ĠnÉĶ ng
Ġyel it
ĠÉĶ nnÉĶ
ĠnaÅĭ kpaana
lÃ© Ã¨
ĉĉ ĠĠĠ
ast y
Ġfe ver
Ġsp i
Ġsp ring
Ġun able
Ġun ste
Ġwe alth
Ġpe bb
ile nt
Ġri pe
if ied
gbÉĽ rÉª
Ġzaa Åĭ
Ġzaa meÅĭ
ens ive
dz ÉªrÉª
Ġsaa bo
ĠĠĠĠ ĠĠ
est ic
no re
no orÉĽÉĽ
Ġwater y
da lee
Ġbut tocks
Ġcom es
ĠbÉĽ rÉĽ
ĠbÉĽ llÉĽ
ĠbÉĽ mbÉĽ
ist en
ess ive
we le
Ê§ Ã¬
ĠgbÉĽ g
ment s
ku oÅĭaa
Ġlo se
Ġwaa la
Ġgr and
tÉĶ r
Ġen joy
sÉĽ gÉª
ĠpÉĽ mpÉĽ
ĠkpÉĽ lÉĽ
Ġher d
Ġnim ie
Ġco st
ĠM a
ĠM o
Ġqu arrel
ĠnÉĽ Åĭk
mÃł rÉª
ĠB i
Ġtu mp
Ġsw ing
Ġpre sent
Ġar m
Ġfoo l
ĠH ow
ĠbÉĶ rÉĶ
ĠpÉĶ l
unn aa
Ġky aare
Ġcar ried
Ġsc r
Ġgbo Åĭg
ĠG ood
Ġap pl
Ġclo sely
Ġgiv ing
Ġ1 0
Ġgba Åĭgb
ĠY ÉĽ
Ġra ise
Ġmu i
kol ÉĶ
led ge
Ġbad ly
nim i
anz eÉĽ
fo ge
ph an
ĠE mph
ĠdÃ£ as
Ġfa il
Ġkare ma
Ġbel ong
nv Éª
Ġplay ed
Ġru nning
Ġlog iri
bÉª gÉª
baÅĭ ena
Ġfu ro
Ġfirst born
Ġboy s
ho e
Ġdri ve
Ġmen gÉĽ
Ġche w
Ġche st
ĠkaÅĭk and
Ġstre ngth
Ġshould ers
fÃł rÃł
Ġcro p
Ġsal t
Ġbere aved
Ġjo int
Ġang ry
Ġwant ed
Ġfin ish
Ġsqu irrel
Ġtri p
Ġwri st
Ġgather ing
Ġinst antly
Ġeven ing
sere k
ac ity
pÃ¡Ã¡ lÃ¡Ã¡
Ġfet ch
Ġgrain s
Ġlead er
ÇĴ Åĭ
Ġbage boge
Ġappe aring
Ġdend ÉĶ
Ġmil k
Ġstri p
Ġball oon
Ġele phant
Ġspot ted
Ġsim ilar
Ġplu ck
kÃºÃ³ ÅĭÃ¡Ã¡
Ġworth less
Ġbrew ed
doÅĭ ÉĶ
some thing
Ġtend er
Ġcap acity
str ative
ob ject
Ã» Åĭ
Ġtaste less
Ġbran ch
Ġbran ches
bir d
kam aa
min ate
Ġsy mp
Ġinsult ed
Ġprom ise
Ġgbor gb
Ġprepar ation
Ġdivin ing
nÃºÃº lÃ©Ã©
zz le
Ġok ra
gir ÃŃ
ÇĶ Åĭ
Ġtrans l
Ġsquee ze
Ġpul p
press ion
ĠzÉĽnz ÉĽ
Ġtarge t
Ġplent iful
Ġboast ful
2 1
4 2
5 0
A yÍ»
A yuo
B on
B ow
B ase
C ome
C onj
D ÉĽ
D akoraa
F ood
F OC
H e
I n
K u
K y
K yÉĽ
M e
M aa
N or
P age
P roverbs
S o
S ee
Y o
Y ÉĽ
a ck
a ff
b r
b our
b ugi
c at
c is
c ent
c end
c ess
c omb
c ross
d an
d Ã©
d Îµ
d and
d ire
d ry
d aÅĭk
d ond
e m
e Åĭe
f it
f oo
f ig
f Ã²
f ent
f ara
f oore
f ort
f Ã£a
f Ã¹rÃ¬
g aa
g ol
g um
g ive
g era
g lÃłÃ¡
h Ãł
h ot
h ap
h ide
i ime
i ini
k ora
k arre
k Å©u
k Ã¡Ã¡rÉª
k ÃºÃºrÃŃ
l ÉĶÉĶ
l igi
m en
m ed
m Ãº
m un
m et
m aal
m ÉªrÉª
m anne
m Ã¬Ã¬
m ÃºrÃŃ
n oÅĭ
n bi
n fÊĬ
o es
o one
o ver
o oraa
o bab
p at
p ut
p uori
p ÉªÉª
p eÉĽlÉĽÉĽ
p Ã¹Ã²
p illi
r bÉĽ
r one
r rÃ¬
s he
s am
s uuri
s aarÉĽÉĽ
s ÃłÃ¡
s eere
t an
t eg
t eere
t Ã¡Åĭ
t aÅĭg
t áº½e
t wo
t oloÅĭ
u ne
u nee
u oro
u ble
v y
v Ãº
v ÃłÃł
v aarÉĽÉĽ
v oÉĶre
v Ã¡rÉª
w ere
w ind
w ÉĽge
w uli
w ise
w uluu
y our
y uori
y ÉªÉª
y oree
y ÃŃrÃ¬
z on
z an
z ÉªÉª
z áº½ÉĽ
z Ã¡rÉª
z iness
ï ĥ
Ġ 9
Ġ ul
Ġ Í»
Ġ ene
Ġ eÉĽrebÉĽ
Ġ ÌĤ
Ġ irri
ÉĽ nnÉĽÉĽ
ÉĶ rre
ÉĶ rrÉĽÉĽ
Ġt at
Ġt es
Ġt Í»
Ġt ur
Ġt and
Ġt ÉĶre
Ġt eÉĽraa
Ġt anne
Ġt aÅĭg
Ġt ullo
re w
re me
ÌĢ ÌĢ
Ġn at
Ġn up
Ġn ine
Ġn eÉĽre
Ġn aky
Ġn ative
Ġn ÉĶÅĭe
Ġn oma
Ġn onhuman
aa lee
Ġa te
Ġb eÉĽ
Ġb il
Ġb ra
Ġb am
Ġb und
Ġb aarÉĽÉĽ
Ġb oore
Ġb ÉĽre
Ġb eÉĽraa
Ġb iribe
Ġb uuro
Ġb ase
Ġb any
Ġb uuli
Ġb ull
Ġb alÉĽÉĽ
Ġb uuribo
Ġb uribo
Ġb ullo
Ġb angy
Ġb ÉĶgerÉĶ
Ġb uul
Ġb oÉĶrebÉĶ
Ġb imp
Ġb ÉĶgerebÉĶ
Ġb icy
Ġs Éª
Ġs aare
Ġs na
Ġs ky
Ġs ÉĽge
Ġs old
Ġs ase
Ġs anna
Ġs nu
Ġs Ã£Ã£
Åĭ o
in o
le an
le ÉĽre
on f
on ge
Ġk ar
Ġk Ãł
Ġk as
Ġk ut
Ġk ere
Ġk ora
Ġk ÉĶÉĶre
Ġk anna
Ġk Å©u
Ġk anema
Ġk oÉĶlÉĶ
Ġk onimo
Ġp it
Ġp ap
Ġp ÃµÉĶ
Ġp elaa
Ġp ity
Ġp omp
Ġp eÉĽnÉĽ
Ġp inime
Ġp ilibe
ÉĽÉĽ rÉĽÉĽ
Ġd ol
Ġd ug
Ġd und
Ġd ara
Ġd ane
Ġd ate
Ġd ans
Ġd aareba
Ġd aana
Ġd ull
Ġd aÅĭe
Ġd anna
Ġd anema
Ġd irt
Ġd aÅĭm
Ġd iibu
Ġpl ank
Ġpl aster
Ġl ara
Ġl ÃłÃ¡
Ġl oÉĶrÉĶ
Ġl aaraa
Ġl anna
Ġl ugiro
ar ata
Ġw at
Ġw is
Ġw are
Ġw ag
Ġw ish
Ġw ound
Ġw eÉĽlÉĽ
Ġw ola
Ġw aaleba
Ġw ÉĶgrÉĶ
Ġw ÉĶglÉĶ
Ġo cc
Ġf al
Ġf it
Ġf ol
Ġf are
Ġf ere
Ġf ive
Ġf ib
Ġf erment
Ġg e
Ġg an
Ġg bÉĶ
Ġg eg
Ġg aara
Ġg arÉĽÉĽ
Ġg oraa
Ġg ale
Ġg ang
Ġg uuro
Ġg old
Ġg amb
Ġg oÉĶraa
Ġg aÅĭe
Ġg elle
Ġg uulibo
Ġg elibe
Ġg athered
Ġg arden
Ġm og
Ġm age
Ġm iiree
Ġm ute
Ġm ashed
an cy
ri pe
ri dge
ri fice
Ġv en
Ġv uu
Ġv ap
Ġv uuro
Ġv aareba
Ġv arie
Ġv omit
or ab
or oto
al h
Ġc ree
Ġc ot
Ġc age
Ġc ure
Ġc reat
Ġc roo
Ġc irc
Ġc aterpillar
ro ad
Ġh aa
Ġh om
Ġh und
Ġh ate
Ġh abit
Ġh oly
Ġy aa
Ġy ÉĶge
Ġy Í»
Ġy aala
Ġy eÉĽlÉĽ
Ġy idaa
Ġla Åĭkp
Ġla yer
om ÉĽÉĽ
ne mp
is i
is iri
el ime
nd ÉĶÉĶ
nd aare
nd ÉĽÅĭ
Ġe mb
Ġe thnic
kp Ã¬
kp Ãº
kp ag
kp erÉĽ
kp ale
kp eÉĽne
kp Çİ
Ġz ut
Ġz un
Ġz anna
Ġz ÉĶÅĭe
Ġz oma
Ġz ugiro
Ġz ÉĶÅĭÉĶ
Ġbe ak
Ġbe ad
bo w
bo lÉĶ
aÅĭ mÉĽ
Ġin ner
am biri
iri Åĭ
iri tual
Ġth reat
Ġba z
Ġba obab
ul ate
ul uÅĭ
pe lee
us ion
Ġka reba
Ġka gereba
Ġka gera
ng so
ÉĶÉĶ rÉĶ
Ã© grÃŃ
Åĭm en
Ġny ÉĶÉĶ
Ġny eg
Ġny aale
Ġny ÉĶgreba
Ġny iilee
ad ily
Ġkp o
Ġkp oÅĭ
Ġkp aare
Ġkp uli
Ġkp aana
Ġkp olee
Ġkp ogilo
Ġst ud
Ġst ole
Ġst ory
Ġst arted
ot ion
ĠA f
ĠA n
Ã£ ay
nn oÅĭ
ow ards
aare bÉĽÉĽ
Ġis sue
ce ive
be t
bi Åĭi
ent s
Ġle ne
Ġle gele
Ġle pro
ÉĶg le
Ìĥ ,
kÉĶ rÉĽÉĽ
kÉĶ bÉĶ
mp u
lÉĽ re
st ick
st omach
lÉª Éª
lÉª rÉª
lÉª zÃ¡
id ed
bÉĶ re
bÉĶ lÉĽÉĽ
Ġwith in
ter ÉĽ
ter re
Ġfor get
Ġse g
Ġse re
Ġse at
Ġse kÃ£a
Ġre ady
Ġre mind
gb Ã©
gb Ã¡Åĭ
li er
li ge
li bo
ny ÉĶ
ny uu
ny oÉĶre
ny aÅĭene
gÉª lÉª
Ġhe ap
Ġhe alth
mb ÃŃrÃŃ
Åĭk Ã¡Ã¡
Åĭk eroo
nt Ãº
nt Ã¡Ã¡
and aa
Ġso ap
Ġso biri
ĠÅĭm are
ĠÅĭm eg
ĠÅĭm eÉĽlebÉĽ
Ġch ance
Ġch allenge
Ġch aff
Ġsh allow
Ġsh ock
ant ed
ant amm
ky Îµ
ky iree
ky eemÉĽ
Ġgb eÉĽrÉĽ
Ġgb eÉĽrebÉĽ
Ġbon ky
Ġbon so
Ġgy ab
Ġgy ege
Ġgy erebÉĽ
Ġgy ongy
Ġbo th
ĠkÉĶ rÉĽÉĽ
ĠkÉĶ lebÉĶ
Ġde ed
naa d
naa zo
Ġfo ora
to re
ap a
Ġpo ora
Ġpo cket
É² Ã¡Ã¡
É² ÃºÃº
ÉĽg raa
nÉª Éª
eg ree
eg erÉĽ
Ġwa le
Ġus ing
áº½ ÉĽÉĽ
ns Ãº
Ġit ch
ll ÃŃ
Ġme ge
ab uri
ab ility
te m
end ing
Ġbi Åĭ
pÉĶ re
pÉĶ lee
ĠS outhern
Ġsa fo
Ġsa bÉĽlemÉĽ
ane mÉĽÉĽ
bon v
bon y
Ġdi ed
qu e
ill ow
po orÉĽÉĽ
Ġmo ves
so ge
Åĭg ÉĽ
lÃŃ bÃŃ
ĠK yÎµ
ĠO ne
aal oo
ĠnÉĶ m
ĠnÉĶ ÉĽ
Ġyel b
Ġyel is
Ġyel meÅĭÉĽ
ĠÉĶ reba
Ġnaa zo
ĠpoÉĶ nÉĶ
ĉĉ ĠĠĠĠ
ĉĉ ĉčĊ
ĉĉ ĉĉčĊ
Ġun cle
de ed
Åĭkp Ã¡
Ġtaa na
Ġpe lee
Ġpe ace
ook ed
ĠW here
Ġri te
Ġwas te
if ic
ĠmaÅĭ go
ass ava
Ġsaa ma
bÃł Åĭ
bÃł ndÃł
bÃ¬ l
ang ular
iv ated
ĠbÉĽ lÉĽ
ĠbÉĽ rebÉĽ
ĠbÉĽ ÅĭÉĽ
Ġfl ower
ess ion
we erÉĽÉĽ
Ê§ ÉĶ
Ê§ ÃŃ
Ġpro te
Ġpro du
ku onee
Ġbu lee
Ġho pe
sÉª gÉª
ĠP e
ĠP ÉĶge
ĠP age
ĠP erf
Ġas ide
do le
nÃ¡Ã¡ b
nÃ¡Ã¡ rÉª
Ġ- Ìģ
Ġleg rÉĽ
Ġleg rebÉĽ
Ġob li
Ġbl ow
Ġtoo ri
Ġdog s
lÃ³ Ã³
pÉĶge ba
yel i
Ġnim is
ĠmÉĶ nÉĶ
ĠtÉĶ nnÉĶ
Ġqu ite
mÃŃ ÃŃ
Ġsw ell
hen ware
zu ree
zÉĽ lÉĽ
Ġar mp
Ġbec ame
dÃ£ ak
baa la
Ġfoo reba
zÉĶ nnÉĽÉĽ
ĠH ab
Ġr ing
Ġrain ing
ĠbÉĶ le
Ġpart s
Ġpare s
lÃ¡ nÉª
Ġku ro
Ġku olo
Ġdon key
Ġtra ck
Ġtra vel
Ġcar nivorous
Ġear lier
Ġsc oop
ĠlÉĶ rÉĶ
ĠlÉĶ nne
Ġgbo ree
Ġpu oraa
Ġhead s
Ġkpe g
tÃł gÉª
Ġap art
ĠdÉĶ bÉĶ
Ġdis c
Ġga ve
Çİ Åĭ
Ġdu oraa
Ġclo sed
Ġoff er
Ġmale f
Ġmove ment
ĠdÉĽ lebÉĽ
ĠdÉĽ llÉĽ
Ġyoung er
Ġ1 1
Ġ1 5
omp any
dÃ¬ Ã©
Ġref er
kol a
kol lee
sm ith
sm elling
Ġcle ver
anz eere
ĠL egon
Ġback wards
ĠdÃ£ Ã£
Ġfa ir
Ġfa iled
omm u
Ġze Åĭe
ĠtÉĽ r
pÃŃ lÃŃ
Ġunder stand
Ġtak es
Ġyam s
Ġbri m
Ġbri dge
Ġsee maa
zo ÉĽ
Ġed ge
gyÉĽ le
Ġother wise
ount ain
zÃł gÉª
Ġru m
Ġleav ing
Ġper oo
Ġdes p
baÅĭ a
Ġyour self
Ġfu ree
Ġbeg in
Ġbeg inn
bÃº lÃŃ
with out
Ġdag aÅĭg
Ġche at
Ġche ek
Ġflat ten
ĠsoÉĶ nÉĶ
Ġsig n
Ġknow ledge
Ġshar pen
ĠJ n
Ġgbi ire
Ġlag ra
Ġlag reba
Ġcont rol
pÃł rÉª
su kyiri
Ġti ed
Ġng mÎµ
Ġsen so
Ġpri de
ash ing
Ġint ens
zÃ¹ g
Ġsit ting
PÍ» gda
Ġsog ro
Ġsog ribo
pÃ¡ r
Ġgra ce
kÃ© lÃ©
kÃ© rÃ©
Ġcra wl
Ġsale nd
Ng me
ĠmoÉĶ leba
Ġhun ting
Ġhap p
fruit s
Ġel se
Ġel der
Ġwu oro
Ġgl utton
Ġmus ic
ĠnÉĽne fÉĽ
kÉĽ lÉĽ
sak ÉĶre
Ġtro users
Ġtro uble
Ġblo ck
Ġsel lÉĽ
Ġele ctric
ogili bo
Ġclear ly
Ġreturn ed
Ġval inv
Ġstu ff
Ġgod s
ĠgbÉĽre gbÉĽ
Ġburn ing
Ġter mites
yÃ¡ gÉª
Ġtig it
Ġsli p
Ġswe at
Ġbuild ing
yÃºÃ³ nÃŃ
Ġchick en
Ġwash ing
ĠsÃ£a ÉĽ
Ġcr ush
Ġcry ing
Ġdakp al
ĠkÉĶnd az
Ġquiet ly
Ġlump s
bir th
danky ins
Ġcast rated
Ġneg ative
Ġatta ck
00 0
Ġbus iness
ĠvÉĽÅĭ ÉĽÉĽ
Ġzeg erÉĽ
boÅĭg u
Ġsid i
Ġkot uo
Ġflo or
Ġmak es
Ġinform ation
Ġsac rifice
Ġunw anted
Ġcove t
Ġkarem biiri
Ġgreeting s
Ġgor g
ĠDab uo
ĠbiÅĭi biÅĭ
Ġpartic ular
Ġscra pe
Ġcontinu ously
fÃµÉĶ o
Ġgri p
Ġthresh ing
look ing
you ng
Ġty re
Ġport ion
Ġdou bt
Ġansw er
Ġsevere ly
á¹į Ä©
Ġwinnow ed
Ġug ly
Ġtee th
Ġkin ship
Ġker ne
Ġeart henware
Ġdemon strative
ĠBi biiri
Ġsymp ath
Ġtransl ation
Bow aalee
ïĥ ĺ
Ġul cer
Ġbicy cle
ĠgbÉĶ É¡
Ġcroo ked
Ġhund red
Ġlepro sy
lÉªzÃ¡ ÉĽ
Ġbeginn ing
! âĢĻ
2 5
2 7
2 9
3 3
3 7
3 8
4 1
4 6
A n
A kan
B i
C orn
D og
D ire
E mph
F e
F uneral
H and
I mp
K Í»
K yÍ»
L a
M outh
N Ã¡Ã¡
N eg
N EG
P ÉĶ
Q n
T ake
Y uori
Z u
a bÉĽ
a int
b l
b im
b rÉĽ
b ur
b oore
b ÃºÃº
b uli
b orÉĶ
b enÉĽ
b Ã¹rÃ¬
b inee
b ÇĴ
c om
c ol
c ast
c orn
c ity
c ret
c raft
c ooked
d at
d Ã³
d ÃłÃł
d eg
d omp
d ÃŃrÃ©
e v
e ch
e mm
f er
f uu
f all
f ÉªÉĽ
f ÉĽge
f eere
f eele
g le
g ri
g Ãº
g am
g lÉĽ
g id
g ÉĶÅĭ
g reat
g uuli
g lÃ²
h un
h and
h ouse
i ff
k as
k Í»
k ur
k eg
k ara
k oro
k ind
k ogi
k ala
k ÉĶÉĶre
k oÅĭk
k oÉĶraa
k aÅĭa
k uribo
l ba
l im
l ak
l ine
l me
l ass
l Ã¡Åĭ
l maa
l inni
m aÅĭ
m Ã²
m be
m mÉĽ
m oore
m araa
m orÉĶ
m uree
n ing
n age
n ight
n lÃ¡Ã¡
n lÃ©Ã©
n wÉĽ
p re
p it
p el
p il
p ÉĶÉĶ
p aare
p ÉĶg
p ire
p oore
p ÃµÉĶ
p Ä©
p áº½e
r in
r pÉĶ
r ange
s ol
s Ã©
s Îµ
s aale
s day
s Ã¡rÉª
s Ã¡Ã¡rÉª
s ugiri
s ÉĶglaa
s nake
s kin
s pecially
t ÉĶÉĶ
t aare
t áº½
t end
t ÃłÃ¡
t ime
t ightly
u mm
u de
u able
u onee
v ar
v ul
v ide
v ÉªrÉª
v ice
v Ã¡Ã¡rÉª
v ÃłrÉª
w s
w as
w Ã¡Ã¡
w aare
w arÉĽÉĽ
w aale
w eÉĽle
w áº½ÉĽ
w elÉĽ
w arm
w Ã¡rÉª
w eep
w rest
y Ãº
y ie
y aare
y aarÉĽÉĽ
y aga
y ori
y ÃŃÃ©
y ÃŃrÃŃ
y Ã¡Ã¡lÉª
y oÉĶbo
z ing
z am
z Ã³
z Ã²
z eÉĽre
z elÉĽ
Ä Ľ
Ġ ig
Ġ und
Ġ ire
Ġ iree
Ġ ÉĽre
Ġ ide
ÉĽ mÉĽ
ÉĽ nne
ÉĶ nne
Ġt uu
Ġt ug
Ġt aara
Ġt ale
Ġt uuree
Ġt areba
Ġt aky
Ġt uuraa
Ġt uuribo
Ġt angy
Ġt iÅĭ
Ġt entÉĶ
Ġt asty
Ġn ak
Ġn ag
Ġn Í»
Ġn ug
Ġn ÉĽg
Ġn oore
Ġn ud
Ġn ice
Ġn aked
aa Åĭk
aa mÉĽÉĽ
Ġa che
Ġb is
Ġb iree
Ġb ene
Ġb eÉĽre
Ġb araa
Ġb elaa
Ġb orÉĶ
Ġb reat
Ġb eÉĽlÉĽ
Ġb ÉĶgere
Ġb ini
Ġb ugo
Ġb ÃŃrÃ¬
Ġs il
Ġs aarÉĽÉĽ
Ġs end
Ġs ÃµÉĶ
Ġs eere
Ġs own
Ġs ÉĶgÉĽÉĽ
Åĭ Ã³
Åĭ enaa
in ky
in imo
er b
er ate
le nni
on ent
Ġto w
Ġto ol
Ġto mb
Ġto mÉĶ
Ġk Ã¡
Ġk id
Ġk aarÉĽÉĽ
Ġk Ã£a
Ġk araa
Ġk uuree
Ġk ank
Ġk unt
Ġk itchen
Ġk andaz
Ġp on
Ġp oÅĭ
Ġp erÉĽÉĽ
Ġp ine
Ġp erÉĽ
Ġp our
Ġp ara
Ġp oraa
Ġp oore
Ġp ath
Ġp ÉĽge
Ġp ili
Ġp Ã£a
Ġp est
Ġp eÉĽle
Ġp eere
Ġp ÉĽrÉĽ
Ġp ink
Ġp areba
Ġp uuraa
Ġp eÉĽrÉĽÉĽ
Ġp uuribo
Ġp ÉĶgrÉĶ
Ġp iiraa
Ġp ampana
he art
ÉĽÉĽ re
Ġd en
Ġd Ãł
Ġd ed
Ġd ee
Ġd et
Ġd eÉĽrebÉĽ
Ġd oÅĭk
Ġd oÉĶraa
Ġd igi
Ġd ÉĶgÉĽÉĽ
Ġd uoree
Ġd eni
Ġpl an
Ġpl ough
Ġl l
Ġl on
Ġl ur
Ġl lÉª
Ġl aarÉĽÉĽ
Ġl oÉĶre
Ġl oÉĶrÉĽÉĽ
Ġl inne
Ġl isten
ar row
Ġw he
Ġw an
Ġw Îµ
Ġw and
Ġw ÉĶÅĭ
Ġw ÉĽre
Ġw ise
Ġw arm
Ġw rink
Ġw olÉĶ
Ġo p
Ġo ath
Ġo pp
Ġf ÉĽ
Ġf lee
Ġf aarÉĽÉĽ
Ġf ÉĶÅĭ
Ġf Ã£a
Ġf aaraa
Ġf oÉĶraa
Ġf uuraa
Ġf anema
Ġg ul
Ġg all
Ġg ad
Ġg ÉĶg
Ġg araa
Ġg ala
Ġg angy
Ġg ho
Ġg amm
Ġm in
Ġm Ãł
Ġm om
Ġm erÉĽÉĽ
Ġm ant
Ġm ap
Ġm uri
Ġm eraa
Ġm orÉĽÉĽ
Ġm oÉĶrÉĶ
Ġm ult
Ġm alle
Ġm ould
Ġm Çİ
an ee
an imal
an zeerÉĽÉĽ
ri end
ri but
en g
en cy
Ãł bÉĽ
ge on
Ġv el
Ġv ol
Ġv ow
Ġv aare
Ġv ine
Ġv eraa
Ġv ile
Ġv araa
Ġv oÉĶreba
Ġv ain
at es
or om
or ously
al o
al oo
al so
Ġc re
Ġc al
Ġc assava
ing y
ing ers
ro t
Ġof ten
it ogo
it ute
it ude
Ġh are
Ġh ill
Ġh um
Ġh ollow
Ġh alh
Ġy of
Ġy aareba
Ġy agÉĽÉĽ
Ġy agreba
Ġy oy
Ġy agraa
Ġy ellow
ne m
ne mÉĽÉĽ
ne stly
el ly
el and
el uÅĭ
ba le
ba ga
ba Åĭe
nd Éª
Ġe ag
Ġe specially
oÉĶ mÉĶ
oo ting
kp i
kp ÉĶge
kp ee
kp age
kp ara
kp uli
kp olo
kp enne
Ġz eÉĽ
Ġz oÅĭ
Ġz ug
Ġz aara
Ġz ab
Ġz áº½ÉĽ
Ġz iv
Ġz amp
Ġz annÉĽÉĽ
Ġz amb
Ġz ugi
Ġz anema
Ġz imaa
as a
as ing
as ed
as ant
Ġbe ge
Ġbe es
Ġbe biri
aÅĭ ena
uu no
Ġin h
ra w
ra ct
ol uu
ol ÉĶÅĭ
rÉª mÃ¡
Ġth res
Ġth orns
Ġth rone
bÉĽ roÅĭ
ie e
im port
im ax
Ġba p
Ġba ga
pe t
th rough
Ã³ rÃ¬
us ielee
ng o
ng ÉĶ
ng pi
ak es
og eraa
Åĭm am
Åĭm are
Åĭm aareba
Åĭm Çİ
ic ed
ic es
ic ky
ic ide
Ġny am
Ġny uuri
Ġny oore
Ġny eÉĽraa
Ġny eÉĽrebÉĽ
ee mÉĽÉĽ
Ġkp eÉĽ
Ġkp eraa
Ġkp ÉĽge
Ġkp olo
Ġkp aaraa
Ġkp aareba
Ġkp alÉĽÉĽ
Ġkp iire
Ġkp inne
Ġst ay
Ġst ation
Ġst amp
Ġst ruct
Ġst icky
ĠA m
ĠT a
are bÉĽÉĽ
ir r
ir in
ir cle
nn o
ag ye
se g
se cond
be h
yÉĽ rÉĽ
bi re
la y
un k
Ġle n
Ġle vel
Ġle arn
ÉĶg eroÅĭ
Ìĥ .
kÉĶ mp
kÉĶ laa
kÉĶ mbÉĶ
mp t
Ġan a
Ġan s
Ġan us
Ġan aare
st ing
st alk
ur ative
bÉĶ l
bÉĶ ÅĭÉĶ
Ã¹ rÃŃ
Ġfor t
Ġfor tu
Ġse a
Ġse w
Ġse ÉĽÉĽ
Ġse erÉĽÉĽ
Ġse gese
Ġse cret
Ġre ad
Ġre ject
Ġre ason
Ġre duce
laa raa
li bi
li quid
ny ÊĬ
ny uuri
ny oge
ny aÅĭenÉĽÉĽ
Ġte erÉĽÉĽ
Ġte wÉĶ
gÉª bÊĬ
gÉª bÉª
lo ck
Ġhe ard
mb led
mb iruu
Åĭk Ãº
Åĭk am
Åĭk ÃºÃ³
Åĭk ÃµÉĶ
nt Ã³
nt ÃºÃ³
Ġda be
Ġso on
Ġso res
Ġso aked
ĠÅĭm ant
ĠÅĭm aarÉĽÉĽ
ĠÅĭm entÉĶÅĭ
Ġch air
Ġsh ri
Ġsh ade
Ġsh op
Ġsh owing
Ġsh ift
ky eÉĽ
ky oo
ky erÉĽÉĽ
Ġgb ant
Ġgb ine
Ġgb aara
Ġgb eÉĽle
Ġgb ala
Ġgb aala
Ġgb alÉĽÉĽ
Ġbon n
Ġbon saa
Ġgy erÉĽÉĽ
Ġgy ef
Ġor phan
Ġbo b
Ġbo k
Ġbo red
Ġsm art
ĠkÉĶ laa
ĠkÉĶ llÉĽÉĽ
ĠkÉĶ nnÉĶ
ĠN e
ĠN EG
ver ÉĽ
ver al
Ġde bri
naa bo
to e
to ree
ap ult
Ġpo e
Ġpo reba
É² Ã¡Ãł
É² Ã¬Ã¬
ru b
ru ding
ire Åĭ
Ġli ve
eg i
nÉĽ nÉª
Ġwa ÉĽ
Ġwa it
Ġro ot
ns a
ns ÃłÃł
Ġ]ÌĢ Ìĥ
Ġko re
Ġko ree
Ġko oraa
Ġko ora
ll Ã¡Ã¡
ll Îµ
Ġme elÉĽ
dÃł Åĭ
Ġdo ve
Ġdo dge
ab ie
te ÅĭÉĽ
ĠI n
Ġbi w
pÉĶ rÉĽÉĽ
ĠS a
ĠS ee
Ġgo ree
ko lee
bon di
bon daa
Ġdi p
Ġsu e
Ġsu oro
po ree
po sed
Ġmo st
Ġmo orÉĶ
so ri
so ree
ĠpÉĶge d
gy aÅĭgb
mm Ã¡
mm ÃŃ
mm Ãº
mm ÃŃrÃ¬
mm Ã¡Ã¡rÊĬ
Åĭg bÉĽ
Åĭg be
lÃŃ mÃ©
Ãµ i
ĠK ÉĶ
ĠK ow
Ġex pl
ĠnÉĶ nÉĶ
ĠÅĭ Ã¡Ã¡
Å© o
ĠÉĶ nne
Ġbom bon
ĠnaÅĭ gb
ze le
ast ered
av ing
Ġfe w
Ġfe ed
sh y
Ġsp ice
Ġsp iritual
de me
Åĭkp Ã²
kÃ¡ mÃ¡Ã¡
kÃ¡ nÊ§
Ġtaa ba
Ġwe aring
ort ed
ĠW h
ĠW ill
Ġri d
Ġri se
Ġri gid
ĠyÉĽ rÉĽÉĽ
Ġbie o
ÃºÃ³ lÃ¬
ale nv
dz ÉĶ
Ġsaa la
Ġsaa fe
Ġno is
mo re
da bo
Ġbut cher
Ġcom mit
ĠbÉĽ rÉĽÉĽ
ĠbÉĽ mp
Ġfl u
Ê§ ÉªÉª
Ġpro duce
Ġpro cess
ku oni
Ġj elly
Ġbu Åĭ
Ġbu ilt
Ġpa id
Ġal one
Ġlo ri
Ġlo ck
Ä© e
mÃ¡ rÃ¡Ã¡
nz ÉĶre
do ree
ÉĶÉĶre bÉĶ
nÃ¡Ã¡ bÊĬ
nÃ¡Ã¡ zÊĬ
Ġen c
Ġpi iribe
ĠdeÉĽ lÉĽ
yu oni
Ġleg ire
ĠF act
bom bo
sÉĽ rÉª
ĠpÉĽ nnÉĽÉĽ
Ġbl ad
Ġtoo reba
Ġcl imax
lÃ³ rÃŃ
yel f
yel w
Ġher bal
ink ling
Ġco ck
Ġyi raa
Ġyi eld
ĠtÉĶ nnaa
Ġtw enty
mÃł nÃł
mÃł rÃł
mÃŃ rÃ¬
ĠB on
zu zeÉĽ
less ly
tÉĽ nz
Ġar ri
Ġar rest
Ġar ms
Ġar range
dÃ£ ad
ĠÉĽ rÉĽÉĽ
ĠÉĽ rebÉĽ
tÉª ÅĭÉĽ
zÉĶ nne
Ġr at
Ġr ush
Ġrain s
Ġget ting
di ff
ĠbÉĶ rÉĽÉĽ
ĠbÉĶ bÉĶ
Ġday s
Ġplant s
Ġhard en
ust ed
unn uu
Ġku ree
Ġky ÉĶge
Ġdon d
dÉĽ mÉĽ
ful ly
saa naa
ĠgÉĶ nÉĶ
maa rong
Ġbre ath
Ġsc ale
Ġgbo e
ugh ter
bu lee
kÃ³ g
kpÉĽ ÅĭkpÉĽ
op ÉĶgeraa
pÉª lÃ¡Ã¡
Ġexp eri
kÃł rÉª
kÃł lÃł
ĠG al
Ġbur st
Ġbur row
ĠdÉĶ se
Ġdis ap
Ġgu olo
ĠzÉĽ le
Ġim ple
bÃ² rÃ²
Ġfarm er
Ġgiv es
anky iri
du oraa
sÃ¡ mp
ont aa
ĠdÉĽ nne
ĠdÉĽ nnÉĽ
nu bi
Ġbro ad
ĠgyÉĽ l
ĠgyÉĽ le
dition al
Ġgba g
Ġround ish
bb it
co ver
Ġlight ly
ĠY e
Ġra w
Ġra bbit
kol aa
pa in
nim ie
nim ig
mbÉĶ re
Ġlit tered
tain er
Ġsur round
Ġput ting
ĠdÃ£ ab
Ġcut ting
Ġze Åĭ
ĠzÉĶ nzÉĶre
Ġshort s
ins ide
ogil aa
Ġunder wear
ĠsÉĶ rÉĶ
Ġfire wood
Ġmy self
Ġbons uuri
zÃ¡ g
zÃ¡ gÉª
ĠboÅĭ Åĭm
Ġspe ct
Ġspe ech
Ġplay er
Ġplay ers
Ġgro in
ha zard
Ġu ne
Ġru b
Ġlog iree
Ġins ane
fÉª l
gba Åĭg
Ġdes ire
Ġstick s
Ġac cept
Ġstate ment
Ġsound ing
Ġthem selves
bÃº rÃŃ
bÃ¡Ã¡ rÃ¡Ã¡
gu oli
ho le
Ġgrow n
bÃ¹ Ã¹
bÃ¹ gÃ³
ĠbÉĶge Åĭm
ĠtoÉĶ raa
Ġkpaa roÅĭ
Ġbomp aala
sÃº gÃ²
tÃ³ rÃŃ
ĠZ i
Ġdiv ide
nÊ§ ÇĲ
ĠkaÅĭk aÅĭ
Ġknow ing
Ġvo ora
read y
Ġbug ro
ĠkÉĶÉĶ lÉĶ
Ġdist ant
Ġdist ress
Ġdist ended
Ġremo ved
Ġtalk ing
uul it
Ġthrow ing
gbÃł lÉª
Ġent uo
ĠyÉĶ rÉĶ
mÉª ÅĭÉĽ
wÉª lÉª
Ġwall s
Ġold er
Ġmaale ng
gbÃ² rÃŃ
Ġng me
Ġdire ction
Ġfish ing
kpÃ¡ rÃ¡
Ã¬Ã¬ r
Ġmon th
hat ic
nÃłÃł sÃłÃł
Ġstomach ache
dzÉĽ lÉª
Ġtri angular
Ġwri t
ele Åĭ
lu ro
lu de
ÅĭÉª nÉª
pÉĽmpÉĽ lÉĽÅĭ
bomp iiraa
beÉĽ dom
tak er
Ġband akare
Ġspo il
Ġspo ilt
Ġmark er
Ġhap pen
Ġdaw adawa
bons eÉĽraa
dÃ² bÃł
ĠnÉĶÉĶ teÉĽ
Ġburi al
Ġburi ed
Ġtom ato
Ġhel p
Ġspirit s
Ġloc ally
mon key
ari a
Ġmil li
Ġhoney comb
kÉĶkÉĶ l
Ġrel ation
Ġrel ated
Ġblind ness
ĠvÅ© us
Ġsens ÉĽ
Ġgrind ing
Ġgroundn ut
tra ight
Ġmee me
Ġevery thing
Ġbrew ing
Ġhung er
Ġhung ry
gra ce
child ren
Ġwol w
Ġwuli w
Ġfly ing
Ġchick s
Ã¡ÅĭÉª nÉª
ĠĉĠĉ ĠčĊ
ĠĉĠĉ ĠĉĠĉĠčĊ
Ġvis ible
Ġcol our
Ġesc ape
nyi ili
Ġclimb ing
Ġpregn ancy
Ġduor un
Ġstret ched
Ġtun o
ĠgÉĶÅĭ gÉĶ
ndÃ¡Ã¡ nÃ¡
Ġpoor ly
Ġmele m
Ġprot ruding
Ġcourt ship
ĠgoÉĶ rbÉĶ
Ġmess age
Ġvig orously
Ġinv ad
Ġprepar ing
Ġber ry
Ġspl it
Ġsid es
Ġperi od
ĠwoÅĭ ee
nte erÉĽÉĽ
Ġcho ked
Ġrot ten
Ġcove red
Ġrubb ish
Ġflesh y
pow der
Ġsla ve
Ġtou ch
Ġkno ck
Ġpers ist
Ġpester ing
Ġflow ers
gÃłÅĭg Ãł
ĠCh ild
Ġdivor ce
Ġintellig ence
Ġclaim s
dund ul
koli Åĭk
mat ter
Ġnur se
Ġtot ally
Ġph ys
Ġfla p
Ġmer c
Ġce iling
Ġweed ing
Ġapp end
Ġpowd ered
Ġspec ies
Ġindic ating
á½ ¹
Ġash amed
Ġple ase
Ġmass age
uur uu
Ġquest ion
ĠsÃ£ ak
Ġkn own
Ġkomm ie
arr hoe
Ġvalle y
Ġunste adily
fig urative
gum ent
Ġene my
Ġirri t
Ġbund le
Ġsold ier
Ġocc as
Ġvarie ty
Ġcree ping
Ġcreat ure
Ġhom eland
Ġmege m
Ġflatten ed
wrest ling
Ġopp onent
Ġgho st
Ġyoy ogi
olÉĶÅĭ Åĭm
Ġthres hed
Ġfortu ne
Ġdebri s
Ġjelly like
arrhoe a
) ;
4 0
4 5
A G
A d
A da
D ay
E at
F owl
G od
H ow
H ouse
K par
L k
L Îµ
M ar
N G
N i
N aa
N im
N ens
N any
N atural
O ne
P e
P u
P ÉĶg
P erf
S p
S ep
S traight
T u
T eÉĽ
W eep
W here
Y a
Y ÉĶ
Y es
Y Îµ
Z ÉĽ
b is
b oÉĶ
b oo
b Îµ
b elaa
b ala
c our
c ation
c ause
d eÉĽ
d is
d oo
d are
d ist
d Ã¡Åĭ
d Çİ
d ÉĶÅĭe
d Ã¹Ã²
d ÉĽgere
d Ã³rÃŃ
d ons
e ree
e ces
e yes
f om
f Ã¡Ãł
f ÃºÃº
f ÉĽre
f ast
f uli
f elÉĽ
f ÉªrÉª
f oÉĶnÉĽÉĽ
f inger
f oÉĶne
f oÉĶrebÉĶ
f riend
g aÅĭ
g uu
g ÉĶÉĶ
g ot
g lÉĶ
g ÃºÃº
g old
g Ã¡rÉª
g alle
g enne
g ÉĶgÉĶ
h aa
h ar
h or
h Ã¡Ã¡
h ard
h ook
h oney
i ra
i ate
i ence
i eni
i iruÅĭ
i eluu
j o
j est
k Éª
k oÅĭ
k ot
k ab
k uli
k Çİ
k ont
k now
k omm
k ÃºÃºrÃ¬
k aÅĭmÉĽ
l er
l ig
l og
l mÉĽ
l amp
l mÃ¡
l aga
l pÉª
m ar
m aarÉĽÉĽ
m aane
m any
m Çİ
m illet
m aking
n aÅĭ
n uu
n aare
n Ã¹
n ii
n Ã¨
n ÉĽg
n eÉĽre
n Ã¡Åĭ
n aÅĭk
n uuli
n aÅĭkp
n imo
n Çİ
n wÉĶ
n fÃ¡Ã¡
n onno
o c
o ba
o bo
o ko
o oma
o onÉĽÉĽ
o ster
p he
p or
p ers
p ÃłÃł
p ap
p uuri
p eraa
p ÃºÃº
p eÉĽre
p art
p olle
p ÉĽgÉĽ
p ulli
p uulee
p Ã³rÃŃ
p á¹įÄ©
r ba
r ation
r sÉĶ
s an
s ne
s is
s ÉĶge
s ee
s oÅĭ
s ot
s ag
s ion
s ogi
s ÉĶÉĶre
s arre
s nat
s hes
s ence
s ÉĶglÉĶ
s ugiree
s ugree
t Ã£
t ion
t uuri
t uri
t oÉĶre
t ry
t eÉĽre
t ook
t aÅĭkp
t ÉĶgele
t ooth
t aste
t ÉĽgere
t imes
t uÅĭi
u ge
u ba
u bo
u oluÅĭ
v u
v oÉĶ
v Ã²
v age
v uuri
v aale
v ÉĽre
v eÉĽre
v eÉĽle
v ori
v ÉĽÅĭ
w k
w ÃŃ
w all
w ad
w Í»
w Ã¹
w ild
w aarÉĽÉĽ
w ogi
w eere
w eli
w eÉĽlÉĽÉĽ
w pa
w oÅĭi
w here
w Ã¬rÃŃ
y th
y ÉĶge
y eÉĽle
y aaraa
y ely
y Ã¹Ã²
y eni
y eele
z om
z oÉĶ
z áº½
z ÉĶÅĭ
z eÉĽraa
z anne
z ugi
z ugiri
z agera
z onna
ª Åĭ
Ã ªÅĭ
Æ Ĩ
Æ Ĳ
ĉ Ġ
Ġ '
Ġ )
Ġ aa
Ġ iribe
Ġ uuro
Ġ uoribo
Ġ unni
Ġ eÉĽmÉĽ
Ġ uoree
Ġ unno
Ġ ÅĭgÊĬ
Ġ ...
Ġ Qn
ÉĽ mÉĽÉĽ
ÉĽ rrÉĽÉĽ
Ìģ âĢĻ
ÉĶ le
ÉĶ nnÉĽÉĽ
Ġt ÊĬ
Ġt one
Ġt ut
Ġt uuri
Ġt ick
Ġt ell
Ġt ÉĽge
Ġt rain
Ġt ue
Ġt aÅĭa
Ġt able
Ġt anna
Ġt anz
Ġt aÅĭaa
Ġt uulo
Ġt unt
Ġt eÉĽnÉĽ
Ġt ÉĽgÉĽ
Ġt rough
Ġt iiraa
Ġt onno
Ġt ÉĶglaa
Ġt alt
Ġt ÉĶglÉĽÉĽ
re ase
Ġn Ã¡Ã¡
Ġn us
Ġn aare
Ġn ay
Ġn aara
Ġn ara
Ġn arÉĽÉĽ
Ġn ane
Ġn eÉĽrÉĽ
Ġn eÉĽrebÉĽ
Ġn uulee
Ġn iÅĭ
Ġn ooreba
Ġn agreba
Ġn agraa
aa n
aa se
Ġa f
Ġa ge
Ġa im
Ġa reba
Ġa bil
Ġa go
Ġa vo
Ġb Ãł
Ġb ant
Ġb ru
Ġb oraa
Ġb oro
Ġb ÃµÉĶ
Ġb uli
Ġb ora
Ġb ama
Ġb ulo
Ġb ille
Ġb aÅĭa
Ġb ugi
Ġb iiree
Ġb oÉĶle
Ġb aaleba
Ġb ÉĶgerÉĽÉĽ
Ġb ooreba
Ġb eÉĽlebÉĽ
Ġb ulibo
Ġb uulibo
Ġb ilii
Ġb ellow
Ġs le
Ġs Ã¡
Ġs ÉĶÉĶ
Ġs oÅĭ
Ġs Í»
Ġs ni
Ġs ight
Ġs arÉĽÉĽ
Ġs ort
Ġs ip
Ġs annÉĽÉĽ
Ġs oÉĶraa
Ġs oÉĶreba
Ġs ÉĶgeraa
Ġs oÅĭe
Ġs ilent
Åĭ ÃŃ
Åĭ ene
Åĭ enÉĶ
in ing
in es
in ent
in to
er ve
er gy
le ÉĽ
le re
le ge
le ma
le gere
le fÉĽ
le zaÉĽ
on ist
Ġto re
Ġto ro
Ġto raa
Ġto ÉĶre
Ġto orÉĶ
Éª lÉª
Éª nf
Ġk om
Ġk aare
Ġk ug
Ġk ant
Ġk arÉĽÉĽ
Ġk oraa
Ġk uori
Ġk olo
Ġk uuro
Ġk arre
Ġk aala
Ġk alÉĽÉĽ
Ġk oÉĶrÉĽÉĽ
Ġk arrÉĽÉĽ
Ġk ola
Ġk uribo
Ġk aaleba
Ġk alla
Ġk eribe
Ġk Ã£Ã£
Ã¡ gÉª
Ġp ed
Ġp Îµ
Ġp iree
Ġp oro
Ġp uli
Ġp amp
Ġp aaraa
Ġp ulo
Ġp aana
Ġp ÃŃÃ©
Ġp eÉĽlÉĽ
Ġp ana
Ġp ono
Ġp agra
Ġp uoribo
Ġp ullo
Ġp aalaa
Ġp ooreba
Ġp ulibo
Ġp ugiro
Ġp inne
Ġp ÉĶgreba
Ġp imp
Ġp illow
Ġp yth
he arted
Ġd Ã¡Ã¡
Ġd us
Ġd ÉĶge
Ġd ad
Ġd are
Ġd Í»
Ġd ii
Ġd oore
Ġd eri
Ġd ye
Ġd rain
Ġd aaraa
Ġd any
Ġd ÉĶgele
Ġd oÉĶlÉĶ
Ġd aÅĭgb
Ġd ÉĶglÉĶ
Ġd eÉĽlebÉĽ
Ġd ÉĶgereba
Ġd ÉĶgerebÉĶ
Ġd usk
Ġl Ãł
Ġl id
Ġl uuri
Ġl arÉĽÉĽ
Ġl ies
Ġl uuro
Ġl iire
Ġl uribo
Ġl innee
Ġl eribe
Ġl igire
Ġl ugiribo
ar f
ar Éª
ar ba
ar ans
Ġw ie
Ġw ire
Ġw erÉĽ
Ġw aara
Ġw aarÉĽÉĽ
Ġw eÉĽraa
Ġw eÉĽrebÉĽ
Ġw elÉĽÉĽ
Ġw eÉĽlÉĽÉĽ
Ġw onaa
Ġw ÉĽgrÉĽ
Ġw ogiro
Ġo d
Ġo per
Ġf oÅĭ
Ġf uuri
Ġf arÉĽÉĽ
Ġf araa
Ġf ue
Ġf uuree
Ġf old
Ġf aana
Ġf eÉĽlÉĽ
Ġf anna
Ġf uulo
Ġf oÉĶreba
Ġf oÉĶlÉĶ
Ġf uoribo
Ġf ence
Ġf eroo
Ġf oÉĶlaa
Ġf igire
Ġf ugiro
Ġf ogiro
Ġf ought
Ġf uulibo
Ġf ugiribo
Ġf áº½áº½
Ġf ogiribo
Ġf ertile
Ġf ingers
Ġg er
Ġg en
Ġg ÊĬ
Ġg as
Ġg and
Ġg ru
Ġg ab
Ġg oro
Ġg ora
Ġg bog
Ġg ama
Ġg alle
Ġg eli
Ġg bogi
Ġg alla
Ġg unno
Ġg aleba
Ġm m
Ġm oo
Ġm ol
Ġm Ã¡Ã¡
Ġm Í»
Ġm un
Ġm ur
Ġm up
Ġm ile
Ġm ens
Ġm areba
Ġm ice
Ġm aala
Ġm uulo
Ġm alla
Ġm oÉĶlÉĽÉĽ
Ġm eele
Ġm uni
an c
an lee
an so
ri ct
ri ver
ri minate
Ġ2 1
en ye
ge Åĭ
ge lÉĽ
ge st
ge lÉĽÉĽ
ge laa
Ġv oÉĶ
Ġv ak
Ġv erÉĽÉĽ
Ġv aarÉĽÉĽ
Ġv eÉĽrÉĽ
Ġv oro
Ġv orÉĽÉĽ
Ġv ÉĽrÉĽ
Ġv orÉĶ
Ġv oÉĶraa
Ġv ÉĶgrÉĶ
Ġv ac
at itude
or ing
al ing
al aarÉĽÉĽ
al cohol
Ġc y
Ġc ed
Ġc am
Ġc ake
Ġc ity
Ġthe se
ro pe
it iri
it ÉĶÉĶre
it egi
Ġh ut
Ġh ire
Ġh our
Ġh ÉĽge
Ġh orn
Ġh ang
Ġh aareba
Ġh unt
Ġh urri
Ġh ÉĽgerÉĽ
Ġh oot
Ġh ÉĽgerebÉĽ
eÉĽ baa
eÉĽ maa
Ġy es
Ġy eÉĽrÉĽ
Ġy oro
Ġy ÉĶre
Ġy eÉĽle
Ġy oÉĶrÉĶ
Ġy oree
Ġy agere
Ġy agerÉĽÉĽ
Ġy oe
Ġla w
Ġla ÉĽ
Ġla reba
Ġla Åĭgb
Ġla ziness
om bie
om mine
ed ible
ne w
ne Åĭkp
is m
ÃŃ rÃ¡Ã¡
ÃŃ nÃŃ
nd arÉĽÉĽ
il uu
il oÅĭ
Ġe Åĭg
Ġe ast
Ġe yel
kp erÉĽÉĽ
kp ant
kp aarÉĽÉĽ
kp eraa
kp ÉĽre
kp eÉĽre
kp Ã£a
kp eÉĽraa
kp ore
kp arre
kp ulo
kp Ã¡Ã¡rÉª
kp ennÉĽÉĽ
kp olee
kp oÅĭkp
Ġz el
Ġz us
Ġz oore
Ġz areba
Ġz onnÉĽÉĽ
Ġz iÅĭ
Ġz irii
Ġz Ã£Ã£
Ġz onnÉĶ
as ama
Ġbe be
Ġbe st
Ġbe elÉĽ
bo Åĭi
Ġin tere
Ġin iti
ra y
ol la
rÉª Åĭ
am us
am mine
am aria
Ġth irty
Ġth ieves
bÉĽ raa
bÉĽ mb
bÉĽ rÊĬ
ie ve
im bo
Ġba k
Ġba ÉĽ
Ġba gy
Ġba gere
Ġba leba
Ġba gbÉĽÉĽ
pe at
pe erÉĽÉĽ
pe gele
us u
Ġka gb
Ġka ky
Ġka leba
ng Ã¡Ã¡
ak u
ig re
ig oo
ig ili
ig bÉĽre
og oo
Åĭm ÉªÉª
Åĭm Ã¡rÉª
Ġny ÉĽÉĽ
Ġny uu
Ġny ora
Ġny aane
Ġny uuree
Ġny ÃŃÃ©
Ġny uuribo
Ġny oÉĶlÉĶ
Ġny agra
Ġny ÉĶgÉĽÉĽ
Ġny egrÉĽ
Ġny onna
Ġny igiribe
ad ing
Ġkp Éª
Ġkp al
Ġkp og
Ġkp ÉĶge
Ġkp ag
Ġkp aarÉĽÉĽ
Ġkp ara
Ġkp eÉĽrÉĽ
Ġkp Ã£a
Ġkp ale
Ġkp oli
Ġkp elÉĽ
Ġkp ÉĽrÉĽ
Ġkp onnee
Ġkp alla
Ġkp onno
Ġkp aanema
Ġkp ogilee
Ġst ir
Ġst rain
Ġst oop
Ġst iff
ĠA y
ĠT ake
ma bie
ma ize
nn y
ve ene
ve red
se ÅĭkÃ£a
ce an
be an
be enÉĽÉĽ
yÉĽ Åĭ
yÉĽ rÉª
yÉĽ nw
ent oloÅĭ
un w
un ch
un imo
Ġle nne
Ġle Åĭee
Ġle zaÉĽ
ÉĶg yÉĶ
Ġadv ance
kÉĶ l
kÉĶ nd
kÉĶ nt
kÉĶ mm
kÉĶ lle
mp Ã¡Ã¡
mp ÉĽge
mp ÉĶgrÉĽÉĽ
lÉĽ ntÉĽ
Ġan uu
st u
st ruct
ur ch
ur ally
lÉª fÃł
lÉª zÃ¡rÉª
ĠThe se
Ġne t
Ġne Åĭ
Ã¹ rÃ¡Ãł
Ġfor o
Ġfor ge
Ġfor bo
ss ible
ss cross
Ġse en
Ġse ated
Ġse veral
lÉĶ Åĭ
lÉĶ lÉĶ
Ġre place
Ġre lease
ere bÉĽÉĽ
gb orree
li Åĭe
ny uo
ny aane
ny uuree
ny igiri
ny ogra
ch air
Ġna w
rÉĶ Åĭ
Ġte le
Ġte ar
Ġte ther
Ġte enÉĽ
Ġte koliÅĭk
age le
gÉª sÉª
Ġhe at
Ġhe ll
mb Éª
mb Ã¬
mb Ãº
mb ÉªÉĽ
mb ÃłÃł
mb les
Åĭk Ã©
Åĭk Ã²
Åĭk oÉĶnÉĽÉĽ
Åĭk eleÅĭ
mÉĽ rÉĽ
na il
nt eÉĽ
Ġda bo
Ġda bil
Ġda wn
and aana
Ġso kyÉĽ
ĠÅĭm ara
ĠÅĭm arÉĽÉĽ
ĠÅĭm ora
ĠÅĭm areba
ĠÅĭm eÉĽlÉĽÉĽ
ĠÅĭm eÉĽnÉĽ
ĠÅĭm ÉĽgrÉĽ
ĠÅĭm egrÉĽ
ĠÅĭm entÉĶ
Ġch in
Ġch arm
Ġsh ame
Ġsh rink
Ġsh iny
Ġsh ared
Ġsh iver
Ġsh oes
Ġsh ooting
ant ere
ky a
ky ÉĶÉĶ
ky ap
ky ara
ky oori
ky ooree
Ġgb at
Ġgb ie
Ġgb arÉĽÉĽ
Ġgb annÉĽÉĽ
Ġgb anne
Ġgb aalÉĽÉĽ
Ġgb inime
Ġgb onimo
Ġgb annaa
Ġgb onno
Ġgb ÉĶgelÉĶ
Ġgb igire
Ġgb igiribe
Ġgb arba
Ġbon g
Ġbon yÉĽ
Ġbon fe
Ġbon sÉĶ
Ġbon zaa
Ã¨ rÃ¬
Ġgy er
Ġgy iri
Ġgy ild
Ġgy ile
Ġgy erre
Ġgy enemÉĽ
Ġgy ennÉĽÉĽ
Ġgy ennÉĽ
Ġgy ampe
Ġgy ÉĶgyÉĶ
Ġbo v
Ġbo ri
nÉĶ ÉĽ
ĠkÉĶ r
ĠkÉĶ ÉĽ
ĠkÉĶ le
ĠkÉĶ lÉĶ
ĠkÉĶ rÉĶ
ĠkÉĶ mm
ĠkÉĶ nema
ĠkÉĶ llaa
ĠkÉĶ ÅĭkÉĶ
ĠkÉĶ nky
ĠN aa
ver aa
ver ty
Ġde f
Ġde fe
Ġde eds
Ġfo gele
und aa
und ant
rÃŃ Ã¬
ap ole
ap hor
Ġpo ree
Ġpo oraa
ru bb
Ġma leba
thing s
Ġli gee
nÉª n
nÉª nsÉª
eg ene
Ġhas te
nÉĽ mÉĽ
áº ¡
Ġro ck
Ġro ast
Ġro oster
ns Ã¡
ns Ã²
ns Ã¹
Ġko ÉĽ
Ġko reba
Ġko orÉĶ
ll Ã¡Ãł
Ġme ÅĭÉĽ
dÃł pÉĽ
dÃł kÊĬ
Ġdo e
Ġdo led
Ġdo lebÉĶ
Ġman nÉĽÉĽ
Ġman na
ab ilii
ab bath
end aare
ĠI s
ĠD o
ĠD on
ĠlÉĽ rÉĽ
pÉĶ llÉĽÉĽ
ĠS e
ĠS ome
ĠS áº½ÉĽ
Ġsa ck
Ġsa wÉĶ
pÉĽ re
pÉĽ lÉĽ
pÉĽ nne
pÉĽ Åĭe
pÉĽ gere
ko ora
bon ky
Ġdi arrhoea
qu aint
Ġha leba
Ġha wk
Ġsu icide
Ġcon vers
po pot
ĠkyÉĽ Åĭe
ry ing
so il
so bÉĶ
gy ÉĶ
gy il
gy iri
ell er
ell ation
Åĭg ÉĶ
Åĭg Ãł
Åĭg oÉĶ
lÃŃ ÅĭÃ©
ĠK usielee
ĠO o
Ġex it
Ġex am
Ġex ha
Ġex amine
Ġex change
ĠnÉĶ w
ĠnÉĶ daa
ĠnÉĶ nema
Ġyel d
Ġyel fa
Ġyel bieri
ĠÉĶ rÉĽÉĽ
ĠÉĶ raa
Ġbom bilii
Ġbom piiri
ĠnaÅĭ koÉĶ
Ġnaa kyeemÉĽ
ze ge
ze enÉĽÉĽ
bÃŃ Ã¨
um ine
ime ÅĭÉĽ
ĠpoÉĶ raa
ĠpoÉĶ lÉĶ
ĠpoÉĶ reba
av en
Ġfe eds
sh ort
Ġsp ill
Ġsp rain
Ġun ple
Ġun int
ÉĽge lÉĽÅĭ
de mee
de bt
Åĭkp ÉĶ
Åĭkp aa
kÃ¡ nÃ¡
kÃ¡ ÅĭkÃ¡
Ġtaa nt
Ġwe lebÉĽ
Ġwe ave
Ġwe aving
ÌĥÌģ -
Ġpe le
Ġpe ar
Ġpe pper
yi ge
yi raa
Ġout er
ile ss
ĠW ell
ĠW ho
Ġri m
Ġri sing
ĠyÉĽ raa
Ġwas ege
ili k
Ã£a bo
ÃºÃ³ rÃ¡Ã¡
ÃºÃ³ rÃ³
Ġzaa ng
dz ÉªÉĽ
Ġsaa laa
Ġsaa maarong
ĠnyÉĽ rebÉĽ
Ġno orÉĽÉĽ
Ġno ora
bÃł rÉª
bÃł gÉªbÊĬ
mo ve
iv es
Ġcom m
Ġta hÉĽ
ĠbÉĽ mb
ĠbÉĽ Åĭk
ĠbÉĽ nnÉĽ
Ġfl ood
Ġfl ame
Ġfl ies
Ġfl ute
ure d
Ê§ ÉªÉĽ
Ġpro ud
Ġpro vide
ĠgbÉĽ rÉĽÉĽ
ĠgbÉĽ nemÉĽ
ĠgbÉĽ nnÉĽ
ect ed
Ġbaa bo
Ġbaa laa
ku ro
ku bo
ĠdÉĶÉĶ t
ĠdÉĶÉĶ nÉĶ
ĠdÉĶÉĶ nema
ĠdÉĶÉĶ bilii
Ã¡Åĭ ÃłÃ¡
Ġpa ck
Ġpa wpa
Ġshe d
Ġzu iÅĭ
Ġal ready
Ä© áº½
Ġye ast
nz ÃŃÃ©
nz ÉĽÅĭ
sÉª Åĭ
sÉª nsÉĶ
sÉª nsÉĽ
sÉª ÅĭkÃ£
ĠP a
ĠP ay
ĠP ampana
ĠP rep
dÉĶ nd
dÉĶ lÉĶ
Ġas hes
Ġgr atitude
do ri
do ba
ÉĽrÉĽ Åĭ
Ġ- ÌĥÌģ
Ġen large
Ġen ergy
Ġpi geon
ĠdeÉĽ lÉĽÉĽ
Ġleg eraa
bom a
ĠpÉĽ mp
ĠpÉĽ nne
ĠpÉĽ nnaa
Ġbl ue
Ġbl ink
ĠkpÉĽ lebÉĽ
Ġdog erÉĶ
pÉĶge seÉĽ
yel m
Ġnim ig
Ġnim if
ĠmÉĶ ÉĽ
ĠmÉĶ nemÉĶ
ĠtÉĶ rÉĶ
ĠtÉĶ nÉĶ
amb er
ĠM ay
Ġtw ig
ĠnÉĽ ku
Ġpot ter
Ġpot ato
mÃł Åĭ
mÃł kÊĬ
ĠB oÅĭ
ĠB ut
Ġtu oro
Ġsw arm
Ġsw ollen
Ġmi ine
ark er
gÃŃ rÃ¬
tÉĽ rÉĽÉĽ
Ġar t
any ini
int ment
dÃ£ Ã£
baa lÉĽÉĽ
bÃ¡ lÃ¡
ĠsÉĽ rÉĽÉĽ
ĠsÉĽ llÉĽ
own er
ĠH is
Ġr hy
Ġrain ed
daa nÉĽÉĽ
pi ge
pi ime
Ġnu biri
ĠbÉĶ l
ĠbÉĶ ÉĽ
ĠpÉĶ rÉĶ
Ġhard headed
ust om
Ġdon ne
dÉĽ Åĭ
dÉĽ ndÉĽ
ĠgÉĶ nnÉĶ
Ġgbe le
Ġgbe Åĭgb
Ġcar ing
Ġhand le
ÃŃÃ© lÃŃ
ÃŃÃ© lÃ¬
ÃŃÃ© lÃºÃº
Ġear nestly
ĠDag bÉĽ
yÉĶ p
Ġsc at
Ġsc or
Ġsc ab
ĠlÉĶ ÉĽ
ĠlÉĶ nema
Ġlong er
Ġgbo l
Ġgbo lo
bu ild
kÃ³ rÃŃ
Ġpu mp
kpÉĽ le
kpÉĽ lÉĽ
kpÉĽ lÉª
Ġbig ger
Ġkpe ere
Ġkpe elÉĽ
op ard
ÉĶgere bÉĽÉĽ
gÃ¡ l
gÃ¡ ne
gÃ¡ lÉª
ĠG ye
Ġbur y
Ġbur ri
Åĭgb Ã²
Ġca ve
Ġca ught
Ġap pro
ĠdÉĶ ndÉĶ
Ġga in
Ġga ba
Ġgu olibo
ĠzÉĽ lebÉĽ
ĠzÉĽ llÉĽ
wÉĽ gÉª
Ġim it
Ġim pro
Ġim pat
Ġoff ering
bÃ² g
kÃº l
kÃº s
Ġab dom
Ġab undant
Ġfarm ers
Ġmale m
Ġmale s
rÃ³ Åĭ
mpÉĽ gÉª
sÃ¡ mÃ¡
sÃ¡ rÃłÃł
ont al
Ġbro ught
ĠgyÉĽ rÉĽ
ĠgyÉĽ lÉĽ
Ġbag up
Ġgba reba
Ġsup pose
Ġdaa roÅĭ
Ġform s
Ġform er
ĠY uoni
Ġra g
Ġmu zzle
Ġref uses
Ġref using
Ġexpress ed
kol li
pa ct
sm ooth
nim ip
mÃ¡Ã¡ ro
the y
Ġlit erature
ĠE nglish
ĠdÃ£ at
gÃ³ lÃŃ
Ġsak u
Ġfa eces
Ġcut lass
ĠzÉĶ lÉĶ
Ġstrong ly
ĠtÉĽ ne
ĠtÉĽ rebÉĽ
Ġend s
Ġend less
ĠsÉĶ ÉĽ
ĠsÉĶ rÉĽÉĽ
ÉĶgele bÉĶ
gi raa
gi lee
gbo Åĭg
gbo Åĭi
Ġlook s
Ġhole s
Ġcat apult
nv ÉĶ
nv ÊĬ
zo orÉĽÉĽ
Ġspe ed
Ġplay ing
ĠeÅĭ ÉĽÉĽ
gyÉĽ Åĭe
ÌĢ: :
kÉĶÉĶ lÉĽÉĽ
zÃ¬ Ã©
zÃ¬ mÃ¡Ã¡
Ġu ro
Ġu mb
Ġtam m
Ġlog oko
gele ns
bÉª lÉª
fÉª ntÉª
gre y
gre en
gba re
Ġblack smith
Ġdes ert
baÅĭ ene
kpÃ³ lÃŃ
eÅĭ ÉĽÉĽ
Ġac quaint
Ġfu om
Ġfu raa
Ġfu oro
anny ug
Ġcorn er
Ġfirst fruits
gÃ² Ã²
mi iri
nat al
ti is
ti iri
Ġbeg gar
bÃº gÃŃ
gu olo
mÃ© Ã©
vÉĽ nÉĽ
Ġkol aa
Ġdri ver
Ġcare lessness
bÃ¹ gÃ¬
nÃº bÃ¬
sÃłÃł lÉª
sÃłÃł lÊĬ
yo e
ĠbÉĶge boge
ĠtoÉĶ rÉĶ
ĠtoÉĶ nÉĶ
ĠwÉĶÉĶ ÉĽ
ĠwÉĶÉĶ raa
ĠwÉĶÉĶ reba
Ġemp ath
Ġkpaa ky
Ġkpaa kpaa
Ġext reme
sÃº gÃ³
tÃ³ g
Ġmen g
Ġmen nÉĽ
Ġche ap
Ġbomb ulo
sÃ¡Ã¡ nÃł
ĠsoÉĶ Åĭaa
Ġsig ili
ĠkaÅĭk ans
Ġvo reba
Ġvo ice
read s
Ġsap are
ĠkÉĶÉĶ rÉĶ
Ġwo ven
Ġyu oni
Ġyu omo
taa Åĭk
ĠJ ira
kpaa kpaa
gbÃł Åĭgb
kye erÉĽÉĽ
kye enÉĽ
mee le
pro du
pÃ¬ llÃ¬
zÉª lÉª
Ġent ang
Ġag ra
Ġag reba
ĠboÅĭk oÉĶre
Ġbush y
ĠlÉĶÉĶ rÉĶ
Ġlag ÉĽÉĽ
Ġlag raa
Ġbee lebÉĽ
Ġbeat ing
Ġgoat s
Ġbaby sit
rÃ¨ Ã¨
Ġkuri gbÉĽÉĽ
Ġpig re
Ġold en
kpÉª lÉª
Ġdab áº½ÉĽ
aw ra
su cking
Ġti iribe
Ġsen nÉĽ
Ġkaa ÉĽ
Ġcalaba shes
imm ing
Ġneck lace
Ġconf usion
Ġjo y
Ġwalk ing
Ġwalk ed
Ġmet aphor
Ġcla w
ogo ko
É²Éª nÉª
yaa roÅĭ
Ġdra ma
Ġbeautiful ly
bÃ³ gÃŃ
Ġnar rated
Ġnar rate
Ġsug ar
Ġsug ro
Ġloo p
Ġloo sen
Ġwri te
Ġgra ve
Ġgra vel
Ġinst ance
Ġbont eÉĽre
Ġarrow s
ware ma
zage le
zage laa
ĠR om
ĠR ev
ĠÉª Åĭ
Ġsol lo
Ġfat ty
Ġhit ting
Ġinc ess
ÃºlÃŃ mÃ³
Ġfoot ball
Ġsupport ing
pu ro
pÃ¡Ã¡ lÊĬ
vÃ¡ rÃłÃł
vÅ© ud
yÃŃ rÃ¡Ã¡
Ġband aa
Ġspo kes
Ġdanky ins
Ġgirl s
Ġhun i
Ġhap hazard
ÅĭmÉª nÉª
ÅĭmÉª ntÉĶ
Be ans
Dag bÉĽ
kan waa
kan neÉĽ
sens ogÉĶ
yÃ© lÃŃ
Ġuu naa
Ġburi bu
Ġsurpri sed
dÉª ndÉĶ
kÃ£ aburi
Ġbr ush
Ġkan ga
Ġdend ÉĶre
Ġnyo reba
Ġnyo orÉĽÉĽ
Ġnyo ora
Ġstri ps
Ġstalk s
Ġrel ative
Ġgyeg ire
Ġgyeg erÉĽ
Ġgyeg iribe
dap are
dÃ£a zu
pp ed
pÃº lÃ³
sak uuri
Ġann oun
ĠboÉĶ nÉĶ
Ġbaal on
ĠsÉĶre bÉĶ
ĠsÉĶre sÉĶre
Ġcur se
Ġcour se
Ġele ven
Ġkpi iribe
Ġnens aala
Ġsim ple
Ġplu mp
Ġval ue
Ġcor d
Ġkpa ÉĽ
Ġstu mble
Ġgrind stone
bit ter
fÃº Ã¹
fÃº lÃ³
kÃºÃ³ ngÃ¡Ã¡
tra ditional
Ġpull ing
Ġdel icious
Ġwal pi
Ġwal pie
Ġhus k
ÃŃÃŃ rÃ¡Ã¡
Ġnye mÉĽ
Ġnye Åĭg
Ġteach ing
ÅĭkÃ¡ rÃ¡Ã¡
ĠpÉĶges are
tÃ²Ã² rÃŃ
** *
** ***
some one
tÃ¬ gÃ¬
Ġswe ar
Ġpup il
Ġdone mÉĶ
Ġfel pÉĽmpÉĽ
Ġfig iribe
Ġfeel ing
Ġfeel bÉĽ
De ath
cc ess
nÉ² ÃºÃº
peÉĽ loÅĭ
Ġban aÅĭ
Ġkog ree
Ġkuuri i
ĠdoÉĶ ÉĽ
ĠdoÉĶ kp
Ġgot ten
ÉĽgelÉĽ gÉĽ
Ġritual s
Ġluck y
Ġspeak er
con tainer
wÃ² Åĭ
ĠÃ¡ yÃ¬
Ġlee re
pless ness
Ġpel lÉĽ
Ġdom estic
Ġwof eÉĽmaa
Ġvu olo
Ġvis it
Ġcr ash
bage boge
Ġnyog rÉĶ
nyi eli
ĠÅĭmo reba
ĠĠĠĠĠĠĠĠ ĠĠĠĠĠĠĠĠ
Ġalcohol ic
fÃ³ m
sÃ² gÃ¬
sale ns
ĠâĢ ľ
Ġtun imo
Ġpal amp
Ġinf ertile
dÃ¹ nd
lam ation
Ġpor ra
Ġwid ow
Ġoo ze
ĠgaÅĭg ad
mpÉĶge ba
Ġneed le
Ġsex ual
oÅĭkomm uulit
Ġdivin er
Ġvegetable s
bug ili
Ġwel come
ĠfoÉĶ ÉĽ
Ġflo at
Ġcult ivated
Ġzan noo
ÅĭmÃ¡Ã¡ rÃ¡
Ġnyi ilibe
Ġnyi ilaa
Ġnyag la
biy aale
Ġreg ard
mbÃ¡ lÃ¡Ã¡
mbÃŃ lÃ©
ĠgyaÅĭgb onni
pÉĶl bile
Ġtakp ale
Ġrubb er
kat akye
Ġutter ance
ĠnÉĶg bÉĽ
Ġsat is
Ġtou ched
Ġgal iÅĭk
ĠgeÅĭ ine
gel aÅĭ
ĠeÅĭkp oÅĭkp
Ġneat ly
ages aga
Ġgye erÉĽ
Ġdeg ile
Ġdeg ilibe
Ġcons ider
Ġscar ce
Ġscar city
ĠCh rist
Ġdivor ced
Ġintellig ent
ĠkaleÅĭk al
âĢ¦âĢ¦âĢ¦âĢ¦âĢ¦âĢ¦âĢ¦âĢ¦âĢ¦âĢ¦âĢ¦âĢ¦âĢ¦âĢ¦ âĢ¦
âĢ¦âĢ¦âĢ¦âĢ¦âĢ¦âĢ¦âĢ¦âĢ¦âĢ¦âĢ¦âĢ¦âĢ¦âĢ¦âĢ¦ âĢ¦.
Ġcontinu ous
tÃºÃº rÃ³
taÅĭe ma
vÃ¹ Ã³
Ġid ent
Ġtre as
Ġtru e
Ġtru th
Ġass orted
Ġkne es
ĠpÉĶg eny
Ġog ro
Ġfeg rebÉĽ
Ġbole bo
dÃłÊ§ ÉªÉĽ
Ġpier ced
Ġpowd ery
Ġfrighten ed
Ġannoy ed
Ġvarev ara
nent age
Ġtas oga
Ġsell er
Ġsans aÅĭg
Ġsnat ch
ĠkÉĽ k
Ġdw arf
Ġlig re
Ġful onf
Ġmor ba
Ġcri sscross
Ġhur t
oul try
Ġinward ly
Ġnyon nema
Ġnyon ono
kÉĶntÉĶ n
Ġhear th
ĠNg me
Ġpop ular
Ġrobb ed
grand father
Ġpract ice
Ġimmedi ate
Ġimmedi ately
Ġwitch craft
bel ieved
Ã® Åĭ
ĠfeÉĽ lbÉĽ
Ġfanf ane
Ġmag got
Ġhon our
Ġhip popot
Ġeas ily
ĠkÉĶnn im
Ġpebb le
ĠgboÅĭg bo
foge loo
Ġbelong s
Nor thern
med ic
Ġsase pil
Ġsnu ff
Ġdol lÉĶ
Ġfib re
Ġgale Åĭg
Ġcirc ular
Ġhaa li
ĠAf ric
Ġgyege rebÉĽ
Ġitch y
ific ation
ĠPe ter
Ġobli que
Ġarmp it
Ġfair y
ĠtÉĽr rÉĽ
Ġrum mage
Ġintens ely
Ġhapp iness
pÉĶg eny
Ġwan w
Ġop pos
Ġmom ent
Ġmalle t
ribut ed
Ġhum ans
kpee bÉĽ
Ġstruct ure
ÅĭkÃºÃ³ ÅĭÃ¡Ã¡
É²Ã¬Ã¬ lÃ¬
Ġexpl ain
Ġnois y
Ġflu id
Ä©e u
Ġarrest ed
ĠgÉĶnÉĶ tÉĽrÉĽ
Ġexperi ence
ĠdÉĶse mp
Ġimple ment
nÃłÃłsÃłÃł l
ĠChild ren
Ġmerc iless
Ġappend ages
dÇİ nÊ§ÇĲ
jest ically
kont apÉĶge
Ġabil ity
Ġpyth on
enye ge
Ġintere sting
Ġconvers ation
Ġunple asant
Ġpawpa w
ĠJira pa
Ġhippopot amus
) .
. +
. âĢĿ
2 3
2 6
2 8
3 1
3 2
3 4
3 5
3 6
3 9
5 8
? âĢĿ
A l
A r
B ÉĽ
B Ã¬
B ut
B ag
B Ã¨
B ile
B ush
B ayuo
B lind
C ar
C omp
C oming
D E
D ÉĶ
D Îµ
D aga
D anky
E ng
F a
F all
F act
G yÎµ
G beÉĽdom
H i
H ot
I I
I f
I ron
K p
K uree
K ÃºrÃŃ
L e
L it
L ÉĶÉĶ
M on
M an
M are
M aale
N y
N ot
N oun
N aturalness
O n
O o
P oÉĶ
P uori
R es
S h
S i
S w
S is
S pe
S Îµ
S ÉĶglaa
S ub
S amaria
T Í»
T uo
T ori
T urn
V aa
W h
W i
W ÉĶÉĶ
Z o
Z enÉĽ
a us
a lee
a ver
a ple
a way
a ces
a xe
b at
b es
b raa
b ic
b ers
b end
b ÃºÃ³
b araa
b ÃµÉĶ
b eere
b aane
b annÉĽÉĽ
b arre
b anne
b ush
b eÉĽlÉĽ
b alaa
b Ã¡Ã¡rÉª
b ugo
b uulo
b iny
b angy
b ullee
b imp
b Ã¡ÅĭÉª
b oÉĶbo
b uuluÅĭ
c u
c us
c ers
c ap
c ard
c est
c ely
c aterpillar
c ompany
d es
d oore
d ÉĽre
d ogi
d aane
d ies
d oÅĭk
d eÉĽne
d any
d rink
d ÉĶÉĶrÉĽÉĽ
d onne
d onnÉĽÉĽ
d ÉĶgerÉĶ
d irt
d orree
d ogo
d rum
d aÅĭm
d ÃŃÃŃ
d Ã©Ã©
d ict
d ÉĶgeroÅĭ
e c
e en
e bo
e ma
e mp
e Åĭkp
e yel
e ared
f in
f ÉĽÉĽ
f eÉĽ
f Ã¬
f to
f uuri
f erÉĽ
f arÉĽÉĽ
f ogi
f uori
f ale
f ty
f eÉĽle
f áº½ÉĽ
f anne
f Ã¡Ã¡rÉª
f uneral
f oÉĶle
f erre
f ulee
f oÉĶlaa
f ÃłÃłrÉª
g in
g ro
g ak
g ad
g un
g ane
g rain
g ÃºÃ³
g ÃµÉĶ
g Ã¡Åĭ
g lÊĬ
g ue
g bog
g ama
g sa
g aÅĭa
g lÃ©Ã©
g aÅĭe
g Çİ
g ÉĶÅĭe
g aÅĭene
g rown
h as
h iri
h im
h ow
h Ã²
h ood
h ive
h Ã¬rÃ¬
h orse
h usk
i ple
i zed
j our
j ured
k er
k le
k Ã¬
k ay
k age
k ÃłÃł
k Ã¡Ãł
k Ãµ
k ÃºÃº
k eri
k uuree
k ÉªrÉª
k alle
k alÉĽÉĽ
k ono
k alaa
k anz
k aanÉĽÉĽ
k oÉĶrÉĽÉĽ
k alm
k angy
k orree
k ÃłÃłlÉª
k erek
k ankyiri
l k
l om
l erÉĽÉĽ
l uuri
l uri
l aareba
l oÅĭk
l Ã¡rÉª
l ugi
l Çİ
l ugiri
l ÇĶÅĭ
m iri
m ake
m arÉĽÉĽ
m ÃºÃº
m ÃłÃ¡
m eri
m ÉĶre
m ue
m ple
m eÉĽrebÉĽ
m ark
m iire
m enne
m oÉĶle
m aaleba
m baÅĭ
m olÉĶ
m uni
m iss
m oÉĶreÅĭ
n ak
n ag
n ug
n up
n ment
n pi
n uulee
n wÊĬ
n uts
n terÉĽÉĽ
n Ã©Ã©
n ormally
n lÃ³rÃŃ
o s
o pen
o gele
o ber
p an
p al
p ul
p ig
p ad
p ent
p erÉĽ
p ara
p eri
p ili
p oli
p ip
p elÉĽ
p uuli
p ull
p aala
p oÅĭi
p oÉĶnÉĽÉĽ
p onne
p oÉĶle
p ÉĶgrÉĽÉĽ
p Ã³lÃŃ
p ollÉĽÉĽ
p ret
p ÃºÃ³rÃ¬
r ug
r Ã¡Åĭ
r rÊĬ
r pi
r ince
s k
s om
s ou
s iri
s es
s ur
s ay
s Ã¨
s ap
s erÉĽ
s ane
s ÃµÉĶ
s aana
s aÅĭg
s ugi
s ize
s ogÉĶ
s ÉĶgelÉĶ
s ugri
s usu
t w
t as
t ig
t ÉĶge
t ers
t ap
t aarÉĽÉĽ
t oore
t ÉĽge
t ogi
t uuree
t ont
t ÉĶÅĭe
t ola
t ulli
t iness
t oori
t amm
t ÉĽgÉĽÉĽ
t ÃŃÃŃ
t owards
t Ã¬Ã¬r
u le
u kp
u ng
u Åĭk
u Åĭkp
u ish
u ary
u omo
v uu
v ut
v Ã£
v uo
v ap
v ive
v ÉªÉª
v ely
v aala
v olÉĶ
v Ã¡Ã¡lÉª
v uunee
v iron
v uuluÅĭ
v ÃºÃºrÃ¬
w u
w he
w al
w oo
w ol
w Îµ
w uo
w ara
w ill
w ÃłÃ¡
w oli
w ÉĽrÉĽ
w hen
w eÉĽne
w olle
w eÉĽnÉĽÉĽ
w ÉĶgele
w ola
w aste
w aÅĭm
w ÃŃrÃ©
w Ã¡Ã¡lÉª
x ible
y ag
y uuri
y erÉĽ
y aara
y aale
y of
y ogi
y ÉĶÉĶre
y ond
y onaa
y enaa
y oÉĶrÉĽÉĽ
y ÉĶÉĶrÉĽÉĽ
y idaa
y gam
y opÉĶgeraa
z iri
z us
z one
z Îµ
z ÉĽg
z eg
z ip
z agere
z aÅĭaa
z ÉĽgere
z ugiree
z agerÉĽÉĽ
z agre
z ÉĶÅĭÉĶ
Ë Ĳ
ï Ģ
ĉ ĠĠĠĠ
ĉ ĠĠĠ
Ġ Ãł
Ġ ut
Ġ Ã£
Ġ âĢ¦
Ġ uri
Ġ eÉĽre
Ġ áº½ÉĽ
Ġ eÉĽraa
Ġ ÉĶÉĶre
Ġ eÉĽne
Ġ eÉĽrÉĽÉĽ
Ġ eÉĽnÉĽÉĽ
Ġ ulli
Ġ É²Éª
Ġ 000
ÉĽ l
ÉĽ rÉª
ÉĽ lle
Ìģ âĨĵ
ÉĶ rÉĶ
ÉĶ nÉĶ
Ġt ÉĽÉĽ
Ġt el
Ġt Îµ
Ġt ay
Ġt erÉĽ
Ġt eraa
Ġt Ã£a
Ġt uori
Ġt araa
Ġt ÉĽrÉĽ
Ġt iiree
Ġt ÉĶÅĭe
Ġt ÉĶgele
Ġt agra
Ġt ulli
Ġt uoribo
Ġt ona
Ġt eÉĽnemÉĽ
Ġt ÉĶÅĭÉĽÉĽ
Ġt áº½áº½
Ġt runk
Ġt ÅıÉĶ
Ġt ilent
re f
re lla
re peat
Ġn in
Ġn on
Ġn ÉĽÉĽ
Ġn an
Ġn one
Ġn ant
Ġn aarÉĽÉĽ
Ġn ÉĽge
Ġn araa
Ġn amb
Ġn any
Ġn aaloÅĭ
Ġn eÉĽnÉĽ
Ġn ature
pl ay
aa mine
aa yiri
Ġa rÉĽÉĽ
Ġa raa
Ġa wa
Ġa roo
Ġa unt
Ġa stri
Ġa yoÉĶ
Ġa yÉĶp
Ġb Ã¡
Ġb im
Ġb eraa
Ġb ill
Ġb oÉĶre
Ġb orÉĽÉĽ
Ġb ast
Ġb uori
Ġb eÉĽle
Ġb ound
Ġb elÉĽ
Ġb aÅĭk
Ġb aÅĭg
Ġb enne
Ġb ool
Ġb uuraa
Ġb ank
Ġb eÉĽrÉĽÉĽ
Ġb oÉĶrÉĽÉĽ
Ġb oÉĶlÉĶ
Ġb ola
Ġb enemÉĽ
Ġb ÉĶgÉĽÉĽ
Ġb ÉĶgeraa
Ġb ugiro
Ġb ÃłrÉª
Ġb eÉĽlaa
Ġb ought
Ġb uulaa
Ġb anks
Ġs ar
Ġs ÊĬ
Ġs ne
Ġs is
Ġs lo
Ġs erÉĽÉĽ
Ġs oore
Ġs uuro
Ġs amb
Ġs any
Ġs eet
Ġs anema
Ġs eÉĽnÉĽÉĽ
Ġs ooth
Ġs inger
Ġs ÉĶgelaa
Ġs ÉĶgelÉĶ
Ġs agÉĽÉĽ
Ġs ÃºÃºrÃŃ
Ġs ÉĽgrÉĽ
Ġs ÉĽgerÉĽÉĽ
Ġs ÉĽgerÉĽ
Ġs nare
Åĭ Ãł
Åĭ Ã²
Åĭ ÃłÃł
Åĭ Ã¡Ãł
Åĭ enemÉĽ
in a
in c
in f
in im
in ic
in ct
in ous
in cloth
er n
er ree
er ic
er se
er ly
er ness
er ved
er tain
er ted
le ne
le ree
le av
le nne
le mÉĽÉĽ
le zare
le nnee
on wuluu
Ġto ree
Ġto bo
Ġto ad
Ġto ko
Ġto oraa
Ġto ld
Ġto Åĭe
Ġto ora
Ġto ward
Ġto ribo
Éª mm
Éª ÅĭÉĽ
Ġk Éª
Ġk uu
Ġk ÉĶge
Ġk Ã£
Ġk un
Ġk aale
Ġk nee
Ġk oÉĶre
Ġk orÉĽÉĽ
Ġk ogi
Ġk uli
Ġk onni
Ġk ÉĶÉĶrÉĽÉĽ
Ġk orri
Ġk ullo
Ġk onÉĽÉĽ
Ġk anny
Ġk oÉĶlÉĽÉĽ
Ġk aring
Ġk annaa
Ġk onno
Ġk illed
Ġk Å©Å©
Ã¡ ns
Ã¡ Åĭg
Ã¡ nÃ¡
Ã¡ rÃł
Ġp in
Ġp an
Ġp es
Ġp ee
Ġp ent
Ġp age
Ġp ant
Ġp uuri
Ġp eraa
Ġp orÉĽÉĽ
Ġp ÉĶre
Ġp Ä©
Ġp iribe
Ġp uuree
Ġp iiree
Ġp ool
Ġp ÉĶgÉĽÉĽ
Ġp onimo
Ġp imb
Ġp eÉĽlebÉĽ
Ġp urri
Ġp eÉĽnemÉĽ
Ġp urree
Ġp erek
Ġp orrÉĽÉĽ
Ġp illee
Ġp eerebÉĽ
Ġp oured
Ġp ict
Ġp ollen
Ġp áº½ÉĽÉĽ
Ġp rince
he st
Ġd ÊĬ
Ġd il
Ġd oo
Ġd erÉĽ
Ġd oro
Ġd ÉĶre
Ġd uori
Ġd ang
Ġd eÉĽraa
Ġd aane
Ġd iribe
Ġd aga
Ġd ite
Ġd red
Ġd eli
Ġd ÉĶgerÉĶ
Ġd ough
Ġd oÉĶlÉĽÉĽ
Ġd annaa
Ġd ash
Ġd eny
Ġd aanema
Ġd oÅĭkomm
Ġd ream
Ġpl ain
Ġpl anks
Ġpl astered
Ġl ar
Ġl al
Ġl Í»
Ġl ÃłÃł
Ġl Ã¡Ãł
Ġl ick
Ġl ater
Ġl ogi
Ġl uori
Ġl araa
Ġl aane
Ġl annÉĽÉĽ
Ġl ance
Ġl oÅĭk
Ġl oÉĶraa
Ġl igi
Ġl oÉĶreba
Ġl ÉĶgerÉĽÉĽ
Ġl inime
Ġl imb
Ġl ÉĶÅĭÉĽÉĽ
Ġl ower
Ġl Ã©Ã©
Ġl ugiraa
Ġl innaa
ar ma
ar ies
ar able
ar apa
Ġw Éª
Ġw ar
Ġw ed
Ġw ul
Ġw ad
Ġw ine
Ġw ake
Ġw oore
Ġw ast
Ġw ÉĽge
Ġw ogi
Ġw áº½ÉĽ
Ġw elaa
Ġw ÉĶÉĶre
Ġw ink
Ġw uoribo
Ġw ogiri
Ġw ÉĶglaa
Ġw ÉĶgreba
Ġw ÉĽgÉĽÉĽ
Ġw ÉĶgraa
Ġw ÉĶglÉĽÉĽ
Ġw ings
Ġw ÉĶgleba
Ġw ÉĽgrebÉĽ
Ġw ives
Ġo x
Ġo val
Ġo cean
Ġf Éª
Ġf an
Ġf en
Ġf ro
Ġf og
Ġf erÉĽ
Ġf elÉĽ
Ġf annÉĽÉĽ
Ġf aÅĭa
Ġf áº½e
Ġf onaa
Ġf oÉĶlÉĽÉĽ
Ġf oll
Ġf Ã£Ã£
Ġf ogilo
Ġf oÉĶne
Ġf ert
Ġf egrÉĽ
Ġf oul
Ġg om
Ġg rÉª
Ġg am
Ġg ak
Ġg ent
Ġg lÉª
Ġg ap
Ġg ans
Ġg annÉĽÉĽ
Ġg aareba
Ġg arre
Ġg ana
Ġg ond
Ġg uuraa
Ġg oÉĶrÉĽÉĽ
Ġg ÉĶÉĶrÉĽÉĽ
Ġg oÉĶreba
Ġg uribo
Ġg uulee
Ġg ÉĶgÉĶ
Ġg allÉĽÉĽ
Ġg aÅĭene
Ġg ogo
Ġg uulaa
Ġg uolee
Ġg ift
Ġg lean
Ġm ÉĽÉĽ
Ġm ou
Ġm bÊĬ
Ġm oraa
Ġm old
Ġm arre
Ġm aana
Ġm oÉĶraa
Ġm alaa
Ġm aanÉĽÉĽ
Ġm arrÉĽÉĽ
Ġm oÉĶle
Ġm onÉĽÉĽ
Ġm ooreba
Ġm iiraa
Ġm oÉĶlaa
Ġm amine
Ġm aster
Ġm eÉĽbo
Ġm ountain
Ġm ilik
an aare
ri es
en ing
en ed
en oo
en se
en ger
ge la
ge li
Ġv er
Ġv am
Ġv ag
Ġv arÉĽÉĽ
Ġv oraa
Ġv oore
Ġv ue
Ġv eÉĽraa
Ġv uuree
Ġv uuraa
Ġv uuribo
Ġv oÉĶrÉĽÉĽ
Ġv ÉĽrÉĽÉĽ
Ġv ooreba
Ġv aÉĽ
Ġv alenv
at ic
at able
at aky
at tan
or ne
or ny
or der
or ding
al y
al ÉĽ
al an
al aare
Ġc amp
Ġc ud
Ġc alle
Ġc unn
Ġc oun
Ġc ough
Ġc orre
Ġc ele
Ġc oop
Ġc ircle
Ġc ertain
âĢ ľ
ro us
ro ot
ro Åĭkp
it ed
it iree
it ori
it aÅĭkp
Ġh am
Ġh ÉĶÉĶ
Ġh ag
Ġh iree
Ġh ind
Ġh aaraa
Ġh arm
Ġh areba
Ġh int
eÉĽ roÅĭ
Ġy om
Ġy Ã©
Ġy uo
Ġy aarÉĽÉĽ
Ġy ens
Ġy ide
Ġy eere
Ġy aaraa
Ġy aane
Ġy aanÉĽÉĽ
Ġy ÉĶÉĶrÉĽÉĽ
Ġy uulo
Ġy aalÉĽÉĽ
Ġy aaleba
Ġy inni
Ġy ÉĶgÉĶ
Ġy ÉĶgerÉĽÉĽ
Ġy aalaa
Ġy eni
Ġy eÉĽloo
Ġla y
Ġla ck
Ġla me
Ġla Åĭe
Ġla ment
Ġla dy
om es
om biiree
om orrow
ed a
ne g
ne ck
is per
el bÉĽ
el lee
el be
ou f
ou ri
ba k
ba reba
ba ky
nd z
nd er
nd Pers
nd zÃŃ
il oo
il aarÉĽÉĽ
il ty
il ogoo
Ġe t
Ġe w
Ġe ÉĽÉĽ
Ġe elÉĽ
Ġe bony
oÉĶ se
oÉĶ noo
oo le
oo se
kp at
kp are
kp Ã¹
kp ÃłÃł
kp eg
kp arÉĽÉĽ
kp eÉĽrÉĽ
kp eri
kp elÉĽ
kp aane
kp ori
kp ÉĶgere
kp inni
kp ÉĶgÉĶ
kp aroo
kp ÉĶgerÉĽÉĽ
kp aw
kp ogilo
kp ÃºlÃŃ
kp ogili
Ġz or
Ġz im
Ġz aale
Ġz Ã£a
Ġz eere
Ġz ama
Ġz aÅĭkp
Ġz alle
Ġz igi
Ġz iiree
Ġz áº½e
Ġz eÉĽnÉĽÉĽ
Ġz iny
Ġz omb
Ġz onnaa
Ġz agerÉĽÉĽ
Ġz ons
Ġz omÉĶ
Ġz ugiribo
Ġz ugiraa
Ġz oribo
as eÉĽ
Ġbe ver
Ġbe erÉĽ
Ġbe rebÉĽ
Ġbe ach
Ġbe enÉĽÉĽ
Ġbe ber
Ġbe bele
Ġbe have
Ġbe yond
Ã¬ bÃŃ
Ã¬ rÃ©
bo y
bo ll
bo ard
bo orÉĽÉĽ
bo gere
bo daa
bo wl
aÅĭ yi
aÅĭ kuÅĭk
uu e
Ġad ul
Ġad dress
Ġin no
Ġin act
Ġin deed
Ġin jured
ra p
ol olo
ol omm
ol uoree
Ãº lÃ¬
rÉª pÉª
Ġth ir
Ġth read
Ġth igh
Ġth rew
Ã¡Ã¡ rÃ¡
bÉĽ nd
bÉĽ rÉĽ
bÉĽ lÉª
bÉĽ rÃ¡Ã¡
bÉĽ rrÉĽÉĽ
bÉĽ mbÉĽ
bÉĽ ndaa
ie me
im as
im ine
im aale
Ġba lee
Ġba bilii
ul y
pe ere
pe ck
pe te
th m
th less
Ã³ Ã³
Ã³ Ã²
Ã³ lÃ³Åĭ
us hed
Ġka ku
Ġka geraa
Ġka kad
ng wo
ng dÎµ
es day
es pecially
ak en
ÉĶÉĶ loÅĭ
all owing
og lee
og lÉĽÉĽ
Åĭm a
Åĭm aarÉĽÉĽ
Åĭm ene
Åĭm eÉĽrÉĽ
Åĭm ÃłÃ¡
Åĭm amb
Åĭm enaa
Åĭm entÉĶÅĭ
Åĭm olÉĶÅĭÅĭm
ic le
Ġny are
Ġny Í»
Ġny ÉĽre
Ġny ue
Ġny ud
Ġny aana
Ġny ege
Ġny uuraa
Ġny ÉĶgraa
ad ow
Ġkp ÉĽÉĽ
Ġkp aÅĭ
Ġkp am
Ġkp ie
Ġkp im
Ġkp age
Ġkp erÉĽÉĽ
Ġkp ant
Ġkp arÉĽÉĽ
Ġkp orÉĽÉĽ
Ġkp ala
Ġkp areba
Ġkp eÉĽne
Ġkp aky
Ġkp ary
Ġkp ullo
Ġkp ÉĶgÉĽÉĽ
Ġkp innee
Ġkp ÉĶgeraa
Ġkp elle
Ġkp agela
Ġst ro
Ġst orm
Ġst ool
Ġst ony
Ġst ones
Ġst ack
ĠA l
ĠA ne
ĠA fter
ĠA cc
ut aa
ut ch
ĠT i
ĠT ÉĶ
ĠT im
ma id
are r
are mÉĽÉĽ
ir iny
ag ing
ag oo
ag ue
ag ger
ag reement
ag onist
ve Åĭ
ve get
lee p
se b
se le
se ge
se ction
se mble
se pÉĶÉĶ
Ġis su
ce ed
be ge
be be
be aring
yÉĽ l
yÉĽ lÉĽÉĽ
yÉĽ rebÉĽ
yÉĽ rre
ct ing
ct ober
bi raa
bi eli
bi kyÉĽ
bi peÉĽ
ent aa
ent uo
ent ant
ent ral
la ÉĽ
un se
Ġle ast
Ġle Åĭi
Ġle gerebÉĽ
Ġle opard
Ġle fto
ÉĶg oo
kÉĶ ÉĽ
kÉĶ Åĭ
kÉĶ lÉĶ
kÉĶ nÉĶ
kÉĶ Åĭe
kÉĶ ÅĭkÉĶ
kÉĶ nky
mp s
mp Ãł
mp Ãº
mp Ã³
mp Ã¹
mp Ã¡rÉª
mp Ã¡Ã¡rÉª
lÉĽ nne
Ġan anso
Ġan cest
Ġan kle
st ru
st ate
st orm
st ring
st ache
st ones
ith er
ome ÅĭÉĽ
ur r
ur uu
ur ant
ur sday
ers elf
lÉª mÉĽ
Ġne igh
id y
id ual
ter rÉĽÉĽ
Ġfor th
Ġfor ty
ss om
Ġse al
Ġse eraa
Ġse ven
Ġse ÅĭkÃ£a
lÉĶ Åĭg
lÉĶ nnÉĶ
Ġre ach
Ġre produ
ere nce
gb Ã¬
gb aale
gb eÉĽre
gb eÉĽle
gb ulo
gb Ã¡rÉª
gb Ã³lÃŃ
laa ne
li i
li iri
uo bo
ny oÉĶ
ny am
ny Îµ
ny eraa
ny ene
ny aal
ny oore
ny eÉĽre
ny ud
ny uuro
ny ore
ny aÅĭe
ny aanÉĽÉĽ
ny ele
ny iele
ch o
ch ine
ch ief
Ġna il
Ġna vel
Ġna ught
Ġte ÉĽÉĽ
Ġte erÉĽ
Ġte Åĭg
Ġte ase
Ġte enÉĽÉĽ
Ġte the
Ġte enaa
Ġte mpe
âĢĻ )
gÉª rÃ¡Ã¡
gÉª sÊĬ
gÉª sÃ¡
gÉª dÉª
Ġwh it
Ġwh ist
Ġwh isper
lo ree
Ġhe aring
mb Ã¹
mb ÉªÉª
mb unt
mb ilii
reba re
Åĭk aare
Åĭk ÃłÃł
Åĭk Ã£Ã£
Åĭk erri
mÉĽ rÉĽÉĽ
nt ÉĶÅĭ
nt ÉĽre
nt ÉĽrÉĽÉĽ
nt Ã³lÃŃ
Ġda pare
Ġda bÉĶl
Ġda ughter
and on
Ġso le
Ġso bÉĶ
Ġso kon
Ġso iled
Ġso jour
Ġon aÅĭ
ĠÅĭm and
ĠÅĭm end
ĠÅĭm ane
ĠÅĭm eÉĽrÉĽ
ĠÅĭm eÉĽle
ĠÅĭm ama
ĠÅĭm eÉĽlaa
Ġch ar
Ġch arge
Ġch ase
Ġch unk
Ġch amber
Ġsh ut
Ġsh ook
Ġsh aky
Ġsh rub
Ġsh aven
Ġsh rug
et ry
ant s
ky ere
ky arÉĽÉĽ
ky eere
ky aane
ky arre
Ġgb on
Ġgb and
Ġgb aale
Ġgb ate
Ġgb eÉĽre
Ġgb elÉĽ
Ġgb eÉĽraa
Ġgb ulo
Ġgb eÉĽlÉĽ
Ġgb ulli
Ġgb aalaa
Ġgb onnaa
Ġgb elli
Ġbon tÉĶ
Ġbon daa
Ġgy ÉĶ
Ġgy age
Ġgy aara
Ġgy eraa
Ġgy ili
Ġgy eÉĽnÉĽ
Ġgy angy
Ġgy oge
Ġgy eerebÉĽ
Ġgy aaÅĭk
Ġor d
Ġor gan
Ġbo at
Ġbo reba
Ġbo ard
Ġbo ther
Ġbo oraa
Ġbo orÉĽÉĽ
up id
nÉĶ rÉĽÉĽ
ĠkÉĶ l
ĠkÉĶ re
ĠkÉĶ raa
ĠkÉĶ bÉĶ
ĠkÉĶ nz
ĠkÉĶ tÉĶ
ĠkÉĶ rre
ĠkÉĶ nso
ĠkÉĶ roÅĭkp
ĠkÉĶ ntÉĶÅĭ
ĠN ba
ĠN yÉĽ
ĠN yÉĶ
Ġde er
Ġde al
Ġde mee
Ġde fl
Ġde pression
Ġde ceive
naa ne
naa bil
naa meÉĽ
Ġfo x
Ġfo ri
Ġfo am
Ġfo oraa
Ġfo gelÉĶ
to p
to ise
rÃŃ kÃ²
Ġpo d
Ġpo lee
Ġpo ribo
Ġpo onÉĶ
É² ÃŃ
É² Ã¬
ire ct
ÉĽg rÃ¡Ã¡
uri ty
Ġma jestically
Ġma chine
Ġli p
Ġli iri
Ġli biri
eg re
nÉĽ n
nÉĽ Åĭk
nÉĽ mm
nÉĽ get
Ġwa il
Ġwa ve
Ġwa vy
áº½ d
áº½ u
ns Ã³
ns Ã£
ns Îµ
Ġko b
Ġko d
Ġko orÉĽÉĽ
Ġko kolli
ll Ã³
Ġme elÉĽÉĽ
ni a
ni f
dÃł kÉĶ
dÃł lÉª
dÃł bÉĶ
dÃł nÉª
dÃł mÃł
dÃł gÃł
dÃł kÃ²
dÃł ÅĭmÉªÉĽ
dÃł mbÃ³
dÃł bÃ¬l
dÃł pÃłrÉª
dÃł gÃ³lÃŃ
dÃł vÃ¡rÃłÃł
Ġdo ree
Ġdo baare
te ge
te ree
te ene
ick ly
end ation
ĠD aa
ĠD ialogue
ĠD uba
ĠlÉĽ rÉĽÉĽ
Ġbi raa
Ġbi bil
pÉĶ lÉĽÉĽ
pÉĶ loo
pÉĶ pÉĶrÉĽÉĽ
ĠS o
ĠS abbath
ĠS aseÉĽ
Ġgo e
Ġgo ri
Ġgo ver
Ġsa ÉĽ
Ġsa ve
Ġsa bogi
ke i
ke warm
ke mpt
ke ÅĭkeleÅĭ
pÉĽ mp
pÉĽ lÉĽÉĽ
pÉĽ laa
pÉĽ nz
me kelee
ane gere
bon ÉĶ
bon yÉĽ
bon ny
bon to
bon so
bon vere
bon veraa
Ġdi ver
Ġdi iribe
qu er
qu art
Ġha zy
aale bÉĽÉĽ
ater nal
ill ing
Ġsu gee
Ġsu ccess
Ġcon quer
po le
po one
ĠkyÉĽ nÉĽ
Ġmo oraa
Ġmo gere
Ġmo ved
Ġmo kanz
so e
so gere
ĠpÉĶge b
ĠpÉĶge bilii
ĠpÉĶge beÉĽ
gy ab
gy eri
gy eÉĽne
gy angy
gy uuni
ta le
ta ct
ta kpala
Åĭg Ã¡
lÃŃ gÃŃ
lÃŃ mbÃ²
Ãµ Ãµ
ĠK aane
Ġex h
Ġex ist
Ġex act
ĠnÉĶ bilii
ĠnÉĶ zage
ĠnÉĶ zoo
ĠnÉĶ yaaroÅĭ
ĠÅĭ aa
ĠÅĭ Éª
Ġyel in
Ġyel biri
ĠÉĶ nema
ĠÉĶ nnaa
Ġbom bie
Ġnaa bo
Ġnaa bil
Ġnaa pÉĶge
ÃºÃº rÃ²
ÃºÃº lÃºÅĭ
ÃłÃ¡ rÉª
lÃ© nnÃŃ
um ing
um ee
um cis
um inous
Ġact ion
ĠpoÉĶ naa
ĠpoÉĶ nema
ast rated
eri a
Ġfe le
Ġfe elaa
Ġfe elÉĽÉĽ
Ġfe ature
sh ot
sh irt
Ġsp ent
Ġsp ider
Ġsp onge
Ġun co
Ġun she
Ġun ripe
Ġun import
Ġun kempt
de gere
Åĭkp Éª
Åĭkp aare
Åĭkp ÉĽrÉĽÅĭ
ish ness
kÃ¡ l
kÃ¡ Åĭk
kÃ¡ mÃ¡
kÃ¡ rÃ¡
kÃ¡ nw
ÉĶre kpÉĶ
Ġtaa mb
Ġtaa naa
Ġtaa nema
Ġwe ather
Ġwe aver
Ġare zie
Ġpe an
Ġpe erÉĽÉĽ
Ġpe erÉĽ
Ġpe cking
Ġgaa ne
Ġgaa raa
yi eluÅĭ
ous es
ous ness
ile nv
ĠW ater
ĠW hy
Ġri b
ĠyÉĽ n
ĠyÉĽ Åĭe
Ġwas hed
ili ar
Ġup on
Ġup wards
Ġup set
Ġbie Åĭ
ib ly
gbÉĽ le
gbÉĽ gere
ÃºÃ³ nÃŃ
dz Ã³
dz Ã²
dz Ã¡Åĭ
dz ÉĽÅĭ
Ġsaa lÉĽÉĽ
lÃ¬ bÃŃ
lÃ¬ gÃ¬
lÃ¬ mÃ©
ĠnyÉĽ raa
ĠnyÉĽ llÉĽÉĽ
ĠnyÉĽ llaa
ty re
Ġno on
áº½ÉĽ pÉĶge
bÃł lÉª
bÃ¬ Ã©
bÃ¬ pÉĶ
bÃ¬ kÊĬ
bÃ¬ lÃ¨
mo ving
ang aa
iv a
iv ities
iv ided
iv idual
Ġcom ple
Ġcom pact
Ġta w
Ġta x
ĠbÉĽ raa
ĠbÉĽ nz
ĠbÉĽ lle
ĠbÉĽ llÉĽÉĽ
ĠbÉĽ nemÉĽ
ĠbÉĽ llaa
ĠbÉĽ lbÉĽ
Ġfl ash
Ġfl owing
Ġwor ry
Ġwor sen
we lee
Ê§ ÃŃrÃŃ
Ġpro fit
ĠgbÉĽ lÉĽ
ĠgbÉĽ lÉĽÉĽ
Ġbaa lÉĽÉĽ
Ġbaa saa
Ġbaa pÉĽmpÉĽ
ound ing
ku e
ku kuri
ĠdÉĶÉĶ ne
Ġbu e
Ġbu ree
Ġbu raa
Ġbu gee
Ġbu cket
Ġpa ÉĽ
elÉĽ Åĭ
amp uori
amp orri
Ġzu e
Ġzu k
Ġzu ky
Ġal oo
Ġal bin
gÉĶ mb
Ġlo h
Ġlo ss
Ġlo incloth
Ġwaa laa
Ġye erÉĽ
Ġye me
Ġye Åĭe
mÃ¡ rÉª
mÃ¡ gÉª
mÃ¡ lÉªfÃł
Ġho p
nz ÉªÉª
sÉª nsÊĬ
nÃŃ Ã¬
ĠP l
ĠP ol
ple en
Ġover take
bog igbÉĽre
Ġas ked
Ġas cend
ud der
lÃ¡Ã¡ rÉª
lÃ¡Ã¡ mÃ¡
do gere
ject ed
fe le
fe erÉĽÉĽ
fe eloo
uÅĭ kÉĶns
Ġen ne
Ġen nÉĽÉĽ
Ġen fuom
Ġen viron
Ġpi raa
Ġleg ÉĽÉĽ
Ġleg raa
ĠF all
bom pe
bom pore
sÉĽ le
sÉĽ ng
sÉĽ lÉª
ĠpÉĽ rÉĽÉĽ
ĠpÉĽ ÅĭÉĽÉĽ
Ġbl ame
Ġbl ister
Ġcl ub
Ġcl inic
Ġcl itori
Ġcl utch
ĠkpÉĽ ne
Ġhis s
aÅĭk aÅĭkp
lÃ³ gÃŃ
lÃ³ gÃ¬
yel d
yel t
Ġher nia
Ġnim im
sÉĶ raa
ĠmÉĶ rÉĽÉĽ
ĠmÉĶ rÉĶ
ĠtÉĶ ÉĽ
ĠtÉĶ bÉĶ
ĠtÉĶ te
amb araÅĭ
pen y
sÃł fÊĬ
ĠM arker
Ġqu al
Ġtw in
Ġtw inkling
ĠnÉĽ Åĭ
ĠnÉĽ nz
Ġpot uo
mÃŃ Ã¬
ori te
ĠB aa
ĠB ad
Ġtu bers
Ġsw eep
Ġsw ord
per t
zu nni
zu Åĭmane
Ġmi ie
Ġmi iribe
Ġmi inime
sa ÉĽ
sa wÉĶ
Ġpre cis
Ġpre tend
Ġpre sence
Ġinter rogative
Ġinter rup
Ġinter cour
gÃŃ lÃ³
gÃł lÉª
gÃł nÃłÃł
gÃł nÃłÃ¡
gÃł ÅĭÉªnÉª
tÉĽ ne
tÉĽ rÉª
tÉĽ rre
tÉĽ nnÉĽ
Ġar ch
Ġar gument
Ġar gue
any ene
Ġbec oming
Ġbec omes
int any
dÃ£ at
dÃ£ as
dÃ£ ap
ĠÉĽ raa
aÅĭg alaÅĭ
âĢ¦âĢ¦âĢ¦âĢ¦âĢ¦âĢ¦âĢ¦âĢ¦ âĢ¦âĢ¦
bÃ¡ lÉª
gÃ¬ rÃ¬
ĠsÉĽ Åĭ
ĠsÉĽ le
ĠsÉĽ ma
ĠsÉĽ mp
ĠsÉĽ nemÉĽ
ĠsÉĽ nsÉĽ
ĠsÉĽ nlÉĽ
tÉª rÉĽ
tÉª ntÉĶ
tÉª grÊĬ
yÃ¨ ly
yÃ¨ ld
zÉĶ lÉĶ
zÉĶ nz
ĠH mm
Ġr ashes
Ġrain storm
aÅĭkp oli
pi imee
ÌĤ )
ĠbÉĶ raa
ĠpÉĶ loo
Ġpart y
Ġpart ridge
Ġmed i
alle n
za kpiri
Ġpare kyÉĽ
Ġplant ain
Ġhard ly
Ġku raa
Ġku lee
Ġky eÉĽ
Ġky aane
Ġdon ation
dÉĽ rÉĽÉĽ
dÉĽ lle
dÉĽ mmo
saa Åĭ
Ġtra il
ĠgÉĶ nne
ĠgÉĶ nnÉĽÉĽ
Ġcar ve
ĠDag aa
ĠDag baane
kÃ² Åĭ
kÃ² kÃ²
maa ma
maa laa
yÉĶ ÉĽ
Ġbre ad
Ġbre aking
ĠlÉĶ rÉĽÉĽ
ĠlÉĶ raa
ĠlÉĶ nnaa
Ġgbo lee
Ġgbo libo
kÃ³ lÃ³
kÃ³ nÃ³
tÃ¡ lÉª
tÃ¡ gÉª
tÃ¡ Ê§
tÃ¡ rÃ¡
tÃ¡ Ê§Éª
Ġpu ro
Ġpu lee
Ġpu ff
Ġpu ono
Ġpu oruu
Ġpu bic
kpÉĽ rÉª
Ġhead quart
Ġkpe le
Ġkpe erÉĽÉĽ
Ġkpe rebÉĽ
aky eÉĽrÉĽ
aky eri
Ġwork er
Ġwork ing
zÃº zÉªÉĽ
zÃº ÅĭmÃ¡nÉª
nÃł gÉª
nÃł ÅĭkÊĬ
nÃł Ê§ÃŃ
op per
rÃ¡ tÃ¡
Ġexp ensive
kÃł rÃłÃł
ĠG a
Ġbur ro
Ġbur ree
Ġca using
Ġdis g
Ġdis mant
Ġdis grace
Ġgu ess
Ġgu ilty
ĠzÉĽ lÉĽÉĽ
ĠzÉĽ mbÉĽ
ĠzÉĽ vaare
wÉĽ rÉĽÉĽ
wÉĽ lÉĽ
Ġim pl
bÃ² lÃŃ
kÃº lÃŃ
kÃº ÅĭkÃº
nÃ¡ nnÃ¡
pare nt
Ġab sc
Ġab andon
anky e
Ġyeli w
rÃ³ Ã²
rÃ³ tÃ³
Ġlu ree
Ġlu raa
Ġlu Åĭg
mpÉĽ lÉª
yÃ¨l bÊĬ
ĠdÉĽ rÉĽÉĽ
ĠdÉĽ nemÉĽ
ĠdÉĽ llaa
ĠgyÉĽ nnÉĽÉĽ
ĠgyÉĽ ngy
Ġbag uo
Ġseed ling
Ġ1 9
Ġya ws
Ġround ed
bb y
bb le
bb ed
co b
Ġsup posed
Ġlight bul
omp oore
omp arable
ĠY Îµ
ĠY our
Ġra pe
Ġra ce
Ġmu ro
Ġany one
Ġref rain
Ġcompl ain
nim is
nim if
ĠC omp
Ġmat ch
Ġmat urity
fo le
mÃ¡Ã¡ lÃ¡
ph er
ĠL ÉĽ
ĠL et
ĠL ÉĶÉĶre
ĠL awra
Ġlit er
Ġback ward
ĠE ach
ĠE uro
Ġsk im
Ġsk ull
Ġsk irt
Ġbond aare
Ġcomplet e
gÃ³ r
gÃ³ rÃŃ
gÃ³ kÃ³
Ġsak uuree
ĠzÉĶ ng
go e
ĠtÉĽ mp
ĠtÉĽ nÉĽ
ĠtÉĽ rrÉĽÉĽ
Ġzo e
nÃŃmÃŃ sÊĬ
nÃŃmÃŃ pÉªÉĽ
pÃŃ rÃ©
Ġend ing
Ġend ed
Ġunder taker
Ġtak ÉĶ
Ġtak ori
Ġfall s
gbo re
Ġlook ed
Ġwild erness
Ġheav en
Ġbri ck
Ġbri deg
Ġsee k
Ġbons oÅĭ
Ġbons eÉĽre
Ġbons eÉĽrÉĽÉĽ
Ġexpression s
loo se
lÃ² Ã²
Ġpat ch
Ġgro an
Ġgreat ly
gyÉĽ l
gyÉĽ lÉĽ
port ion
vel led
Ġmaa Åĭ
kÉĶÉĶ lÉĶ
Ġu lee
Ġu oraa
Ġwood en
Ġwood peck
Ġfi er
Ġcow ard
Ġset ting
bÉª nÉĽ
bÉª rÊĬ
fÉª lÉĽ
fÉª gÉª
fÉª rÊĬ
fÉª gÉĽ
gba Åĭgb
ten se
Ġdie Åĭ
Ġdes cend
Ġthere fore
baÅĭ enaa
Ġstick ing
Ġcontain ers
eÅĭ ene
Ġac id
ĠkÉĶkÉĶ laa
fa ction
gÃ² kÃ²
mi zoo
ti iruÅĭ
kpe me
Ġza ÉĽ
Ġbeg ged
Åĭmaa Åĭa
Åĭmaa kpant
Ã¹Ã² lÃ¬
Th orn
Th ough
lÃłÃł rÉª
Ġkol kolo
Ġdri zzle
Ġgrow s
Ġcare less
kpÃł lÉª
sÃłÃł lÃłÃł
yo kpe
ĠwÉĶÉĶ bo
ĠyÉĶÉĶ pÉĶge
Ġemp hatic
Ġemp tiness
Ġkpaa naa
Ġext ensive
Ġbomp uuree
Ġbomp ÉĽÉĽrÉĽÉĽ
gr ind
gr anary
pri de
sÃº nnÃ¬
lÉĽÅĭ ÅĭÉĽ
lÃ¨ Åĭ
lÃ¨ Ã©
sc ene
sÃ¡Ã¡ bÊĬ
sÃ¡Ã¡ nÃ¡Ã¡
sÃ¡Ã¡ nÃ¡
Ġbiri ky
Ġbiri biri
ĠsoÉĶ naa
ĠsoÉĶ nema
Ġsig nif
ĠkaÅĭk aÅĭgb
Ġknow s
Ġpol l
Ġpol ygam
Ġvo oroÅĭ
fÃł nÉª
Ġmar ry
Ġmar ried
Ġmar shy
anf uuri
anf ane
anf araÅĭ
Ġyu oro
ĠnyÉĶ ÉĽ
ĠnyÉĶ rÉĽÉĽ
Ġremo ving
taa nt
Ġtight en
Ġthrow n
ĠleÉĽ rebÉĽ
alaba sh
Ġgroup s
pÃ¬ lÃ¬
vo ÉĽ
ĠV ÉĽÅĭ
ĠV ersion
Ġent ukp
Ġsal ins
Ġsal uoni
ĠlÉĶÉĶ l
Ġgbi iraa
Ġmis sing
Ġmis fort
ĠyÉĶ rÉĽÉĽ
ĠyÉĶ lÉĶ
Ġeye ball
Ġbeat en
ÅĭmÉĽ le
Ġsmooth ly
pÃł nÃł
pÃł rÃ¨
rÃ¨ Ã©
wÉª lÉĽ
Ġkuri wiri
Ġpig ribe
Ġpass ing
Ġpass age
Ġmaale Åĭ
kpÉª rÉĽ
gbÃ² r
gbÃ² Åĭ
Ġdab eÉĽ
Ġdab ÉĶge
Ġdab ili
Ġdab eÉĽmÉĽ
band aa
band az
si zed
sÃ¹ gÃ¬
vil ime
Ġsen g
Ġsen se
ÅĭkÉĶ nny
Ġpri or
Ġdak ogi
Ġdak ye
Ġfish hook
ndÉĶ bÉĶ
kpÃ¡ lÃł
kpÃ¡ lÃ¡
Ġint ru
Ġint est
Ġconf er
Ġconf use
Ġjo b
zÃ¹ gÃ¬
Ġang yoÉĶ
Ġsing let
inter pret
amm er
É²Éª grÉª
Ġdoes n
nÃłÃł mÉªÉĽ
Ġsog raa
Ġsog ya
Ġsqu at
Ġsqu are
Ġkind s
Ġkind ly
Ġdark ness
Ġhair y
Ġcover ing
Ġimm erse
az eg
bÃ³ Åĭ
man lee
Ġtri ed
Ġwri ter
Ġwri gg
Ġmud fish
Ġzi iri
Ġkale kale
ugg le
Ġbont eÉĽrÉĽÉĽ
Ġits elf
dak ÉĶÉĶre
kon ta
lu ck
nyÉĽ lmaa
pÃ² rÃ²
pÃ² tÃºÃ³
ĠneÉĽ zaa
Ġsol ution
Ġdáº½ÉĽ d
Ġdáº½ÉĽ dáº½ÉĽ
Ġcra b
Ġcra ft
kpÉĶ lÉĽÉĽ
Ġinc rease
Ġinc riminate
ĉĉĉ ĠĠĠ
bomp aare
Ġsupport s
Ng m
Ng ma
Ng maa
ac les
dÉĶÉĶ ne
pu oraa
tak ÉĶraa
wÃł l
ĠU oni
Ġband az
Ġspo on
Ġspo ke
Ġdanky imm
ars iri
Ġfinger nail
ĠgaÅĭ ga
omb ugo
omb oÉĶlaa
ÅĭmÉª n
Ġlead ing
Dag aaba
kÃ¹ kÃº
kaÅĭk and
kaÅĭk any
sens ÉĽ
vÉª rÉĽ
yÃ© nÃ¬
Ġburi es
Ġsour ce
ĠzÉĶÉĶ rÉĶ
ĠzÉĶÉĶ ze
bere mÉĽ
ĠseÅĭ gelÉĽ
Ġrest ive
Ġrest less
Ġbile mbile
Ġspirit ually
gÃ© lÃ¬
wiri zoore
yÃ³ lÃºÅĭ
ĠÉĶÉĶ raa
ĠÉĶÉĶ reba
Ġbal ance
Ġbal amb
Ġkan at
Ġkan waa
Ġwu oraa
Ġwit ness
Ġwiri k
Ġwiri zoÉĽ
Ġgl ance
Ġgre y
Ġmil oo
ÃŃrÃ© Åĭ
boÅĭ Åĭmaa
Ġbale Åĭkp
Ġexc re
Ġexc essive
Ġexc lude
Ġexc lamation
dap ÉĽ
dab ÉĶge
dab ilii
gbe Åĭkeroo
sw ine
sw eet
Ġtro ub
Ġball s
Ġblo ssom
Ġsel lÉĽÉĽ
Ġsel laa
Ġfell ow
ĠvÅ© ug
Ġhat ch
pect ed
Ġnyere salens
Ġspot s
Ġunt idy
Ġfriend ship
Ġsubst ances
Ġreturn ing
gn ant
vare vare
Ġbul ib
Ġplu cking
Ġval uable
Ġcor ral
ĠkpaÅĭkp annyug
Ġste al
Ġste am
Ġstu ck
Ġstill birth
Ġnemb aal
bont eÉĽraa
Ġstrugg ling
gÃ¨ nÃ¨
Ġter m
Ġtap olÉĽÉĽ
Ġbark a
Ġdel ib
Ġevery one
Ġevery where
Ġbebi dÉĽ
Ġnye gere
Ġshell fish
Ġrun s
Ġbrew er
doÅĭ a
kaa se
wÃ¡ Éª
wÃ³ lÃ³
Ġbamb oo
Ġbamb ara
Ġself ishness
Ġpup ils
Ġfel maara
Ġmourn ing
Ġvare ma
Ġcolle ague
Ġyie le
Ã¹Ã¹ lÃ¬
Ã¹Ã¹ rÃ¡Ãł
Ġmeas uring
Ġju mbled
dag oli
nÉ² Ã¡Ãł
wÃ¬rÃ¬ zÊĬ
Ġtens ogÉĶ
Ġtens oga
Ġtont oÅĭ
Ġbid ÉĽ
Ġkog ri
ĠpeÉĽ naa
Ġwol la
Ġow l
Ġfle xible
Ġgree t
Ġgol g
ĠvÉĶ lÉĶ
kpÃ© rÃŃ
Ġzuo e
Ġzanz aÅĭkp
ampe red
Ġsting iness
yÉĽre bÉĽÉĽ
ĠkÉĶntÉĶ n
Ġbiiri dale
ÉĽgelÉĽ kÉĽlÉĽ
doge lee
Ġearth worm
dÃºÃ³ rÃ¹
hÃ¡ lÉª
kolo kolo
mÃ¬ nÃ¬
mak as
mak ÃµÉĶ
tÃ© g
tÃ© rÃ©
weÉĽ loo
ĠÃ¡ tÃł
Ġtuo bu
Ġsent ence
leg ged
Ġpus hed
Ġdan cing
Ġdan cers
Ġwof uoraa
Ġwind ow
Ġvu oli
Ġvis itor
Ġcol la
Ġhid ing
ntÃ¡ gÉª
ĠÅĭme ene
ĠÅĭmo onema
ĠÅĭmo ona
Ġtooth less
Ġduor uÅĭkÉĶns
NÃŃmÃŃ ri
NÃŃmÃŃ rÃ¬
danky iÅĭk
ĠsÉĽre maal
Ġkeep ing
Ġpen is
Ġpal ace
Ġpal atable
Ġdro ught
Ġlot ion
Ġinf ant
Ġinf ected
ogra ph
Ġbore Åĭmaakpant
Ġbik Å©u
Ġatta ch
Ġatta ched
Ġattemp ted
Ġprot est
Ġnarrow ly
bÃ© bÃ©
dam bo
lÃ¹ gÃ¬
lÃ¹ Ã¹rÃ¬
Ġsas eÉĽ
Ġpor raa
Ġpay ment
ĠwÉĶ Åĭkam
Ġwee vil
Ġwid ely
Ġwid ower
Ġoo zing
ĠgoÉĶ ÉĽ
Ġmess enger
kpÃ² lÃ¬
Ġzeg eraa
Ġinv ite
oÅĭg oloÅĭ
Ġstore d
Ġlet ter
Ġneed y
ĠÅĭmamp or
Ġgbor gbo
Ġbonny uuri
Ġdevelop ment
Ġpori si
Ġpori tiis
gye ree
gye mÉĽ
Ġacc ompany
Ġcross ed
bre ast
don key
dog s
daky eere
gÃ¹ Ãº
kÃ¡Ã¡ mÃ¡
zz led
Ġber oÅĭk
Ġbath ing
ĠkoÉĶ leba
Ġperi pere
Ġwi áº½u
Ġok ay
Ġgar ment
Ġvul oÅĭkp
Ġvul va
ĠvÅ©u z
Ġbeb is
Ġinform ed
pege laa
Ġsearch ing
Ġreg ion
Ġreg ular
Ġteg ÉĽÉĽ
Ġteg itegi
mbÃŃ lÃ©Åĭ
mbÃ² gÃŃ
Ġcho ice
Ġsac red
Ġkarem amine
ĠniÅĭe Åĭ
Ch ild
farm er
kus i
vÃŃ lÃ©
vÃŃ lÃŃmÃ©
wÃº lÃºÃº
yÃł gÉª
zÉĶÉĶ reba
Ġutter ly
Ġsaal omp
ony onne
Ġtog ilogoo
Ġpim ple
Ġoli ve
Ġown ers
Ġfent el
Ġfif ire
Ġfif ty
Ġyog ro
nde teroo
Ġzom bÉĽ
ĠzÉĶÅĭ a
ĠkpoÅĭkp ont
ĠkpoÅĭkp olee
mele kala
Ġunc astrated
dzÃ¬ l
bÃ¬rÃŃ Ê§Ã¬
Ġnimib aaloÅĭ
Ġcob ra
Ġscra p
Ġmature d
sÃ£ak ont
Ġcareful ly
Ġdecor ate
Ġdecor ation
Ġdestro y
Ġdestro yed
Ġpunish ment
pulo pulo
taÅĭe mÉĽÉĽ
ĠtuÅĭ ee
Ġtot al
Ġke y
Ġke ree
ĠpÉĽg lÉĽÅĭ
Ġdand ay
Ġfla bby
Ġmist ake
ede me
ete baa
Ġgbel lee
Ġposs essive
nÉªmb Éª
Ġroam s
Ġpier ce
yelb oÉĶraa
ĠpÉĶle se
Ġapp ellation
Ġluro luro
Ġmiss es
Ġdirect ly
Ġappear ance
Ġannoy ance
Ġjump ed
Ġcrowd ed
Ġaffect s
Ġaffect ion
ex pression
wor k
zanz aÅĭaa
á½ ¸
Ġtreat ment
Ġkor ingy
Ġkur ku
ĠpÉĽÉĽ tÉĽ
Ġpil laa
Ġpur sue
Ġlim it
Ġwrest ling
Ġwrong do
Ġful ly
Ġgi ant
Ġgog ori
Ġvaa ÉĽ
Ġvari ous
Ġhur ry
Ġlad der
baÅĭk oroÅĭ
Ġem otion
Ġeight y
loc al
loc ate
nsÃ¡Ã¡ nÃł
duor un
duor uÅĭ
zÃ¡nz Ã¡
Ġpract ices
Ġdrag ged
Ġengage d
Ġmosquito es
cl othes
dÃŃ ndÃŃ
sal ins
zib eraa
Ġer r
Ġtum ak
ĠbÉĶÅĭ ene
Ġtor toise
Ġmal icious
Ġvan ish
Ġvan ity
Ġeas y
Ġzege rebÉĽ
Åĭme mÉĽ
ĠneÅĭkp onni
Ġrese mble
Ġrese mbles
Ġheel s
Ġbodaa sens
Ġbodaa nonno
Ġsafe ky
Ġspi ky
Ġspi kes
Ġpebb les
estic ated
ĠgbÉĽg rÉĽ
Ġtump anne
ĠpÉĶl bile
Ġscr at
Ġscr atch
Ġappl ying
Ġappl ied
serek ulo
br an
cent rated
foo ted
hap s
mÃº nÃŃ
met al
pÃ¹Ã² rÃŃ
pÃ¹Ã² rÃłÃ¡
sam asama
teg eroÅĭ
Ġtur tle
Ġnaky igree
Ġnaky igri
Ġbra very
Ġbuul unw
Ġsaare Åĭ
Ġsna p
Ġdans eÉĽ
Ġwis hes
Ġwound ed
Ġge lee
Ġven om
orab in
Ġcot ton
ĠyÉĶge vaare
nemp ÉĶgere
kpÃº lÃ©Ã©
Ġbead s
bet ween
Ġshock ed
ĉĉĠĠĠĠ ĠĠĠ
Ġpeace ful
ĠbÉĽlÉĽ mbÉĽ
Ġprote ct
Ġprote ction
Ġprodu ces
Ġpares un
Ġrefer red
Ġclever ness
Ġdesp ise
Ġdesp ite
Ġsenso gelens
Ġsalend oge
Ġelder ly
ĠnÉĽnefÉĽ nÉĽ
Ġvalinv uuluÅĭ
ĠbiÅĭibiÅĭ ine
Ġkerne l
Ġkerne ls
Ġsympath y
Ġsympath ise
keg ireÅĭ
lak ala
mmÉĽ lÉĽÅĭ
rin ge
umm u
yÃº Ã²
Ġig nore
Ġide as
Ġbreat he
Ġsil ky
Ġtow el
Ġded ee
Ġlon ely
Ġwhe ther
Ġwrink le
Ġgul ps
Ġgangy inn
Ġvol uminous
Ġzamp arem
Ġinh abit
Ġbaga o
pet ition
Ġnyam ena
Ġstamp ede
ĠAm ong
irr or
irin ÉĶbÉĶ
beh av
Ġlen ime
Ġfort ify
Ġshri ll
ĠSa fe
mmÃŃ rÃºÃº
ĠKÉĶ kÉĶlaa
ĠWh ich
Ġrid dle
Ġblad der
ĠBon so
Ġarri ve
Ġarrange ment
sÃ¡mp Ã¡nÉª
Ġbroad cast
zÃ¡g rÃ¡
Ġune ven
ĠbÉĶgeÅĭm ampe
ĠkaÅĭkaÅĭ kye
Ġmonth s
Ġwrit ten
Ġtomato es
Ġrelation ship
Ġinvad ed
Ġphys ical
Ġoccas ions
Ġmegem eg
Ad verbs
gÃºÃº lÃ¬
jo int
pÃºÃº lÃ©Ã©
snat ch
took uri
Ġtut ÉĶ
Ġtanz uÅĭ
Ġtunt und
Ġavo id
Ġbellow s
Ġsni ff
Ġpulo pulo
hearted ness
Ġod our
Ġgen egene
gest ed
Ġced is
Ġcam ouf
Ġhurri ed
mabie kontapÉĶge
Ġtether ing
ÅĭkÃ© rÃ³Ã³
ĠkÉĶle ÅĭkÉĶ
Ġdefe c
rubb er
ĠnÉĶdaa komm
Ġcomm endation
dÉĶnd ÉĶre
Ġrhy thm
build ers
Ġappro ach
Ġabdom en
Ġfuom ii
Ġentang led
Ġspokes man
Ġhuni hun
Ġwalpi eluu
ĠdoÉĶkp angy
dÃ¹nd Ã¹
oÅĭkommuulit oori
mbÃ¡lÃ¡Ã¡ rÃ¡Ã¡
ĠkÉĽk ÉĽrÉĽÉĽ
ĠAfric an
Ġoppos ite
Ġmerciless ly
BÃ¨ bÃŃ
Comp ound
DE F
Danky ini
Spe w
Wh ite
aus a
dict ion
kalm any
sou p
vut aÅĭkp
whe l
ïĢ ł
ĠnÉĽge tÉĽgÉĽÉĽ
Ġastri de
ĠayoÉĶ p
Ġbast ard
Ġsne ak
Ġsooth say
leav es
Ġkaring y
Ġpict ure
Ġdred ge
Ġgent le
Ġmou stache
Ġvag ina
Ġcalle d
Ġhag gle
ÅĭmolÉĶÅĭÅĭm ooraa
agger ation
veget able
Ġissu es
Ġlefto ver
Ġneigh bour
Ġnaught y
Ġtethe red
Ġtempe red
Ġwhist le
Ġsojour ner
nÉĽget ÉĽgÉĽÉĽ
ĠDuba i
umcis ion
Ġunco vered
Ġunimport ant
ÉĶrekpÉĶ rÉĶ
Ġalbin o
Ġenviron ment
Ġclitori s
Ġprecis ely
Ġintercour se
Ġheadquart ers
nÃłÊ§ÃŃ gÃ©
Ġdismant le
Ġabsc ess
Ġlightbul b
ĠEuro pe
Ġbrideg room
Ġwoodpeck er
Ġmisfort une
interpret ation
' ,
' s
+ -
- ,
- -
- /
6 0
7 0
8 0
9 0
A i
A ug
A Åĭk
A ll
A pri
A fere
B y
B an
B Ãł
B us
B ee
B ay
B ong
B reat
B ond
C an
C at
C ow
C lo
C old
C ond
C entral
D I
D i
D u
D on
D Ãł
D oo
D as
D Ã²
D ant
D end
D ry
D ÉĽre
D av
D ÃºÃ³
D aky
D oge
D ialog
D agao
D egree
D aÅĭyi
E x
E ven
E NG
F ri
F ut
F inger
F resh
G al
G yu
G aana
G yo
G yer
G Ã¡n
H at
H orse
H oly
H ausa
I s
I di
J n
J er
J an
J une
J uly
K aa
K Ã¡
K oÉĶ
K us
K ow
K Ã²
K ur
K ap
K uri
K oro
K Ã¹rÃ¬
K ya
L o
L ÉĽ
L aa
L eÉĽ
L ÃŃ
L ong
L eg
L Ã¬bÃŃ
M k
M o
M ay
M et
M eet
M ÃŃrÃ¬
M other
M arch
N Ãł
N eÉĽ
N ÃłÃł
N um
N ear
O b
O to
O ctober
P a
P re
P en
P ie
P ot
P ut
P are
P aare
P ane
P oore
P ass
P elaa
P ull
P ito
P res
P ampana
P rep
P lace
P ÉĽle
P lease
P illow
Q u
R L
R o
R ed
R ight
R oll
R aw
R iver
S u
S ÉĽ
S on
S at
S al
S eÉĽ
S oÉĶ
S aÅĭ
S ak
S ÉĶÉĶ
S Ã£
S ere
S und
S te
S aana
S chool
S ÉĽgre
S pec
S alt
S Ã¡n
S ÉĶgle
S ieve
T i
T ra
T ak
T ype
T rain
T uuro
T own
T owards
T omorrow
T utaa
U o
V uu
V eÉĽlÉĽ
V eget
V oc
W R
W ed
W ogi
W est
Y e
Y iri
Y oÉĶre
Y aga
Y oÉĶraa
Y eli
Y uoni
Y esterday
Z e
Z aa
Z áº½ÉĽpÉĶge
a ba
a kp
a bo
a ud
a ft
a fter
a ction
a zaa
b ro
b ra
b rÉĽÉĽ
b ent
b ly
b erÉĽÉĽ
b ant
b ru
b erÉĽ
b rebÉĽ
b Ã¡Ãł
b te
b ard
b aale
b row
b ime
b ye
b ili
b uori
b áº½ÉĽ
b Ã¡Åĭ
b ull
b ÉĶgere
b enÉĽÉĽ
b Çİ
b ank
b anz
b ÉĶgele
b igiri
b uribo
b ulli
b ÉĶgÉĶ
b ring
b ÉĶgerÉĽÉĽ
b ted
b imm
b room
b uulaa
b imee
b uÅĭi
b Ã¡ÅĭÃ¡
b ÉĶga
b oroto
b ending
b ÄĽ
b Ã£abo
c i
c ro
c as
c age
c ane
c ame
c ise
c ult
c ulo
c ular
c ount
c ence
c cy
c ribe
c ious
c irc
c oming
c ify
c akes
c lay
c alabash
d d
d ed
d aÅĭ
d ig
d ad
d ir
d Í»
d uo
d ii
d Ã¡Ãł
d ind
d ish
d ÉĶre
d uori
d ans
d eÉĽle
d ise
d ue
d eÉĽraa
d ud
d aana
d aÅĭg
d eep
d eÉĽlÉĽÉĽ
d led
d Ã¡Ã¡rÉª
d aÅĭaa
d oÉĶle
d ÉĶgele
d orri
d oma
d ÃºÅĭ
d aÅĭgb
d les
d unnee
d irty
d ogerÉĽÉĽ
d ÃłÃłrÉª
d oÅĭkomm
d iibu
d eÉĽnaa
d ÉĽgrÉª
e at
e ver
e ue
e xt
e yed
e ousness
e orite
f y
f ar
f at
f al
f ree
f as
f am
f iri
f Ã©
f ly
f age
f lo
f ÉĽg
f áº½
f ind
f um
f ive
f ound
f orÉĶ
f arre
f ulo
f ori
f uuli
f igi
f ugi
f áº½e
f enne
f ool
f ÉĶÅĭe
f owl
f aroo
f Ã¹Ã²
f resh
f eroo
f urree
f oot
f ÉĶÅĭÉĶ
f egÉĽ
f ÃłÃłlÊĬ
f ogiluu
f erment
g en
g al
g om
g il
g ree
g all
g li
g uri
g Ã¡Ãł
g aale
g oÉĶre
g row
g oore
g ame
g ÉĶre
g ili
g ans
g we
g ore
g aÅĭk
g amb
g lÃł
g rÃ©
g lÃ¡
g inal
g anema
g arrÉĽÉĽ
g unni
g lÃłÃł
g oloÅĭ
g olÉĶ
g ogo
g lÃºÃº
g ennaa
g room
g zÃŃÃ©
g lÃ©Åĭ
g bogiri
g lÃ³Åĭ
g enime
g lÃłÅĭ
g andaa
g ency
g ÃªÅĭ
h ÉĽÉĽ
h ÊĬ
h aÅĭ
h Ãº
h am
h og
h Ã©
h are
h ara
h ale
h Ã¡Åĭ
h old
h igh
h alf
h Ä©Ä©
h aped
h anging
h uuni
h uni
h erself
i an
i or
i om
i el
i lee
i eri
i Åĭe
i eli
i ply
i enee
i eloo
j u
j ac
k i
k ar
k iri
k ug
k un
k ane
k aale
k nee
k oraa
k orÉĽÉĽ
k ÉĽre
k uori
k ans
k ang
k orÉĶ
k anne
k ult
k ulo
k ana
k ank
k arrÉĽÉĽ
k ogil
k unt
k oÉĶle
k oÉĶlÉĶ
k onnÉĽÉĽ
k ona
k allÉĽÉĽ
k anaa
k ogo
k urri
k aama
k ogiro
k urree
k nife
k uni
k oroo
k umo
k eloo
k akye
k ogiluu
k itchen
k ieree
k andaz
k ÃŃÃ©lÃºÃº
k agesaga
k Ã¹Ã²lÃ¬
l on
l oÉĶ
l aÅĭ
l ie
l ÉĶge
l ad
l ow
l ag
l ers
l erÉĽ
l eraa
l arÉĽÉĽ
l ane
l oÉĶre
l ime
l kÃ¡
l bÃł
l ÉĶÉĶre
l areba
l oÉĶraa
l aÅĭkp
l ice
l anna
l zÉªÉĽ
l ÉĶgÉĶ
l innee
l imb
l errÉĽÉĽ
l ÇĴ
l omÉĶ
l ightly
l bÃŃlÃ©
l Ã¢
l bÃŃrÃŃ
l Ã¡ÅĭÃ¡
l Ã»Åĭ
l oroto
l á¹įÄ©
m er
m or
m al
m as
m bo
m ie
m one
m ur
m ii
m up
m oÉĶre
m ate
m ene
m eÉĽrÉĽ
m ile
m ans
m elaa
m ud
m annÉĽÉĽ
m ouse
m eÉĽne
m ana
m biiri
m ÉĶÅĭe
m eÉĽnÉĽÉĽ
m oÉĶnÉĽÉĽ
m onÉĽÉĽ
m ature
m bogi
m annaa
m pere
m ogra
m beene
m baÅĭena
m elime
m olla
m áº¡
n in
n on
n an
n or
n us
n lÉĶ
n ant
n uuri
n ame
n ku
n ud
n uuree
n ity
n anna
n ka
n oun
n ÉĶgeraa
n agÉĽÉĽ
n wÉªÉĽ
n É²ÉĶ
n omÉĶ
n É²Ã¡ÅĭÃ¡Ã¡
n fÃłrÃł
n andaa
n andaana
n endaare
o il
o de
o orÉĶ
o ved
o thers
p r
p in
p on
p ÉĽÉĽ
p im
p og
p ay
p ion
p age
p ong
p our
p aara
p aarÉĽÉĽ
p aale
p Å©
p orÉĽÉĽ
p ÃºÃ³
p araa
p aane
p ÉĶÉĶre
p alle
p igi
p ugi
p aÅĭe
p eli
p aaloÅĭ
p omp
p Ã¡Ã¡rÉª
p igiri
p orri
p inni
p not
p Ã¡nÉª
p iiraa
p imb
p ÃºÃºrÃŃ
p oÉĶne
p orre
p ÃºlÃŃ
p ical
p ÉĽgre
p ower
p ÉĽgrÉĽÉĽ
p ÃłÃłrÉª
p Ã´Åĭ
p Å©o
r k
r ri
r us
r ma
r ine
r te
r ta
r ass
r ance
r wa
r ank
r Ã»
r ÇĶÅĭ
r usion
r usted
s ÉĶÉĶ
s Í»
s la
s un
s age
s and
s up
s ong
s iree
s end
s ÃºÃº
s um
s ans
s áº½ÉĽ
s mo
s Ã¡Åĭ
s elÉĽ
s ud
s aÅĭe
s aky
s aaloÅĭ
s ÉĶÉĶrÉĽÉĽ
s arrÉĽÉĽ
s ÉĶgele
s oma
s angy
s unni
s ÉĽgere
s elle
s imm
s eny
s oga
s pect
s ÉĶgelÉĽÉĽ
s Ã¡ÅĭÉª
s ory
s ÉĶglÉĽÉĽ
s olli
s ogre
s ibling
s eller
s diction
s lightly
t al
t ul
t are
t Í»
t ent
t ly
t and
t Ã¨
t oro
t ast
t annÉĽÉĽ
t uuro
t anne
t amb
t eÉĽne
t uuli
t igi
t onni
t aky
t Çİ
t uuribo
t Ã¡Ã¡rÉª
t ogil
t oÉĶle
t urn
t Ã¹Ã²
t omach
t aking
t allÉĽÉĽ
t oll
t ÉĽgerÉĽÉĽ
t ÉĽgerÉĽ
t ÃŃrÃ©
t ollÉĽÉĽ
t ired
t ata
t Ã¢
t asty
t ÉĶgle
t reads
t ÃºlÃŃmÃ³
u ra
u mb
u ck
u ade
u olo
u roÅĭ
u cation
u kewarm
v re
v in
v Ã¬
v ie
v ak
v ÉĶge
v id
v ire
v ine
v eÉĽrÉĽ
v oraa
v oro
v oore
v aane
v ud
v ama
v igi
v able
v eÉĽlÉĽ
v oree
v unni
v aroo
v enty
v eÉĽlaa
v alenv
v itaÅĭkp
v ÃºÃºlÃºÅĭ
v ilenv
w i
w in
w ri
w ing
w it
w Ã¬
w ÉĶge
w oÅĭ
w erÉĽÉĽ
w et
w ire
w uri
w of
w ÉĽre
w ore
w onaa
w ÉĽgÉĽ
w ullo
w oloÅĭ
w ogiri
w olaa
w errÉĽÉĽ
w icked
w ife
w ÃłÃłlÉª
w atch
w uoraa
w als
w ogri
w rist
w inkling
w ontaa
w ÃºÃ³rÃ¡Ã¡
w iriny
x ter
y le
y Éª
y or
y eÉĽ
y are
y ire
y Ã¡Ãł
y ard
y arÉĽÉĽ
y oraa
y oro
y oore
y eÉĽre
y aane
y iribe
y orÉĶ
y oÉĶraa
y uuli
y ÉĶgere
y agere
y ÉĶgÉĽÉĽ
y aÅĭene
y irri
y oruu
y oluÅĭ
y Ä©áº½
y ÉĶgoo
z er
z en
z or
z el
z uu
z Ã¡Ã¡
z ut
z Ã£
z Í»
z un
z erÉĽÉĽ
z ii
z Ã¨
z ab
z ane
z ÃºÃº
z ÉĽre
z ime
z Ã£a
z iv
z Ã¡Åĭ
z ud
z aga
z ÉĶÉĶre
z ama
z ori
z oÅĭk
z igi
z omp
z ugo
z onne
z onema
z zard
z olaa
z amm
z agrÉĽÉĽ
z Ã»
z ogera
z imaa
z ÉĽgrÉª
z uluÅĭ
z ontal
Ç ¹
É Ł
ĉ Ġĉ
Ġ +
Ġ ,
Ġ .
Ġ 4
Ġ ÉĶge
Ġ Îµ
Ġ Ã¹
Ġ Åĭk
Ġ aara
Ġ eraa
Ġ Ãµ
Ġ Å©
Ġ ÌĥÌģ
Ġ uli
Ġ Ä©
Ġ uuree
Ġ aareba
Ġ uuraa
Ġ uuribo
Ġ ÉĶÉĶrÉĽÉĽ
Ġ ÌĥÌģ]
Ġ eÉĽnÉĽ
Ġ erre
Ġ uribo
Ġ enemÉĽ
Ġ ullo
Ġ ĉčĊ
Ġ ÉĶgrÉĶ
Ġ ÉĶgrÉĽÉĽ
Ġ ullee
Ġ ÅĭkÊĬ
Ġ É²ÉĽ
Ġ errÉĽÉĽ
Ġ eÉĽnemÉĽ
Ġ ÉĶÅĭÉĽÉĽ
Ġ irree
Ġ ign
Ġ Å©Å©
Ġ ÅĭgÃºÃ³
Ġ unnaa
Ġ ingy
Ġ ÆĨ
ÉĽ lÉª
ÉĽ nÉĽÉĽ
ÉĽ Åĭe
ÉĽ baa
ÉĽ rre
ÉĽ loo
Ìģ ;
Ìģ ÌĢ
Ìģ ïĢł
ÉĶ r
ÉĶ rÉª
ÉĶ lee
ÉĶ ky
ÉĶ nema
Ġt ar
Ġt ul
Ġt Ã£
Ġt Ã²
Ġt ent
Ġt erÉĽÉĽ
Ġt ii
Ġt ant
Ġt uri
Ġt aarÉĽÉĽ
Ġt ab
Ġt ÉĶÅĭ
Ġt amp
Ġt ala
Ġt ies
Ġt annÉĽÉĽ
Ġt aareba
Ġt any
Ġt int
Ġt igi
Ġt aÅĭe
Ġt alÉĽÉĽ
Ġt onnee
Ġt alaa
Ġt eÉĽrÉĽÉĽ
Ġt ÉĶÉĶrÉĽÉĽ
Ġt erre
Ġt onema
Ġt erebÉĽ
Ġt uulee
Ġt aÅĭgb
Ġt ÉĶgerÉĶ
Ġt onimo
Ġt alla
Ġt Ä©i
Ġt anf
Ġt uul
Ġt annaa
Ġt ullee
Ġt rum
Ġt igire
Ġt ulibo
Ġt agreba
Ġt ÉĽgerÉĽ
Ġt Ä©Ä©
Ġt iile
Ġt onnaa
Ġt uulaa
Ġt set
Ġt ÉĽgelÉĽ
Ġt ullaa
Ġt eebo
Ġt antamm
Ġt reads
Ġt rusted
re ct
re bÉĶ
re gb
re ast
re sp
Ġn ie
Ġn ad
Ġn and
Ġn Ã¡Ãł
Ġn Ã¡Åĭ
Ġn eÉĽraa
Ġn uuree
Ġn annÉĽÉĽ
Ġn ÉĽrÉĽ
Ġn orÉĶ
Ġn aareba
Ġn areba
Ġn tÉª
Ġn orm
Ġn ank
Ġn tÊĬ
Ġn oun
Ġn agÉĽÉĽ
Ġn agera
Ġn ÉĶÅĭÉĽÉĽ
Ġn omÉĶ
Ġn dÃŃ
Ġn asa
pl et
pl ural
aa Åĭ
aa roo
aa noo
aa sere
aa serÉĽÉĽ
aa yiree
Ġa st
Ġa id
Ġa li
Ġa mb
Ġa mm
Ġa eri
Ġa ware
Ġa Åĭa
Ġa yiri
Ġa yoÉĶre
Ġa Åĭkaa
Ġa mele
Ġa var
Ġa kaase
Ġb Éª
Ġb ÃŃ
Ġb as
Ġb Îµ
Ġb uo
Ġb erÉĽÉĽ
Ġb ild
Ġb aale
Ġb ÃłÃ¡
Ġb eri
Ġb ala
Ġb olo
Ġb annÉĽÉĽ
Ġb aareba
Ġb anne
Ġb less
Ġb use
Ġb ÃŃÃ©
Ġb anna
Ġb elÉĽÉĽ
Ġb eÉĽlÉĽÉĽ
Ġb alaa
Ġb anema
Ġb eÉĽnÉĽÉĽ
Ġb ÉĶgele
Ġb onema
Ġb uoribo
Ġb aroo
Ġb alla
Ġb anf
Ġb imb
Ġb olaa
Ġb olibo
Ġb ullee
Ġb eribe
Ġb ÉĶgre
Ġb inne
Ġb ennÉĽ
Ġb ÉĽgerÉĽ
Ġb ennaa
Ġb ÉĶÅĭÉĶ
Ġb ammo
Ġb orrow
Ġb enee
Ġb ÉĽgerebÉĽ
Ġb illee
Ġb ÉĶrebÉĶ
Ġb ÉĶga
Ġb ÉĶÉĶrebÉĶ
Ġb unch
Ġb Ã£abo
Ġb orne
Ġb intany
Ġs ÉĽÉĽ
Ġs Ãł
Ġs ÉĶge
Ġs ot
Ġs are
Ġs ÉĶg
Ġs und
Ġs aara
Ġs ara
Ġs eraa
Ġs oÉĶre
Ġs eÉĽraa
Ġs uuree
Ġs ÉĽrÉĽ
Ġs ÉĶÉĶre
Ġs ama
Ġs ink
Ġs areba
Ġs aÅĭkp
Ġs aÅĭe
Ġs alÉĽÉĽ
Ġs enne
Ġs lack
Ġs agere
Ġs ÉĶÉĶrÉĽÉĽ
Ġs ins
Ġs arrÉĽÉĽ
Ġs oÉĶnÉĽÉĽ
Ġs onne
Ġs eÉĽnÉĽ
Ġs ÉĶgele
Ġs igiri
Ġs onema
Ġs agra
Ġs aaleba
Ġs enemÉĽ
Ġs uoribo
Ġs alm
Ġs ullo
Ġs onnÉĽÉĽ
Ġs not
Ġs eÉĽmÉĽ
Ġs alla
Ġs olibo
Ġs annaa
Ġs agera
Ġs Ã³rÃŃ
Ġs agreba
Ġs elling
Ġs omÉĶ
Ġs ÉĽgeraa
Ġs ooree
Ġs ÉĶgelÉĽÉĽ
Ġs orrow
Ġs onna
Ġs ÉĽgerebÉĽ
Ġs ift
Ġs ÉĶgeleba
Ġs ÉĽgrebÉĽ
Ġs isi
Ġs ession
Ġs inky
Ġs pleen
Åĭ Ã¨
Åĭ ine
Åĭ ime
Åĭ zaa
Åĭ ÅĭmÃłÃł
Åĭ gel
in ed
in uu
in se
in so
in ate
in ation
in ue
in ner
in ary
in form
in iti
in sect
er k
er o
er ÉĶÉĶ
er ÉĶÅĭ
er man
er nut
er gency
le nd
le ct
le nt
le Åĭi
le af
le ÉĽne
le kere
le toe
Ġto y
Ġto rÉĽÉĽ
Ġto og
Ġto la
Ġto li
Ġto ll
Ġto orÉĽÉĽ
Ġto ile
Ġto ugh
Ġto gi
Ġto kele
Ġto tem
Ġto lom
Éª mÉĽ
Éª Åĭg
Éª rÊĬ
Éª rÃ¡Ãł
Éª ÅĭÉª
Éª nnÃ¡Ãł
Éª ndÃłÃ¡
Éª ntÊĬ
Ġk ing
Ġk ul
Ġk Ã²
Ġk uo
Ġk ong
Ġk eg
Ġk ick
Ġk eraa
Ġk eÉĽrÉĽ
Ġk oore
Ġk eri
Ġk ÃºÃ³
Ġk ue
Ġk eÉĽrebÉĽ
Ġk annÉĽÉĽ
Ġk orÉĶ
Ġk ama
Ġk ulo
Ġk ite
Ġk anky
Ġk onnee
Ġk uuraa
Ġk uuribo
Ġk onaa
Ġk oÉĶle
Ġk aalÉĽÉĽ
Ġk onema
Ġk ÉĶgÉĽÉĽ
Ġk ena
Ġk ÉĶgrÉĶ
Ġk not
Ġk aalaa
Ġk ogiri
Ġk orree
Ġk oÉĶlaa
Ġk ÃºÃºrÃŃ
Ġk ogilo
Ġk urri
Ġk aÅĭm
Ġk ele
Ġk anÉĽÉĽ
Ġk ogiro
Ġk onnaa
Ġk ÉĶgereba
Ġk uuni
Ġk uunee
Ġk ÉĶgelÉĽÉĽ
Ġk uolee
Ġk onna
Ġk oÉĶbo
Ġk uluu
Ġk allaa
Ġk ogiribo
Ġk ÅıÉĶ
Ġk ÉĶgeleba
Ġk iss
Ġk ÉĶgera
Ġk aÅĭmÉĽ
Ġk ankyiri
Ġk ieluu
Ã¡ lÉª
Ã¡ gy
Ã¡ mm
Ã¡ lÃł
Ã¡ nnÊĬ
Ã¡ lÃ³Ã³
Ġp m
Ġp ÊĬ
Ġp ÉĶÉĶ
Ġp og
Ġp Ã£
Ġp ÉªÉĽ
Ġp et
Ġp aarÉĽÉĽ
Ġp ane
Ġp Å©
Ġp araa
Ġp áº½ÉĽ
Ġp olo
Ġp ue
Ġp ama
Ġp aareba
Ġp arre
Ġp enÉĽ
Ġp eÉĽne
Ġp aala
Ġp aky
Ġp eep
Ġp elÉĽÉĽ
Ġp anema
Ġp onaa
Ġp aanÉĽÉĽ
Ġp olle
Ġp oÅĭi
Ġp eÉĽnÉĽÉĽ
Ġp erre
Ġp uribo
Ġp ulli
Ġp erebÉĽ
Ġp uulee
Ġp innee
Ġp alla
Ġp uoree
Ġp anaa
Ġp olibo
Ġp orree
Ġp irri
Ġp orre
Ġp ÉĽgrÉĽ
Ġp eny
Ġp eele
Ġp iile
Ġp ari
Ġp eÉĽlaa
Ġp aanema
Ġp aanaa
Ġp inaa
Ġp ÉĶgraa
Ġp ugiribo
Ġp onnÉĶ
Ġp ullaa
Ġp ugiraa
Ġp innaa
Ġp agereba
Ġp aÅĭÉĽÉĽ
Ġp ÉĶÉĶrÉĶ
Ġp oultry
Ġp ampered
he ap
he nne
he lli
Ġd Éª
Ġd ÉĽÉĽ
Ġd im
Ġd ul
Ġd ent
Ġd ere
Ġd ant
Ġd ru
Ġd aarÉĽÉĽ
Ġd eraa
Ġd ÃºÃº
Ġd ÉĽre
Ġd amp
Ġd ue
Ġd ud
Ġd annÉĽÉĽ
Ġd uuro
Ġd ÉĽrÉĽ
Ġd anne
Ġd ulo
Ġd aÅĭg
Ġd ice
Ġd aala
Ġd iire
Ġd enne
Ġd uuribo
Ġd agere
Ġd oÉĶle
Ġd erebÉĽ
Ġd aaleba
Ġd ÉĶgrÉĶ
Ġd iiraa
Ġd ying
Ġd eribe
Ġd rown
Ġd ulibo
Ġd ÉĶglaa
Ġd ÉĽgrÉĽ
Ġd ÉĶgreba
Ġd ogiro
Ġd omÉĶ
Ġd olÉĽÉĽ
Ġd elibe
Ġd ÉĶglÉĽÉĽ
Ġd oÅĭe
Ġd ÉĶgleba
Ġd ÉĶgeroÅĭ
Ġd arans
Ġd unse
Ġd rank
Ġpl ug
Ġpl ac
Ġpl unk
Ġl ul
Ġl ÉĶge
Ġl un
Ġl uri
Ġl eraa
Ġl aale
Ġl oro
Ġl kÊĬ
Ġl ure
Ġl ouse
Ġl aana
Ġl onni
Ġl ÉĶgere
Ġl iiree
Ġl onnee
Ġl uuraa
Ġl anema
Ġl uuribo
Ġl ÉĶÅĭe
Ġl inni
Ġl ÉĶgÉĶ
Ġl uoree
Ġl iiraa
Ġl onno
Ġl ato
Ġl ugg
Ġl ugiree
Ġl aama
Ġl ogiro
Ġl igiree
ar it
ar se
ar ly
ar ter
Ġw ÊĬ
Ġw il
Ġw uu
Ġw iree
Ġw arÉĽÉĽ
Ġw uori
Ġw oÉĶrÉĶ
Ġw uuro
Ġw ÉĽrÉĽ
Ġw aareba
Ġw arre
Ġw ille
Ġw iire
Ġw ool
Ġw anema
Ġw olle
Ġw eÉĽnÉĽ
Ġw ullo
Ġw ÉĶgÉĽÉĽ
Ġw ring
Ġw elle
Ġw ilibe
Ġw igire
Ġw ulibo
Ġw agera
Ġw ennÉĽ
Ġw ÉĽgerÉĽÉĽ
Ġw ÉĽgerÉĽ
Ġw ÉĶÅĭÉĽÉĽ
Ġw eÉĽlaa
Ġw ished
Ġw agerÉĽÉĽ
Ġw illi
Ġw uluu
Ġw ogiree
Ġw ogiribo
Ġw ogiraa
Ġw ÉĽgraa
Ġw egerÉĽ
Ġw Ä©eu
Ġw áº½d
Ġw irinÉĶbÉĶ
Ġo h
Ġo ri
Ġo rÉĶ
Ġo we
Ġo ora
Ġo gee
Ġo ona
Ġo meÅĭÉĽ
Ġo intment
Ġf ÉĽÉĽ
Ġf as
Ġf ot
Ġf ii
Ġf ong
Ġf eÉĽrÉĽ
Ġf um
Ġf ÉĽre
Ġf av
Ġf ile
Ġf ÃµÉĶ
Ġf eÉĽrebÉĽ
Ġf ÉĽrÉĽ
Ġf anne
Ġf ulo
Ġf unn
Ġf ana
Ġf ond
Ġf eÉĽlÉĽÉĽ
Ġf onne
Ġf eÉĽnÉĽ
Ġf uulee
Ġf rog
Ġf inime
Ġf uoree
Ġf annaa
Ġf ÉĶgelÉĶ
Ġf ennÉĽ
Ġf agreba
Ġf ÉĽgrÉĽ
Ġf igiraa
Ġf eÉĽlaa
Ġf onnÉĶ
Ġf iele
Ġf ugiraa
Ġf ogera
Ġf ogiraa
Ġf ogilibo
Ġf rying
Ġf allen
Ġg on
Ġg ag
Ġg uo
Ġg na
Ġg ant
Ġg uri
Ġg oÉĶre
Ġg ate
Ġg orÉĽÉĽ
Ġg Ã£a
Ġg anne
Ġg onni
Ġg alÉĽÉĽ
Ġg onnee
Ġg alaa
Ġg anema
Ġg uuribo
Ġg arrÉĽÉĽ
Ġg oÉĶnÉĽÉĽ
Ġg onne
Ġg uoribo
Ġg ÉĶgerÉĶ
Ġg anaa
Ġg olibo
Ġg unnee
Ġg ÉĶÅĭÉĽÉĽ
Ġg ÉĶgerebÉĶ
Ġg allaa
Ġg ÉĶrebÉĶ
Ġg enime
Ġg iere
Ġg uur
Ġg unnaa
Ġg ÉĶÉĶrebÉĶ
Ġg amporri
Ġm Éª
Ġm ÊĬ
Ġm ÉĶÉĶ
Ġm oÅĭ
Ġm ire
Ġm aara
Ġm ÉĶÅĭ
Ġm ate
Ġm eÉĽrÉĽ
Ġm aal
Ġm elÉĽ
Ġm ÉĽrÉĽ
Ġm pÊĬ
Ġm ulo
Ġm ille
Ġm uuli
Ġm ush
Ġm alÉĽÉĽ
Ġm ini
Ġm oÉĶrÉĽÉĽ
Ġm eÉĽnÉĽ
Ġm oÉĶreba
Ġm bÃŃrÃ¬
Ġm aalÉĽÉĽ
Ġm ason
Ġm onema
Ġm agra
Ġm ulli
Ġm aaleba
Ġm uulee
Ġm enemÉĽ
Ġm ullo
Ġm ÉĶgrÉĶ
Ġm ona
Ġm elle
Ġm ash
Ġm ÉĶgelÉĶ
Ġm orre
Ġm ÉĶÅĭÉĽÉĽ
Ġm ogiro
Ġm ention
Ġm aanema
Ġm uulibo
Ġm uulaa
Ġm ollÉĽÉĽ
Ġm uunee
Ġm oÅĭg
Ġm ogera
Ġm ollaa
Ġm oÉĶreÅĭ
Ġm otion
Ġm bÉĽrÊĬ
Ġm irror
an oo
an aÅĭ
an ga
an ye
an other
an ced
ri ce
ri ly
ri ous
ri tual
Ġ2 0
Ġ2 3
Ġ2 6
Ġ2 7
en z
en ak
en ch
en noo
en ok
Ãł yÊĬ
Ãł mmÊĬ
Ãł nÃºÃº
Ãł gÃ²Ã²
ge lee
ge Åĭi
ge baga
Ġv Éª
Ġv ÃŃ
Ġv oo
Ġv ir
Ġv oÉĶre
Ġv eÉĽle
Ġv ess
Ġv ora
Ġv eÉĽrebÉĽ
Ġv aana
Ġv ice
Ġv aala
Ġv anna
Ġv iire
Ġv oree
Ġv eÉĽrÉĽÉĽ
Ġv aalÉĽÉĽ
Ġv onema
Ġv agra
Ġv uribo
Ġv ÉĶgÉĽÉĽ
Ġv ÉĶgrÉĽÉĽ
Ġv ÉĶglÉĶ
Ġv ÉĶgre
Ġv onÉĶ
Ġv ennÉĽ
Ġv ÉĶgreba
Ġv ÉĶgraa
Ġv iiri
Ġv unno
Ġv onna
Ġv uuluÅĭ
Ġv ersion
Ġv ÉĶgleba
Ġv aaloo
Ġv erb
Ġv ÉĶrekpÉĶrÉĶ
at t
at eraa
at áº½e
at ory
at aabo
at ors
or ba
or ate
or phan
al d
al i
al and
al ous
al aÅĭm
al tak
al ys
al iÅĭk
Ġc as
Ġc ig
Ġc ent
Ġc ere
Ġc up
Ġc ane
Ġc red
Ġc oll
Ġc rum
Ġc ream
Ġc akes
Ġc ustom
ing uish
ro mbiri
it ar
it ive
it ogi
it ary
Ġh ÉĽÉĽ
Ġh oo
Ġh uu
Ġh ig
Ġh age
Ġh ara
Ġh ala
Ġh aane
Ġh ama
Ġh ana
Ġh alÉĽÉĽ
Ġh anky
Ġh alaa
Ġh anema
Ġh onema
Ġh alla
Ġh agera
Ġh ÉĽgeraa
Ġh ÉĽgelÉĽ
Ġh unno
Ġh iere
Ġh agereba
Ġh uuno
Ġh ouses
Ġh ammer
eÉĽ nee
eÉĽ loÅĭ
eÉĽ baare
eÉĽ baarÉĽÉĽ
Ġy an
Ġy oÉĶ
Ġy ee
Ġy id
Ġy ard
Ġy oraa
Ġy ogi
Ġy eÉĽraa
Ġy eÉĽrebÉĽ
Ġy ulo
Ġy ÉĶgere
Ġy ont
Ġy eÉĽlÉĽÉĽ
Ġy oÉĶreba
Ġy ÉĶgÉĽÉĽ
Ġy ÉĶgrÉĶ
Ġy ÉĶgerÉĶ
Ġy inime
Ġy ÉĶgelÉĶ
Ġy eÉĽlebÉĽ
Ġy ulibo
Ġy agera
Ġy inne
Ġy eÉĽlaa
Ġy olli
Ġy ageraa
Ġy ennee
Ġy iibu
Ġy oribo
Ġy Ã£ay
Ġy orom
Ġy opÉĶgeraa
Ġla re
Ġla ma
Ġla id
Ġla mb
Ġla Åĭk
Ġla gre
Ġla ying
Ġla ÅĭÉĽÉĽ
om s
om pl
om en
ed ition
ne ath
ne sday
ne gebaga
is k
is ing
is es
is ÉĶgelaa
is cu
el t
el oÅĭ
el ve
el ves
el come
ÃŃ rÃ¨
ou ra
ou ng
ba m
ba ba
ba ma
ba gy
ba Åĭg
ba yi
ba daa
ba pare
ba pa
ba kore
ba gbÉĽre
ba kpoÅĭ
ba kelee
nd o
nd u
nd Ãº
nd ÉĶÅĭ
nd ÃºÃ³
nd zÊĬ
nd Ã¡Ã¡rÉª
nd ÉĶÉĶrÉĽÉĽ
nd onÉĽÉĽ
nd zÉª
nd ÃŃrÃ©
nd Ã©Åĭ
nd zÃ¡grÃ¡
il u
il is
il il
il to
il igi
il able
il ical
Ġe rebÉĽ
Ġe arm
Ġe ase
Ġe vent
Ġe pile
Ġe ebo
Ġe cho
Ġe jac
oÉĶ la
oÉĶ roÅĭ
oo la
oo lÉĶ
kp ÉĽÉĽ
kp ar
kp ot
kp ug
kp Ã¨
kp ÉĽg
kp Ã¡Ãł
kp ÉĶÅĭ
kp ane
kp ell
kp oro
kp eÉĽrebÉĽ
kp Ã¡rÉª
kp alle
kp aÅĭe
kp oree
kp elÉĽÉĽ
kp eÉĽnÉĽÉĽ
kp erre
kp ÃŃrÃŃ
kp oloÅĭ
kp allÉĽÉĽ
kp eele
kp irree
kp omo
kp aÉĽ
kp egiri
kp ÉĽgelÉĽÅĭ
Ġz Éª
Ġz ÉĽÉĽ
Ġz en
Ġz oÉĶ
Ġz ol
Ġz iri
Ġz one
Ġz Í»
Ġz erÉĽÉĽ
Ġz áº½
Ġz oraa
Ġz um
Ġz ip
Ġz aÅĭg
Ġz omp
Ġz eÉĽnÉĽ
Ġz oÉĶlÉĶ
Ġz igiri
Ġz agra
Ġz enemÉĽ
Ġz ullo
Ġz anny
Ġz aÅĭgb
Ġz onimo
Ġz alla
Ġz annaa
Ġz onno
Ġz ullee
Ġz igire
Ġz agera
Ġz agreba
Ġz ÉĽgrÉĽ
Ġz ugiree
Ġz ÉĽgerÉĽ
Ġz irree
Ġz agre
Ġz ammo
Ġz aleba
Ġz ogra
Ġz ogera
Ġz iriÅĭ
Ġz uuno
Ġz ontal
ree t
as is
as aÅĭ
as sh
as oba
Ġbe le
Ġbe ÉĽÉĽ
Ġbe erÉĽÉĽ
Ġbe et
Ġbe ard
Ġbe elaa
Ġbe elÉĽÉĽ
Ġbe gÉĽ
Ġbe ars
Ġbe bit
Ġbe gerebÉĽ
Ã¬ Åĭ
]ÌĢ Ìĥ
bo e
bo v
bo x
bo il
bo th
bo la
bo Åĭkp
bo gÉĶ
bo red
bo llÉĽÉĽ
bo yaa
bo oroo
bo dav
bo saraa
uu ru
uu biiri
Ġad orn
Ġad ding
Ġin ne
Ġin ni
Ġin vo
Ġin fl
Ġin ches
Ġin duce
Ġin ability
Ġin diff
Ġin tact
Ġin tense
ra c
ra m
ol in
ol ing
ol om
ol bo
ol ic
ol ly
ol ves
ol omo
Ãº ng
Ãº Ã²
Ãº rÃ¬
Ãº lÃºÃº
rÉª n
rÉª kÃ¡
rÉª gbÉĽ
rÉª sÉĶ
am i
am es
am ent
am ara
am iime
am arit
iri bo
iri kpiri
Ġth ous
Ġth ud
Ġth ank
Ġth under
Ġth ough
Ġth irst
Ġth orny
Ã¡Ã¡ rÃ¡Ã¡
bÉĽ bÉĽ
bÉĽ lÉĽ
bÉĽ Åĭk
bÉĽ Åĭe
bÉĽ nz
bÉĽ ÅĭÉĽ
bÉĽ mpÉĽ
bÉĽ llÉª
bÉĽ llÉĽ
bÉĽ nzÉĶ
bÉĽ nwÉĶ
ie ma
im eri
im aala
im enne
im ini
im ennÉĽÉĽ
im boree
im bori
im anee
Ġba y
Ġba gb
Ġba yi
Ġba bie
Ġba daa
Ġba pare
Ġba vil
Ġba iled
Ġba kore
Ġba billee
Ġba was
ul ous
ul ib
ul ated
ul sory
pe ar
pe ree
pe st
pe ated
pe gre
pe vine
th a
th orn
th day
th ough
Ġka f
Ġka z
Ġka ÉĽ
Ġka yÉĽÉĽ
Ġka yeÉĽ
ng m
ng s
ng ga
ng ye
ng zi
ng nyu
ng yÃ³
ng zÃŃÃ©
ng manlee
es e
es eÉĽrÉĽ
es haped
ak ala
ak uro
ak aase
ÉĶÉĶ bÉĶ
ÉĶÉĶ tÉĶ
ÉĶÉĶ kpoÅĭi
ÉĶÉĶ nÉĽne
ÉĶÉĶ velaa
ÉĶÉĶ nÉĽn
ig raa
ig ns
ig olo
ig ileÅĭ
og raa
og id
og lÉĶ
og li
og atory
Ã© lÃºÃº
Åĭm ant
Åĭm ore
Åĭm ama
Åĭm enÉĽ
Åĭm eÉĽne
Åĭm eÉĽnÉĽÉĽ
Åĭm onne
Åĭm ÉĽgere
Åĭm onÉĶ
Åĭm ÉĽgele
Åĭm anzeÉĽ
Åĭm aarebÉĽÉĽ
Åĭm anee
Åĭm anlee
ic ient
Ġny us
Ġny aare
Ġny uo
Ġny erÉĽÉĽ
Ġny erÉĽ
Ġny aara
Ġny aarÉĽÉĽ
Ġny oraa
Ġny orÉĽÉĽ
Ġny aaraa
Ġny aala
Ġny iire
Ġny eÉĽrÉĽÉĽ
Ġny eÉĽnÉĽÉĽ
Ġny uulo
Ġny onnÉĽÉĽ
Ġny alla
Ġny ooreba
Ġny oll
Ġny aw
Ġny oÉĶlaa
Ġny igire
Ġny ele
Ġny agreba
Ġny onnaa
Ġny agraa
Ġny agrÉĽÉĽ
Ġny unno
Ġny enee
Ġny aÅĭena
Ġny igre
Ġny unimo
Ġny onyonne
ad d
ad ÉĶÉĶ
ad fast
oÅĭ ÉĶ
oÅĭ Åĭo
Ġkp ÉĶ
Ġkp ar
Ġkp at
Ġkp Ã£
Ġkp are
Ġkp uri
Ġkp ard
Ġkp oraa
Ġkp aal
Ġkp oro
Ġkp araa
Ġkp áº½ÉĽ
Ġkp ama
Ġkp arre
Ġkp amb
Ġkp ori
Ġkp aala
Ġkp anna
Ġkp ana
Ġkp ont
Ġkp elÉĽÉĽ
Ġkp anema
Ġkp eÉĽnÉĽ
Ġkp enemÉĽ
Ġkp ÉĶgrÉĶ
Ġkp ÉĶgerÉĽÉĽ
Ġkp inime
Ġkp onimo
Ġkp allÉĽÉĽ
Ġkp iiraa
Ġkp ennÉĽÉĽ
Ġkp olaa
Ġkp ennÉĽ
Ġkp ÉĽgerÉĽ
Ġkp ogiro
Ġkp onnaa
Ġkp ÉĽgelÉĽ
Ġkp aleba
Ġkp innaa
Ġkp allaa
Ġkp ÉĽgele
Ġkp ÉĶgera
Ġkp uoro
Ġkp ogilibo
Ġkp ogilaa
Ġkp uÅĭkp
Ġkp arsiri
Ġkp irikpiri
Ġst are
Ġst ur
Ġst inger
Ġst utter
Ġst oring
Ġst ern
Ġst reet
ot ograph
ĠA a
ĠA t
ĠA Åĭ
ĠA ba
ĠA la
ĠA baa
ĠA kan
ĠA fere
ĠA ndonÉĽÉĽ
ut ed
ut es
ut ure
ut oloÅĭ
ĠT oo
ĠT uo
ĠT ry
ĠT eere
ĠT wo
ĠT á½¹
ĠT entoloÅĭ
ma y
ma bile
Ã£ ÉĽ
are a
are ma
are kpÉĽ
ir d
ir thday
nn a
nn er
nn Ãł
nn uu
nn Ã©
nn ye
nn Ã¡Åĭ
ag yÉĽ
ag olo
Ã² Åĭ
Ã² gÃ¬
ve mber
se ene
se Åĭe
se gese
aare Åĭ
ce iv
ce mber
be ar
be at
be ad
be erÉĽ
be biri
be ans
be gere
be enÉĽ
be ren
be aut
be bis
yÉĽ nÊ§
yÉĽ mbile
yÉĽ mbaÅĭena
yÉĽ tÉĶgle
ct ar
ct ed
ct eri
bi ko
bi bile
bi faa
bi kaa
bi pÉĶlee
ug ro
ug ane
ug ili
ug iruu
ug ged
ug ilo
ent a
la x
la gere
la by
la ziness
un o
un ity
un ction
un ripe
un ler
Ġle Åĭ
Ġle ÉĽÉĽ
Ġle ar
Ġle ge
Ġle ak
Ġle ap
Ġle nnaa
Ġle ngth
Ġle zare
Ġle nnee
ÉĶg borÉĶ
Ġadv ant
Ġadv ise
Ġadv erb
Ìĥ ?
kÉĶ n
kÉĶ mb
kÉĶ mÉĶ
kÉĶ nz
kÉĶ rre
kÉĶ nso
kÉĶ ndaare
kÉĶ rÉĶÅĭ
mp oore
mp eri
mp ÉªÉª
mp elaa
mp aane
mp Ã¬Ã¬
mp Ã³Åĭ
mp Ã¡Ã¡nÉª
mp Ã©lÃ©Åĭ
mp ÃŃÃŃrÃ¡Ã¡
mp Ã¹Ã¹rÃ¡Ãł
lÉĽ rÉª
lÉĽ rÉĽÉĽ
lÉĽ lÉĽ
lÉĽ nlÉĽ
Ġan ii
Ġan uuri
Ġan uuree
Ġan iini
st rain
st ance
st ep
st itute
st aple
st upid
st eria
st yle
ur y
ur un
ur ns
ur day
Ġne ÉĽÉĽ
Ġne erÉĽ
Ġne mbÉĶ
Ġne eds
Ġne ctar
id ÉĶÉĶ
id ent
id ence
bÉĶ e
bÉĶ Åĭ
bÉĶ rÉĽÉĽ
bÉĶ rÉĶ
bÉĶ nne
bÉĶ nnÉĽÉĽ
bÉĶ llÉĽÉĽ
bÉĶ ndaa
bÉĶ Åĭenaa
Ã¹ Ãº
Ã¹ Ã³
Ã¹ nÃ¬
Ġwith d
Ġwith er
ter m
ter aa
ter ri
ter nal
ter mites
Ġfor aa
Ġfor ra
Ġfor ked
Ġfor giv
Ġfor give
Ġse er
Ġse bo
Ġse erÉĽ
Ġse rebÉĽ
Ġse Åĭkp
Ġse gere
Ġse enÉĽ
Ġse wn
Ġse ÅĭÉĽÉĽ
Ġse gerÉĽ
Ġse vent
Ġse brÉĽ
Ġse ÅĭkÃ£Ã£
Ġse mekelee
Ġse kalmany
Ġse venty
lÉĶ rÉĽÉĽ
lÉĶ nt
lÉĶ nne
lÉĶ nnÉĽÉĽ
Ġre m
Ġre ma
Ġre nt
Ġre qu
Ġre bu
Ġre du
Ġre port
Ġre act
Ġre pt
Ġre ply
Ġre ared
Ġre ceive
Ġre cover
Ġre inc
Ġre noun
Ġre peated
Ġre lax
ere l
ere gÉĽ
gb Éª
gb or
gb Ãº
gb ÉĶge
gb Îµ
gb ara
gb eri
gb elaa
gb uli
gb uuli
gb Çİ
gb ÉĶgele
gb igiri
gb ulee
gb anf
gb Ã³rÃŃ
gb Ã¡Ã¡lÉª
gb eÉĽloo
gb elime
gb ÉªlÉª
gb ÃŃÃ©lÃŃ
gb Ã®Åĭ
laa ma
li be
li bie
li ving
li ves
li zard
li eni
li ament
ny o
ny ar
ny aÅĭ
ny Ãº
ny uri
ny eg
ny aale
ny elaa
ny agere
ny oÉĶle
ny ÉĶgerÉĶ
ny ÉĶgereba
ny ÉĶÉĽ
ny egÉĽ
ny ielee
ny abiri
ny ÉĶÉĶrÉĶ
ny ÃŃÃ©lÃ¬
ny ÉĶgerebÉĽÉĽ
ny ÃºÃºrÃ²
ny ambaraÅĭ
ny oÅĭgoloÅĭ
ch allenge
ch olic
Ġna pe
Ġna bÉĽlle
Ġte a
Ġte kp
Ġte ree
Ġte am
Ġte mp
Ġte Åĭkp
Ġte elÉĽ
Ġte Åĭgb
Ġte enemÉĽ
Ġte kyÉĽ
Ġte xt
Ġte gerÉĽ
Ġte gye
Ġte mpoÉĶ
Ġte asing
Ġtype s
âĢĻ (
âĢĻ .
âĢĻ ;
gÉª rÃ¡Ãł
gÉª tÉĽ
gÉª lÃłÃ¡
gÉª rÃłÃ¡
gÉª sÃ¡rÉª
gÉª vÃ¡Ã¡rÉª
Ġwh irl
Ġwh olly
lo e
lo st
lo gere
Ġhe al
Ġhe ave
Ġhe nce
Ġhe aling
Ġhe Åĭine
mb Ã©
mb ÃŃÃ©
mb Ã¡Ã¡rÉª
mb ling
mb ÃºÅĭ
mb ÉĶgÉĶ
mb ÃºlÃŃ
mb Ã¡ÅĭÉª
mb uro
mb uroÅĭ
reba Var
Åĭk Ã¹
Åĭk Ã¨
Åĭk aarÉĽÉĽ
Åĭk arÉĽÉĽ
Åĭk aanÉĽÉĽ
Åĭk ÃºÃºrÃŃ
Åĭk ÇĴ
Åĭk ÇĴÅĭ
Åĭk eree
Åĭk ubo
mÉĽ ge
mÉĽ gÉª
mÉĽ gyÉĽ
mÉĽ kon
na ce
na fere
na ils
nt u
nt Ã¬
nt ly
nt Ã¹
nt Ã¡Åĭ
nt ÉªrÉª
nt aky
nt Ã²rÃŃ
nt ÃºlÃŃmÃ³
nt enak
Ġda ÉĽ
Ġda zÉĽ
Ġda ily
Ġda pere
Ġda bilee
Ġda veene
and er
Ġso b
Ġso e
Ġso ak
Ġso oraa
Ġso da
Ġso ora
Ġso orÉĶ
Ġso gee
Ġso bile
Ġso cket
Ġon ÉĶ
Ġon ion
ĠÅĭm Ã¡Ã¡
ĠÅĭm ee
ĠÅĭm oraa
ĠÅĭm orÉĽÉĽ
ĠÅĭm araa
ĠÅĭm aaraa
ĠÅĭm eÉĽrebÉĽ
ĠÅĭm annÉĽÉĽ
ĠÅĭm ore
ĠÅĭm arre
ĠÅĭm arrÉĽÉĽ
ĠÅĭm aÅĭgb
ĠÅĭm eÉĽnemÉĽ
ĠÅĭm ÉĽgrÉĽÉĽ
ĠÅĭm ÉĽgelÉĽ
ĠÅĭm onnÉĶ
ĠÅĭm eÉĽbo
ĠÅĭm anzeere
ĠÅĭm anzeerÉĽÉĽ
ĠÅĭm olÉĶÅĭÅĭm
ĠÅĭm olla
ĠÅĭm aÅĭkuÅĭk
ĠÅĭm entant
ĠÅĭm enz
Ġch ip
Ġch arre
Ġch op
Ġch ain
Ġch ased
Ġch oose
ck le
ck ed
ÃłÃł nÃ¡Ãł
Ġsh it
Ġsh ard
Ġsh ip
Ġsh ave
Ġsh ady
Ġsh aved
Ġsh adow
Ġsh aft
et y
et us
et ere
ant e
ant ities
ant oke
ky u
ky ÉĶ
ky eraa
ky inni
ky irit
ky igiraa
ky eemÉĽÉĽ
Ġgb ÉĶge
Ġgb ut
Ġgb Îµ
Ġgb aare
Ġgb ug
Ġgb aarÉĽÉĽ
Ġgb oraa
Ġgb oro
Ġgb aaraa
Ġgb orÉĶ
Ġgb arre
Ġgb uuli
Ġgb alle
Ġgb ana
Ġgb alaa
Ġgb anema
Ġgb uulo
Ġgb eÉĽnÉĽ
Ġgb onema
Ġgb aaleba
Ġgb ullo
Ġgb alla
Ġgb anf
Ġgb elle
Ġgb ÉĶgelaa
Ġgb eÉĽlebÉĽ
Ġgb ulibo
Ġgb ÉĶgre
Ġgb eÉĽnemÉĽ
Ġgb igiraa
Ġgb inaa
Ġgb elibe
Ġgb ÉĶgelÉĽÉĽ
Ġgb igiree
Ġgb onnÉĶ
Ġgb iele
Ġgb iere
Ġgb aalba
Ġgb ÉĶgelebÉĶ
Ġbon l
Ġbon nÉĽÉĽ
Ġbon nÉĶ
Ġbon ver
Ġbon naa
Ġbon nee
Ġbon no
Ġbon yuo
Ġbon faare
Ġbon fÉĶ
Ġbon zoo
Ġbon kpag
Ġbon fogeloo
Ã¨ rÃ¨
Ġgy ÉĽÉĽ
Ġgy el
Ġgy ire
Ġgy aarÉĽÉĽ
Ġgy iree
Ġgy eÉĽrÉĽ
Ġgy eere
Ġgy ora
Ġgy eÉĽrebÉĽ
Ġgy aareba
Ġgy enne
Ġgy ilibe
Ġgy ogilo
Ġgy agera
Ġgy errÉĽÉĽ
Ġgy eÉĽnemÉĽ
Ġgy ennaa
Ġgy ob
Ġgy ogra
Ġgy iele
Ġgy ogera
Ġgy iere
Ġgy agereba
Ġgy agela
Ġgy Ã£ay
Ġgy ogilibo
Ġgy aremÉĽÉĽ
Ġgy olom
Ġor ange
Ġbo ÉĽ
Ġbo ar
Ġbo ora
Ġbo gere
Ġbo leba
Ġbo ren
Ġbo kol
Ġbo ribo
Ġbo dal
Ġbo dav
Ġbo dies
Ġbo som
Ġbo konta
up on
Ġsm ile
Ġsm alle
Ġsm ock
Ġsm eared
Ġsm elt
nÉĶ re
nÉĶ nÉĶ
nÉĶ nne
nÉĶ da
nÉĶ tuo
nÉĶ moÉĶ
nÉĶ sare
nÉĶ nÉĽne
nÉĶ muu
nÉĶ tÉĽnz
nÉĶ dÉĶÉĶne
nÉĶ melime
ĠkÉĶ Åĭ
ĠkÉĶ lÉĽÉĽ
ĠkÉĶ nne
ĠkÉĶ Åĭe
ĠkÉĶ nnÉĽÉĽ
ĠkÉĶ lle
ĠkÉĶ nnaa
ĠkÉĶ rrÉĽÉĽ
ĠkÉĶ vÉĶ
ĠkÉĶ ntÉĽ
ĠkÉĶ lbÉĶ
ĠkÉĶ nvÉĶ
ĠN ot
ĠN ma
ĠN ens
ĠN anny
ĠN atural
Ġde w
Ġde le
Ġde ÉĽÉĽ
Ġde ree
Ġde lee
Ġde ity
Ġde gilee
Ġde xter
naa ra
naa pÉĶge
naa faa
naa dap
naa sare
naa pÉĶle
naa duoraa
naa zoÉĶ
Ġfo e
Ġfo ree
Ġfo lee
Ġfo reba
Ġfo gee
Ġfo onema
Ġfo onÉĽÉĽ
Ġfo ona
Ġfo rest
Ġfo gereba
Ġfo etus
to le
to ck
to gether
to bacco
to koroo
rÃŃ mÃ³
ap ara
ap arapa
ap orate
Ġnot ed
Ġnot es
Ġpo re
Ġpo orÉĶ
Ġpo leba
Ġpo soge
Ġpo verty
Ġpo zagele
Ġpo peÉĽloÅĭ
Ġpo etry
É² ÃºÃºrÃŃ
É² ÃłrÉª
É² ÃłÃłnÉª
rom ising
ru den
ru nning
ru nner
Ġsome times
ÉĽg lÉĽ
ÉĽg lÉª
ÉĽg ÉĶÉĶtÉĶ
ood aa
uuri bee
uri sdiction
Ġma kpáº½ÉĽ
Ġli ked
Ġli king
Ġli vely
nÉª Åĭ
nÉª ÅĭkÊĬ
nÉª mpÉĶ
nÉª mbÊĬ
nÉª ntÃł
nÉª nsÃłÃł
nÉª ÅĭkÃłÃł
eg g
eg ri
eg rÉĽÉĽ
eg iree
eg eraa
eg eroÅĭ
Ġhas ten
nÉĽ re
nÉĽ nÉĽ
nÉĽ ku
nÉĽ nnÉĽÉĽ
nÉĽ noo
nÉĽ brÉĽ
Ġwa e
Ġro w
Ġro ute
Ġro cks
Ġus es
Ġus ual
ns ÃºÃ³
ns ÉĶÉĶre
ns omm
ns ÉĽÅĭ
ns ÃłÃłlÊĬ
ns ÉĽgrÃ¡Ã¡
our ce
Ġko y
Ġko É
Ġko leba
Ġko ribo
Ġko onÉĶ
ll Ã©Ã©
Ġme ans
ni biri
ni Åĭe
ni inee
ake i
dÃł g
dÃł bÊĬ
dÃł gbÉĽ
dÃł bÃł
dÃł pÉª
dÃł nÊ§
dÃł vÉª
dÃł bÉªÉĽ
dÃł tÃºÃ³
dÃł É²Ã¡
dÃł lÃº
dÃł Ê§Éª
dÃł pÉªrÉª
dÃł gÃłÅĭg
dÃł ntÉªÉĽ
dÃł gbÃ¹
dÃł lÃ¡nÉª
dÃł bÃºÃ³
Ġsmall po
Ġsmall ish
Ġdo ri
Ġdo orÉĶ
Ġdo gele
Ġdo ribo
Ġdo bad
Ġdo ban
Ġman z
Ġman naa
Ġman noo
Ġman sugiree
ab aa
ab ular
ab ric
te enÉĽ
te kyÉĽ
te mber
ick ness
end aa
end ÉĶÉĶ
ĠD as
ĠD aÅĭ
ĠD id
ĠD ant
ĠD akoraa
ĠD egree
ĠD ÉĶÉĶvelaa
ara fara
ĠlÉĽ re
ĠlÉĽ raa
ĠlÉĽ nÉĽÉĽ
ĠlÉĽ rebÉĽ
ĠlÉĽ pÉĽ
ĠlÉĽ nemÉĽ
ĠlÉĽ nnÉĽ
Ġbi z
Ġbi lee
Ġbi fe
Ġbi bilii
Ġbi eribe
Ġbi faare
Ġbi faarÉĽÉĽ
Ġbi pÉĶlÉĶ
Ġbi baala
Ġbi pÉĶlbile
Ġbi pÉĶlÉĽÉĽ
Ġbi zÉĶnz
Ġbi ÅĭkÉĶnny
pÉĶ rÉĶ
pÉĶ roo
ĠS i
ĠS on
ĠS is
ĠS oÉĶ
ĠS ow
ĠS po
ĠS ugo
ĠS tomach
ĠS amarit
ĠS ource
ĠS ickness
Ġgo es
Ġgo onema
Ġgo onÉĶ
Ġgo zamb
ÉĶÅĭ a
Ġsa v
Ġsa be
Ġsa foÉĶ
Ġsa foore
ke ree
pÉĽ rÉĽÉĽ
pÉĽ nn
pÉĽ lÉª
pÉĽ loÅĭ
ko e
ko k
ko bo
ko ona
ko rem
ko kollee
me as
ane ously
bon lee
bon ni
bon de
bon tere
bon vo
bon faa
bon su
bon zie
bon teÉĽ
bon neÉĽ
bon nyaÅĭaa
bon oone
bon nyuu
bon sÉĶraa
Ġdi raa
Ġdi elibe
Ġdi iee
qu are
qu antity
qu ickly
Ġha il
ater ial
ga lee
ga zu
ga baÅĭ
Ġsu mm
Ġsu oraa
Ġsu mo
Ġcon ne
Ġcon ce
Ġcon co
Ġcon dole
Ġcon vul
Ġcon struct
Ġcon centrated
Ġcon gested
po st
po ora
po soge
po intment
ĠkyÉĽ Åĭ
Ġmo on
Ġmo reba
Ġmo orÉĽÉĽ
Ġmo ora
Ġmo der
Ġmo gereba
Ġmo stly
so ap
so ft
ĠpÉĶge Åĭ
ĠpÉĶge bÉĶ
ĠpÉĶge lÉĶ
ĠpÉĶge bil
ĠpÉĶge serek
gy a
gy ee
gy oÅĭ
gy ild
gy erÉĽ
gy eraa
gy ÉĶÅĭ
gy eere
gy ege
gy ob
gy ongy
gy egiri
gy aaÅĭk
ell oÅĭ
mm i
mm er
mm ÃºÃºlÃŃ
ta il
ta hÉĽ
ta urant
ate erÉĽÉĽ
ate enÉĽÉĽ
Ġperson al
Åĭg Ã³rÃŃ
Åĭg Ã¡ÅĭÉªnÉª
Åĭg Ã³lÃ³Åĭ
eÉĽrÉĽ ko
lÃŃ lÃŃ
lÃŃ gÃ¨
ĠK o
ĠK u
ĠK aa
ĠK om
ĠK Í»
ĠK ÉĶÅĭ
ĠK ale
ĠK ÃµÉĶ
ĠK oÅĭk
ĠO ur
ĠO na
ĠO nÉĶ
Ġex er
Ġex pose
Ġex posed
Ġex ec
Ġex ceed
Ġex pected
Ġex ternal
aal ong
aal biri
aal onwuluu
aal aland
Ġat are
ĠnÉĶ raa
ĠnÉĶ lee
ĠnÉĶ rÉĶ
ĠnÉĶ naa
ĠnÉĶ biri
ĠnÉĶ da
ĠnÉĶ nyaÅĭaa
ĠnÉĶ pÉĶl
ĠnÉĶ kÉĶnn
ĠnÉĶ tÉĽnz
ĠnÉĶ zagere
ĠnÉĶ ndeteroo
of f
of fee
ĠÅĭ ÉĽ
ĠÅĭ ÉĶ
ĠÅĭ aÅĭ
ĠÅĭ amb
ĠÅĭ kpÉĽ
Ġyel faa
Ġyel faare
Ġyel bit
Ġyel balee
Ġyel mpÉĶgeba
ind ividual
ĠÉĶ lÉĶ
ĠÉĶ nnÉĽÉĽ
ĠÉĶ rrÉª
Ġbom pÉĶge
Ġbom biiree
Ġbom bile
Ġbom pa
Ġbom bÉĽrÉĽÉĽ
ĠnaÅĭ gba
ĠnaÅĭ koÉĶre
Ġnaa raa
Ġnaa na
Ġnaa me
Ġnaa bile
Ġnaa koÉĶre
Ġnaa weÉĽ
Ġnaa sare
Ġnaa ÅĭmemÉĽ
ze m
ze mb
ze gere
ÃºÃº nÃ¬
ÃºÃº rÃ©Ã©
bÃŃ Åĭ
bÃŃ gÃŃ
lÃ© rÃ©
lÃ© girÃŃ
um n
Ġact ually
Ġact ivities
ĠpoÉĶ ÉĽÉĽ
ĠpoÉĶ lÉĽÉĽ
ĠpoÉĶ laa
ĠpoÉĶ lbÉĶ
ĉĉ ĉĉ
ast ed
ast ic
ast line
av arÉĽÉĽ
av araa
av arre
av ola
Ġfe ree
Ġfe erÉĽ
Ġfe ather
Ġfe ces
Ġfe ars
Ġfe ferÉĽ
sh all
sh owing
Ġsp in
Ġsp it
Ġsp end
Ġsp ell
Ġsp ark
Ġsp inal
Ġsp ending
Ġsp ray
ff alo
Ġun nee
Ġun ity
Ġun less
Ġun imo
Ġun aw
Ġun bal
Ġun ava
Ġun luck
ame le
de al
de erÉĽÉĽ
de bted
Åĭkp Ãł
Åĭkp Ã¡Ã¡
Åĭkp ÉªÉĽ
Åĭkp aarÉĽÉĽ
Åĭkp Ã¡Ãł
Åĭkp Ã´Åĭ
Åĭkp Ã©grÃŃ
kÃ¡ lÃŃ
kÃ¡ kÃ¡
kÃ¡ nnÉª
kÃ¡ kÃº
kÃ¡ grÉª
kÃ¡ ÅĭmÉĽ
kÃ¡ sÃ²
kÃ¡ yÉªÉĽ
Ġtaa ÉĽ
Ġtaa Åĭkp
Ġwe ÉĽÉĽ
Ġwe enÉĽ
Ġwe igh
Ġwe pt
Ġwe eds
Ġpe er
Ġpe ak
Ġpe mp
Ġpe eraa
Ġpe elÉĽ
Ġpe bilii
Ġpe mpere
Ġgaa la
Ġgaa nÉĽÉĽ
Ġgaa na
Ġgaa nema
Ġgaa bu
mÉĶ rÉĽÉĽ
mÉĶ lÉĶ
mÉĶ rÉĶ
yi yi
ook ing
ile kele
ye Åĭi
ye mpÉĶge
ĠW alk
ĠW ola
ĠW omen
ĠW elcome
Ġri de
Ġri pen
Ġri val
Ġri ses
ĠyÉĽ Åĭ
ĠyÉĽ le
ĠyÉĽ ng
ĠyÉĽ lÉĽÉĽ
ĠyÉĽ llÉĽ
ili zer
Ġup root
Ġbie re
uori bee
ib iri
ib ie
ĠmaÅĭ g
ĠmaÅĭ ken
ĠmaÅĭ gbÉĽÉĽ
gbÉĽ rÉĽÉĽ
gbÉĽ rÉĽ
gbÉĽ lÉª
gbÉĽ gbÉĽ
gbÉĽ bÃ¬
gbÉĽ nnÉª
gbÉĽ tÊĬ
gbÉĽ samp
gbÉĽ tÉĽre
gbÉĽ lÉĶlÉĶ
Ġzaa raa
Ġzaa la
Ġzaa mee
ĠrÉª kÊĬ
ĠrÉª mÃłÅĭ
ens ils
dz Ã©
dz ÉªÉª
dz ÃŃrÃŃ
dz ÃŃÃŃ
dz Ã©grÃŃ
Ġsaa ne
Ġsaa lÉĶ
Ġsaa nÉĽÉĽ
Ġsaa nema
Ġsaa mine
Ġsaa kaÅĭk
Ġsaa kom
Ġsaa puri
Ġsaa kÉĶnt
ĠĠĠĠ ĠĠĠĠĠ
est s
est ines
lÃ¬ ÉĽ
lÃ¬ Ã¨
lÃ¬ nv
lÃ¬ nnÃ¬
lÃ¬ mÃ¨
ĠnyÉĽ le
ĠnyÉĽ rÉĽÉĽ
ĠnyÉĽ nt
ĠnyÉĽ leba
ĠnyÉĽ lebÉĽ
ĠnyÉĽ nnoo
ĠnyÉĽ nnoÅĭ
ĠnyÉĽ lmaa
Ġno oraa
Ġno onaa
Ġno ona
Ġno vice
biri ky
biri biri
bie soba
ans aÅĭ
ans ÉĶglaa
ans iinee
bÃł lÃł
bÃł lÃ©Ã©
bÃł lÃłÃł
bÃł dÃ¡Ã¡
bÃł gbÉĽrÉª
bÃł lÉªÉª
bÃł mbÃºÅĭ
bÃ¬ n
bÃ¬ Åĭ
bÃ¬ Ã¬
bÃ¬ nÉĶ
bÃ¬ lÃ©
bÃ¬ dÉĶ
bÃ¬ pÉªÉĽ
bÃ¬ wÉªÉĽ
bÃ¬ gÃ¨
bÃ¬ bÃŃlÃ©
bÃ¬ yÃ¡Ã¡lÉª
bÃ¬ nzÃŃÃ©
bÃ¬ ngzÃŃÃ©
mo ge
mo orÉĽÉĽ
mo orÉĶ
mo vable
da ÉĽ
da bilee
da kpiri
da zug
da bÉĶl
iv ate
iv ely
iv Å©u
iv eness
iv arekpÉĽ
Ġbut ton
Ġcom b
Ġcom pare
Ġcom par
Ġcom mon
Ġcom petition
Ġta pe
ĠbÉĽ bÉĽ
ĠbÉĽ roÅĭ
ĠbÉĽ mpÉĽ
ĠbÉĽ rre
ĠbÉĽ nnaa
ĠbÉĽ ÅĭÉĽÉĽ
ĠbÉĽ mmo
ĠbÉĽ nzÉĶ
ĠbÉĽ ndaare
ĠbÉĽ nwÉĶ
Ġfl ouri
we b
we th
we ak
Ê§ Ãł
Ê§ ÊĬ
Ê§ Ã¬rÃ¬
Ê§ Ã¡rÃ¡
Ê§ Ã³Ã²
elaa Var
ip iri
ip ÉĶge
ip ut
ip eÉĽle
ip elaa
Ġpro p
Ġpro str
Ġpro verbs
Ġpro stitute
ĠgbÉĽ rÉĽ
ĠgbÉĽ bi
ĠgbÉĽ to
ĠgbÉĽ rebÉĽ
ĠgbÉĽ bie
ĠgbÉĽ nnÉĽÉĽ
ĠgbÉĽ rre
ĠgbÉĽ nnaa
ĠgbÉĽ gerebÉĽ
ĠgbÉĽ lbÉĽ
ĠgbÉĽ gerÉĽ
ĠgbÉĽ samp
ĠgbÉĽ tan
Ġbaa sak
ku nee
ku oro
ku oli
ku oluÅĭ
ku kur
Ġj a
Ġj ar
Ġj aw
Ġj ack
Ġj urisdiction
ĠdÉĶÉĶ rÉĶ
ĠdÉĶÉĶ naa
ĠdÉĶÉĶ rebÉĶ
Ġbu oro
Ġbu olo
Ġbu olibo
Ġbu yer
Ġbu mps
Ġbu ffalo
Ġpa cify
Ġshe pher
Ġzu ee
Ġzu gee
Ġzu zeerÉĽÉĽ
Ġzu zeere
Ġzu Åĭmane
Ġal la
Ġal oop
Ġal cholic
gÉĶ mÉĶ
gÉĶ nne
gÉĶ benÉĽ
gÉĶ ntÉĽre
Ġlo e
Ġlo ree
Ġlo be
Ġlo ver
Ġlo dge
Ġlo vers
Ġwaa ÉĽ
Ġwaa lÉĽÉĽ
Ġwaa naa
ise ge
ise gee
Ä© ÉĽ
Ġye lee
Ġye erÉĽÉĽ
Ġye elaa
Ġye elÉĽ
Ġye Åĭi
Ġye ars
Ġye mpÉĶgrÉĽÉĽ
Ġstr ang
mÃ¡ Éª
mÃ¡ kÊĬ
mÃ¡ nnÉª
mÃ¡ nÊ§
mÃ¡ bÃŃÃ©
Ġho onÉĶ
nz a
nz y
nz Éª
nz Ã¡
nz ÊĬ
nz Ãº
nz Ã¹
nz uuro
sÉª rÉĽ
sÉª lÉĽ
sÉª lÉª
sÉª pÉĶ
sÉª gÃł
sÉª llÉª
sÉª kÃ£
sÉª ntÃ¡Ã¡
nÃŃ ÅĭÃ¨
bil imine
dÉĶ ÉĽ
dÉĶ ndÉĶ
Ġover come
Ġover fl
Ġover tak
Ġover grown
Ġover whel
Ġover turn
gere d
bog era
Ġas k
Ġas semble
Ġgr assh
ud ing
lÃ¡Ã¡ nÉª
tÉĶ bÉĶ
tÉĶ nnÉĶ
do lee
do orÉĽÉĽ
do gele
do lebÉĶ
do ban
do doo
fe elÉĽÉĽ
nÃ¡Ã¡ bo
nÃ¡Ã¡ pÉĶ
nÃ¡Ã¡ kÊĬ
nÃ¡Ã¡ bÃ¬l
nÃ¡Ã¡ Ê§ÉªÉª
Ġfruit ful
Ġen naa
Ġen able
Ġen fu
Ġen vy
Ġpi iri
Ġpi pe
Ġpi lee
Ġpi Åĭg
Ġpi gee
Ġpi ilibe
Ġpi eribe
Ġpi Åĭee
Ġpi ilu
ĠdeÉĽ rÉĽÉĽ
ĠdeÉĽ nÉĽÉĽ
ĠdeÉĽ mÉĽ
ĠdeÉĽ naa
ron d
Ġleg rÉĽÉĽ
Ġleg iree
Ġleg iribe
Ġleg iraa
ĠF ire
ĠF uneral
Ġob st
Ġob scene
ach ing
bom pere
bom pÉĽge
bom pÉĽle
bom mannaa
che on
che st
sÉĽ rÉĽÉĽ
sÉĽ ma
sÉĽ Åĭe
sÉĽ ÅĭkpÉĽ
sÉĽ bÉĽlemÉĽ
sÉĽ ndÉĶÉĶ
sÉĽ nsÉĽÅĭ
ĠpÉĽ nn
ĠpÉĽ mÉĽ
ĠpÉĽ rebÉĽ
ĠpÉĽ nÉĽ
ĠpÉĽ pÉĽ
ĠpÉĽ Åĭe
ĠpÉĽ nnoo
ĠpÉĽ yag
Ġbl ank
Ġbl owing
Ġtoo kp
Ġtoo gee
Ġcl ass
Ġcl uck
Ġcl erk
ĠkpÉĽ lÉĽÉĽ
ĠkpÉĽ laa
ĠkpÉĽ lÉĽÅĭ
ĠkpÉĽ ÅĭkpÉĽ
Ġdog rÉĽÉĽ
Ġdog bÉĽÉĽ
Ġdog od
aÅĭk ora
ult ing
ult aneously
lÃ³ m
lÃ³ mÃ³
lÃ³ rÃ³tÃ³
pÉĶge yi
pÉĶge serekulo
pÉĶge gbeÉĽloo
yel kÃ£
yel kab
yel saana
yel maalaa
Ġher b
Ġher o
Ġher bs
Ġnim in
Ġnim iiree
Ġnim iruu
Ġnim itÉĶÉĶre
sÉĶ rÉĽÉĽ
sÉĶ rÉĶ
ĠmÉĶ w
ĠmÉĶ lÉĽÉĽ
ĠmÉĶ reba
ĠmÉĶ naa
ĠmÉĶ yÉĶ
ĠmÉĶ maara
ĠmÉĶ kangy
Ġco in
Ġco ag
Ġco co
Ġco ins
Ġco ars
Ġco con
Ġco ax
Ġco ccy
Ġco arse
Ġyi ene
Ġyi eluÅĭ
ĠtÉĶ rÉĽÉĽ
ĠtÉĶ raa
ĠtÉĶ lÉĶ
ĠtÉĶ reba
ĠtÉĶ nnÉĽÉĽ
amb ulo
amb ataabo
pen ne
pen nÉĽ
sÃł rÉª
sÃł lÃ¬
sÃł mÃł
sÃł lÃł
sÃł zÉĶ
sÃł zÃº
sÃł fÉª
sÃł kÃºÃºrÃŃ
sÃł bÉĽlÉª
ĠM k
ĠM an
ĠM eÅĭ
Ġqu iver
Ġqu eue
Ġqu arter
Ġtw elve
ĠnÉĽ m
ĠnÉĽ rÉĽÉĽ
ĠnÉĽ laa
ĠnÉĽ ÅĭÉĽÉĽ
ĠnÉĽ braa
Ġpot ulo
Ġpot tery
mÃł lÉª
mÃł gÉª
mÃł lÃł
mÃł nsÃ¹
mÃŃ lÃ©
ĠB o
ĠB ie
ĠB ille
ĠB ef
ĠB low
ĠB idÉĶÉĶ
Ġtu in
Ġtu ro
Ġtu ree
Ġsw im
Ġsw imm
oÅĭk oloÅĭ
ite ment
zu ing
zu koÉĶre
zu kpoli
Ġmi inaa
Ġmi rac
sa fo
sa bogi
sa bÉĽlemÉĽ
sa bÉĶle
sa bÉĶlÉĶ
sa kperÉĽ
sa warÉĽÉĽ
sa warema
zÉĽ lÉª
zÉĽ lÉĽÉĽ
zÉĽ mÉĽ
zÉĽ nzÉĽÅĭ
zÉĽ dambo
Ġpre fere
Ġpre fer
Ġpre natal
ark ing
ark ed
Ġinter ced
Ġinter mit
lÃł a
lÃł rÉª
lÃł ng
lÃł gÉª
lÃł rÃ¬
lÃł ÅĭÉª
lÃł mbÃ³
ÌĮ ]
gÃł rÉª
gÃł bÃł
gÃł rÃł
gÃł llÉª
gÃł ÅĭÃ¡
gÃł ndÃ¡Ã¡
gÃł ndzÃŃ
tÉĽ Åĭ
tÉĽ nÉª
tÉĽ bÃ¡Ã¡
tÉĽ rrÉª
any enÉĽÉĽ
use ge
use um
int oÉĶ
int rans
int estines
dÃ£ ab
ĠÉĽ nemÉĽ
ĠÉĽ nnÉĽ
aÅĭg aÅĭ
aÅĭg aara
baa e
baa laa
baa taÅĭaa
bÃ¡ lÉĶ
bÃ¡ gÉª
bÃ¡ kÊĬ
bÃ¡ lÃ¡Ã¡
bÃ¡ gÃ¹
bÃ¡ yÃłÃł
bÃ¡ ndzÉª
lle d
ĠsÉĽ lÉĽÉĽ
ĠsÉĽ nÉĽ
ĠsÉĽ Åĭkp
ĠsÉĽ nne
ĠsÉĽ Åĭe
ĠsÉĽ lebÉĽ
ĠsÉĽ llaa
ĠsÉĽ nw
Ġfoo lish
tÉª kÊĬ
tÉª rÊĬ
tÉª tÉª
tÉª sÊĬ
tÉª wÉĶ
tÉª Ê§ÉĽ
yÃ¨ ndÉĶ
yÃ¨ mpÉĶ
zÉĶ ba
zÉĶ mpÉĶ
ĠH ave
Ġr anging
Ġr inse
Ġr ugged
aÅĭkp alaÅĭ
di bogi
di iribee
daa nyu
pi Åĭ
pi Åĭi
pi inee
ÌĤ ]
ÌĤ Ìģ
Ġnu mb
Ġnu mber
Ġnu foori
ĠbÉĶ reba
ĠbÉĶ nne
ĠbÉĶ nnÉĽÉĽ
ĠbÉĶ mbÉĶ
ĠbÉĶ mpÉĶ
ĠbÉĶ llÉĶ
ĠbÉĶ nzÉĶ
ĠbÉĶ mbÉĶre
ĠpÉĶ rÉĽÉĽ
ĠpÉĶ raa
ĠpÉĶ reba
ĠpÉĶ nne
ĠpÉĶ lle
ĠpÉĶ llÉĽÉĽ
ĠpÉĶ nnÉĶ
ĠpÉĶ les
ĠpÉĶ llÉĶ
ĠpÉĶ nteÉĽ
Ġobject ive
Ġpare p
Ġpare bogi
Ġday eni
Ġplant ing
ust ion
ust ration
ust rious
lÃ¡ Éª
lÃ¡ gÉª
Ġku bo
Ġku ku
Ġku kuri
Ġku olaa
Ġku kur
Ġku olbo
Ġky a
Ġky uu
Ġky oÉĶre
Ġdon ÉĶ
Ġdon nÉĶ
Ġdon saa
igi ous
dÉĽ gÉª
dÉĽ Åĭe
dÉĽ llÉª
saa bo
saa lÉĽÉĽ
saa lieni
Ġtra de
Ġtra der
Ġtra mple
ĠgÉĶ nd
ĠgÉĶ rÉĽÉĽ
ĠgÉĶ rÉĶ
ĠgÉĶ mÉĶ
ĠgÉĶ lle
ĠgÉĶ nema
ĠgÉĶ llÉĽÉĽ
ĠgÉĶ nnaa
ĠgÉĶ lebÉĶ
ĠgÉĶ llÉĶ
ĠgÉĶ nemÉĶ
ĠgÉĶ ntÉĽ
ĠgÉĶ benÉĽ
ĠgÉĶ ntÉĽrÉĽÉĽ
Ġgbe Åĭgbe
Ġcar ved
Ġcar ving
ĠDag ara
kÃ² l
kÃ² rÃ¬
kÃ² lÃ³
kÃ² rÃ³
kÃ² tÊĬ
kÃ² lÃ²
kÃ² tÃºÃ³
maa nÉĽÉĽ
maa noo
yÉĶ l
yÉĶ rÉĽÉĽ
yÉĶ mÉĶ
Ġsc orn
Ġsc iss
Ġsc rub
ĠlÉĶ nnÉĽÉĽ
ĠlÉĶ lÉĶre
Ġgbo reba
Ġgbo leba
Ġgbo Åĭgb
Ġgbo ribo
Ġgbo llaa
Ġgbo llÉĶ
Ġgbo Åĭee
bu oli
bu roÅĭ
bu ys
bu mbunt
kÃ³ lÃŃ
kÃ³ kÃ³
kÃ³ rÃ³
kÃ³ grÃ¬
kÃ³ ÅĭkÃ³
kÃ³ rÃ³Ã³
kÃ³ mmÃŃrÃºÃº
tÃ¡ kÉĶ
tÃ¡ Åĭg
tÃ¡ tÃł
tÃ¡ mÃ³
tÃ¡ nlÃ³rÃŃ
tÃ¡ mbÃ¡lÃ¡Ã¡rÃ¡Ã¡
Ġpu olo
Ġpu gee
kpÉĽ zie
kpÉĽ wáº½ÉĽ
Ġhead ache
Ġmedic i
Ġmedic ation
wa zÉªÉĽ
Ġbig iri
Ġbig ire
Ġbig aale
Ġbig iribe
Ġbig ileÅĭ
Ġkpe ge
Ġkpe erÉĽ
Ġkpe eraa
Ġkpe Åĭkp
Ġkpe elÉĽÉĽ
Ġkpe rem
Ġkpe gerebÉĽ
Ġkpe gerÉĽ
der oo
tÃł g
tÃł mp
tÃł nnÉª
tÃł lÃ¡nÉª
zÃº kÉĶ
zÃº nnÉª
zÃº sÊĬ
Ġpie re
ka i
ka o
nÃł sÃł
op ed
pÉª lÉª
pÉª rÃ¡Ã¡
pÉª rÃłÃł
pÉª glÉª
pÉª lÃ©Ã¨
Ġcan ary
Ġbare kanneÉĽ
Ġexp edition
gÃ¡ ÊĬ
gÃ¡ nÃ¡Ã¡
gÃ¡ lÉªmÃ¡
gÃ¡ mmÃŃ
kÃł l
kÃł gÉª
kÃł rÃ¡Ãł
kÃł mÃł
kÃł rÃł
kÃł nÃłÃł
kÃł rÃłÃ¡
kÃł ndÃł
kÃł nÉªÉĽ
kÃł ÅĭkÃł
ĠG oÉĶ
ĠG et
ĠG yo
ĠG beÉĽ
ĠG beÉĽdom
Ġbur on
Ġbur den
Åĭgb Ãł
Åĭgb Ã´Åĭ
Åĭgb ule
Ġap a
ĠdÉĶ ÉĽ
ĠdÉĶ rÉĽÉĽ
ĠdÉĶ rÉĶ
ĠdÉĶ nnÉĶ
ĠdÉĶ lebÉĶ
ĠdÉĶ llÉĶ
ĠdÉĶ nemÉĶ
ĠdÉĶ kele
ĠdÉĶ zunni
ĠdÉĶ ndÉĶÅĭ
Ġdis p
Ġdis bel
Ġdis ability
Ġdis sol
Ġdis order
Ġdis locate
Ġgu ro
Ġgu oro
Ġgu olaa
Ġgu itar
Ġgu ests
ĠzÉĽ lle
ĠzÉĽ nnÉĽ
ĠzÉĽ llaa
ĠzÉĽ ÅĭÉĽÉĽ
ĠzÉĽ dam
ĠzÉĽ ÅĭenÉĽ
Ġdu ng
Ġdu og
Ġdu mp
Ġclo thing
ven veÅĭ
wÉĽ lÉª
wÉĽ nwÉĽ
Ġim age
Ġim port
Ġim pri
Ġim movable
Ġsl ing
Ġsl ide
Ġsl ice
Ġsl iced
Ġpow olaa
Ġoff sp
Ġoff ered
bÃ² rÃ¬
kÃº nÃŃ
kÃº lÃ³
kÃº rÃ³
kÃº rÃ©Ã©
kÃº sÃŃ
nÃ¡ ng
nÃ¡ gÉª
pare biri
pare baaraa
Ġab st
Ġab use
Ġab rup
Ġab normally
Ġab reast
Ġfarm land
ĠmÉĽ lÉĽ
ĠmÉĽ lÉĽntÉĽ
ĠmÉĽ mÉĽrÉĽ
ĠmÉĽ meÉĽrebÉĽ
anky ere
Ġeat s
Ġmale fa
ĠkoÅĭ i
ĠkoÅĭ ee
ĠTh ank
biiri kpoÅĭi
tu ree
tu mpaane
Ġlu oro
Ġlu gee
yÃ¨l tÉĶ
yÃ¨l fÃł
yÃ¨l kÃ£
yÃ¨l wÃ²
yÃ¨l mÃłÃł
sÃ¡ n
sÃ¡ lÉª
sÃ¡ nÉª
sÃ¡ wÉĶ
sÃ¡ mbÃ¡
sÃ¡ nsÃ¡
ont ro
ont ulo
ont inue
ĠdÉĽ mÉĽ
ĠdÉĽ nnÉĽÉĽ
ĠdÉĽ lle
ĠdÉĽ llÉĽÉĽ
ĠdÉĽ nnaa
nu foori
nu fÃµÉĶo
Ġbro ke
Ġbro od
ĠgyÉĽ n
ĠgyÉĽ rÉĽÉĽ
ĠgyÉĽ ng
ĠgyÉĽ raa
ĠgyÉĽ lÉĽÉĽ
ĠgyÉĽ rebÉĽ
ĠgyÉĽ nne
ĠgyÉĽ lebÉĽ
ĠgyÉĽ ÅĭenÉĽ
ĠgyÉĽ rbÉĽ
Ġhim self
Ġbag s
Ġbag aÅĭ
Ġbag erÉĽÉĽ
Ġbag anne
Ġbag anÉĽÉĽ
bile mbile
Ġseed less
mine kaÅĭa
wÉĶ ne
wÉĶ mÉĶ
wÉĶ Åĭkam
Ġ1 4
Ġ1 6
Ġ1 8
Ġgba ÉĽ
Ġgba re
Ġgba Åĭ
Ġgba mb
Ġgba Åĭg
Ġgba Åĭe
Ġgba leba
Ġgba gra
bb ing
bb orn
co al
Ġdaa Åĭ
Ġdaa nÉĽÉĽ
Ġdaa daa
Ġlight weight
Ġlight sk
Ġlight ening
ĠwÉĽ l
ĠwÉĽ rÉĽÉĽ
ĠwÉĽ lÉĽ
ĠwÉĽ lebÉĽ
ĠwÉĽ doÅĭÉĶ
ĠwÉĽ nwÉĽ
ĠwÉĽ nyuo
omp oÉĶ
omp romising
Ġform ed
dÃ¬ e
dÃ¬ rÃ¡Ãł
ĠY oo
ĠY iri
ĠY eli
ĠY eÅĭ
Ġra m
Ġra ke
Ġra zor
ren ch
Ġmu Åĭk
Ġany how
Ġres ound
Ġres erved
Ġexpress ing
den i
kol kol
kol noÉĶ
kol kola
sm an
sm ile
Ġcle aring
Ġcle ared
nim ib
ĠC ome
ĠC ast
Ġmat s
Ġmat ters
fo one
fo lee
fo orÉĽÉĽ
mÃ¡Ã¡ ne
ph ys
the m
the ms
ĠL ast
ĠL ess
Ġdry ing
Ġlit ter
now ing
zi gee
ĠE i
ĠE at
ĠE ye
ĠE very
Ġsk ill
Ġsk ip
Ġsur ve
Ġsur vive
ĠdÃ£ ak
ĠdÃ£ ap
ĠdÃ£ aÅĭm
ĠdÃ£ apÉĶge
ĠdÃ£ agye
Ġbond arÉĽÉĽ
Ġbond aana
Ġbond ÉĶgere
Ġbond irree
gÃ³ Ã³
ps y
Ġsak ue
Ġsak uubiiri
Ġfa ÉĽ
Ġfa int
Ġfa ced
omm aane
ĠzÉĶ le
ĠzÉĶ la
ĠzÉĶ bÉĶ
ĠzÉĶ lÉĽÉĽ
ĠzÉĶ nnÉĽÉĽ
ĠzÉĶ nnÉĶ
ĠzÉĶ nemÉĶ
ĠzÉĶ meÅĭÉĽ
tere bÉĽ
tere bÉĽÉĽ
tere tere
ĠtÉĽ m
Ġdid n
Ġzo reba
Ġzo gereba
Ġzo gelÉĶ
Ġkare kara
ĠÅĭmaa Åĭa
nÃŃmÃŃ fÃ¡Ã¡
pÃŃ Åĭ
pÃŃ rÃŃ
pÃŃ lÃ©
pÃŃ gÃŃ
pÃŃ nnÃ¬
pÃŃ gÃ©
pÃŃ ÃŃrÃ¡Ã¡
Ġunder neath
Ġtak oroo
Ġtak ÉĶraa
Ġbel t
Ġbel ow
Ġbel oved
ĠsÉĶ raa
ĠsÉĶ bilii
ĠsÉĶ rsÉĶ
Ġdown pour
Ġfall a
gbo li
gbo lli
Ġsou ght
Ġsou thern
Ġbab unni
Ġbab innee
Ġheav ed
Ġheav ily
Ġsuff icient
Ġsee m
Ġcat fish
Ġthick et
ĠÅĭmÉĽ nemÉĽ
ĠÅĭmÉĽ nnÉĽ
Ġbons aale
Ġbons uuraa
Ġbons ÉĽgere
Ġbons ÉĽgeraa
ÉĽgÉĽ kÉĽ
Da kp
Da kpaa
Da kpÉĶge
lÃ² Ã³
lÃ² gÃŃ
lÃ² gÃ¬
nv a
nv ÉªrÉª
nv ÉĶlÉĶ
zo gere
zo gela
zeÉĽ nag
Ġed ucation
Ġam ma
ĠboÅĭ yuo
ĠboÅĭ guolo
Ġpat ched
Ġgreat est
ÃŃrÃ¬ Åĭ
ĠeÅĭ ene
Ġfemale s
gyÉĽ re
gyÉĽ ng
gyÉĽ nee
gyÉĽ nnÉĽ
gyÉĽ ngy
Ġmaa laa
bee le
ha zie
kÉĶÉĶ le
kÉĶÉĶ lare
kÉĶÉĶ kyap
par ate
tÃ² bÃ³
tÃ² rÃŃkÃ²
zÃł ge
zÃł mm
zÃł nnÉª
zÃł nnÊĬ
zÃł mbÃł
zÃ¬ ÉĽ
zÃ¬ Ã¬
zÃ¬ rÃŃ
Ġu ree
Ġu raa
Ġru ff
Ġru de
Ġru ins
Ġtam ÉĽÉĽ
Ġtam are
Ġtam mo
Ġtam any
Ġtam ena
Ġtam ogilee
Ġtam anyini
Ġlog ro
Ġlog ra
Ġlog raa
Ġlog era
Ġlog ribo
Ġlog itogo
Ġfi gee
Ġfi anc
Ġfi elbe
Ġfuneral s
Ġcow boy
Ġins pect
Ġset ete
bÉª lÃ¡Ã¡
bÉª bÉª
fÉª nnÉª
fÉª fÉª
gba Åĭk
gba Åĭkeroo
ient s
ten ee
Ġ3 3
Ġblack en
Ġper ch
Ġper ish
Ġper ched
Ġper man
Ġper mit
Ġper miss
Ġper haps
Ġdie b
Ġdie e
Ġdie le
Ġdes ign
Ġdes erted
Ġdes cribe
baÅĭ enema
kpÃ³ n
kpÃ³ lÃ³
kpÃ³ ÅĭkpÃ³
kpÃ³ glÃ²
Ġproper ly
eÅĭ a
wo ven
Ġfu oraa
Ġfu olo
Ġfu gee
Ġfu olibo
ena il
Ġcorn cob
ĠkÉĶkÉĶ m
ĠkÉĶkÉĶ re
ĠkÉĶkÉĶ rÉĽÉĽ
ĠkÉĶkÉĶ vÉĶ
ĠkÉĶkÉĶ lÉĶÅĭg
bogi kant
fa bo
fÃ¡Ã¡ rÃ¡
gÃ² rÃłÃł
mi x
mi iruÅĭ
nat o
Ġsound s
kpe ree
kpe eraa
kpe Åĭkp
kpe eloÅĭ
Ġza Ã£
Ġza bage
Ġbeg ÉĽÉĽ
Ġbeg an
Ġbeg eraa
Åĭmaa bo
Åĭmaa das
Åĭmaa kyeraa
Ġstra p
Ġstra yed
ÉĽgere bÉĽÉĽ
Th is
Th ank
Th ieves
Th ursday
bÃº rÃ³Åĭ
bÃ¡Ã¡ Éª
bÃ¡Ã¡ lÉª
bÃ¡Ã¡ bÊĬ
bÃ¡Ã¡ lÊĬ
mÃ© rÃ¬
mÃ© lÃŃmÃ©
sÃ£ adÉĶÉĶ
vÉĽ le
vÉĽ rÉª
vÉĽ rÉĽÉĽ
vÉĽ mm
vÉĽ vÉĽ
vÉĽ nlÉĽ
Ġkol ÉĶ
Ġkol la
Ġkol lÉĽÉĽ
Ġkol kolÉĶ
Ġkol imas
Ġkol tare
Ġdri p
Ġdri ll
Ġdri zzled
Ġgrow l
Ġcare taker
Ġcare free
bad al
kpÃł nÉª
kpÃł ÅĭÉª
Ġred irect
Ġred dish
bÃ¹ l
bÃ¹ Ã¹lÃ¬
dÃ¡Ã¡ rÃ¡
nÃº gÉĶ
sp irit
sp onge
sÃłÃł dÊĬ
sÃłÃł lÃła
ĠbÉĶge s
ĠbÉĶge lÉĶ
ĠbÉĶge Åĭmamp
ĠbÉĶge taÅĭkp
ĠbÉĶge bogere
ĠtoÉĶ lÉĽÉĽ
ĠtoÉĶ lÉĶ
ĠtoÉĶ reba
ĠtoÉĶ naa
ĠtoÉĶ nema
ĠyÉĶÉĶ lee
ĠyÉĶÉĶ rÉĶ
ĠyÉĶÉĶ puulee
that ched
Ġkpaa ÉĽ
Ġkpaa serÉĽ
Ġext ent
Ġext end
Ġbomp uuri
Ġbomp orre
Ġalong side
Ġskin ny
gr ÃłÃ¡
gr Ã²Åĭ
pri ce
pri ate
sÃº sÃº
sÃº nnÃŃ
sÃº nsÃº
sÃº Ê§ÃŃrÃŃ
tÃ³ gÃ³
tÃ³ Ã³rÃŃ
ĠZ e
Ġdag ara
Ġdag bol
Ġmen nÉĽÉĽ
Ġmen naa
Ġche ss
Ġseason ed
Ġbomb ÉĶge
Ġbomb aare
Ġbomb ullee
for oÅĭ
for ward
nÊ§ ÉªÉĽ
sc ent
sÃ¡Ã¡ bo
sÃ¡Ã¡ lÊĬ
sÃ¡Ã¡ lÃ¡Ã¡
ĠbaÅĭ Åĭm
ĠbaÅĭ ene
Ġbiri yori
Ġbiri bire
Ġbiri yonaa
Ġbiri yokpe
ĠsoÉĶ ÉĽ
ĠsoÉĶ ne
Ġsig re
Ġsig ire
Ġsig ile
Ġsig iribe
Ġsig ribe
Ġsig nal
ĠkaÅĭk aÅĭaa
ĠkaÅĭk ankye
Ġpol la
Ġpol ish
Ġpol isi
Ġpol isiri
Ġvo ÉĽ
Ġvo ky
Ġvo oraa
Ġvo orÉĽÉĽ
Ġvo onÉĶ
ĠTe xt
Ġshar ply
fÃł bÊĬ
mÃ³ ÃŃ
mÃ³ rÃ³
Ġbug it
Ġbug il
Ġbug im
Ġbug raa
Ġbug ag
Ġbug ribo
Ġbug ilo
ĠkÉĶÉĶ raa
ĠkÉĶÉĶ reba
ĠkÉĶÉĶ to
ĠkÉĶÉĶ kyap
Ġdist rict
Ġdist inguish
Ġwo orÉĽÉĽ
Ġmar sh
Ġhu mp
Ġhu mble
Ġyu onee
ĠnyÉĶ rÉĶ
ĠnyÉĶ vore
Ġsweet s
fÉĽ rÉª
fÉĽ gÉª
fÉĽ lefÉĽ
kuri gbÉĽÉĽ
Ġiri bu
Ġfowl s
Ġhold er
Ġhold ing
kpaa moÉĶ
kpaa kyinni
ĠleÉĽ raa
ĠleÉĽ mÉĽ
ĠleÉĽ mÉĽÉĽ
Ġsub tra
Ġsub due
pro val
pro duce
pro portion
pÃ¬ Ã¬rÃŃ
vo orÉĽÉĽ
vo onÉĶ
vo oroÅĭ
zaa kÉĶÉĶ
zÉª nÉĽ
zÉª grÉª
ĠV Å©Å©
Ġent ering
Ġent rance
Ġag ÉĽÉĽ
Ġag ree
Ġag raa
Ġag ama
ĠboÅĭk aareba
ĠboÅĭk aÅĭa
ĠboÅĭk oÉĶrÉĽÉĽ
ĠboÅĭk aarebÉĽÉĽ
ĠboÅĭk orabin
Ġsal iva
Ġsal inso
Ġgbi re
Ġgbi ree
Ġgbi ene
Ġgbi eli
Ġgbi Åĭee
Ġgbi enime
Ġmis sed
ĠyÉĶ l
ĠyÉĶ ÉĽ
ĠyÉĶ raa
ĠyÉĶ reba
Ġlag era
Ġeye brow
Ġzie Åĭ
Ġzie zaa
Ġbee mÉĽ
Ġbee hive
ÅĭmÉĽ gÉª
ÅĭmÉĽ mm
ÅĭmÉĽ mÉĽÉĽ
ÅĭmÉĽ ÅĭgÉĽ
Ġnew s
Ġcont ra
Ġcont ents
Ġcont ract
Ġcont ributed
á¹¹ á¹¹
kyÉĽ nf
mÉª lÃ¡Ã¡
mÉª nnÉª
pÃł rÃł
Ġkuri daare
Ġkuri kuribo
Ġkuri kuro
Ġpig raa
Ġpig ire
Ġpig let
Ġpass ed
oud s
kpÉª nnÉª
Ġbeaut y
Ġnyu weÉĽlÉĽ
gbÃ² lÃŃ
gbÃ² gbÃ²
gbÃ² rÃ²
Ġdab ÉĶgÉĶ
aw ola
ber ry
ber roÅĭ
band apole
si x
sÃ¹ sÃ¹
sÃ¹ lÃ¨Ã¨
sÃ¹ Ê§Ã¬rÃ¬
vÉĶ laa
Ġti iri
Ġti gee
Ġng mÉĽ
Ġsen l
Ġsen y
Ġsen naa
ĠseÉĽ baa
onno onaa
Ġkaa bo
Ġkaa pÉĶge
Ġpri ck
Ġpri son
Ġdak yÉĽ
Ġdak ÉĶbÉĶ
iti iruÅĭ
kpÃ¡ Åĭkp
Ã¬Ã¬ nÃ¬
imm u
Ġconf ession
Ġconf ining
Ġconf idence
Ġatt ended
Ġjo in
nf Ã¡
nf Ãº
nf Ã²
nf ÉªÉĽ
nf Ã¡Ãł
nf Ã¡nÉª
zÃ¹ lÃ¬
zÃ¹ grÃŃ
zÃ¹ lÃº
Ġang rily
Ġsing le
Ġsing ing
Ġsing ers
lemÉĽ le
Ġwant s
Ġfin ne
Ġmon na
Ġmet eorite
É²Éª gÉª
É²Éª rÃłÃł
bÃłÃł lÃ¡
yaa naa
Ġbogi wÉĽ
Ġbogi kant
Ġsog a
Ġkind ness
Ġdra ught
Ġdark en
Ġland owner
Ġway lay
Ġyage la
Ġyage lÉĽÉĽ
Ġyage laa
Ġyage kÉĶbÉĶ
Ġyage kÉĶÉĶre
Ġuse ful
Ġhair style
Ġimm inent
bÃ³ lÃŃ
bÃ³ nsÃ³
man akei
pÃ¡ rÃ¡
Ġtri be
Ġtri but
Ġnar r
Ġbow ed
Ġbow string
Ġsug raa
Ġsug lo
Ġsug ili
Ġsug araa
Ġsug ribo
Ġloo sely
Ġgra b
Ġgra pevine
aÅĭm ane
Ġinst inct
nyu zÉĽle
nyu weÉĽle
clo se
dak ogi
dak ye
dak ÉĶÉĶrÉĽÉĽ
dak ÉĶbÉĶ
fÉĶ nnÉĶ
fÉĶ nemÉĶ
kon di
kÃ© Åĭk
nyÉĽ rÉĽ
nyÉĽ lle
pÃ² Åĭ
pÃ² rÃ¬
ware mÉĽÉĽ
zage reba
ĠneÉĽ r
ĠneÉĽ Åĭ
Ġnanny igiri
Ġsol lee
Ġsol laa
ÅĭÉª nÉĶ
Ġdáº½ÉĽ mÉĽkon
Ġfam iliar
ĠgÉª lÉª
Ġcra mp
Ġcra dle
Ġcra fty
Ġhit s
Ġinc omparable
Ġret urns
Ġsale m
Ġsale mp
Ġsale Åĭg
pÉĽmpÉĽ lÉĽÉĽ
pÉĽmpÉĽ lle
pÉĽmpÉĽ llÉĽÉĽ
bomp aala
bomp uuraa
Ġfoot wear
Ġfoot pr
Ng mÃ¡
dÃ¡ bÊĬ
dÃ¡ nsÉªÉĽ
dÃ¡ bÉªgÉª
dom bÉĽrrÉĽÉĽ
dom esticated
dÉĶÉĶ bile
fu oni
kare ma
kare kye
vÃ¡ kÃºÃ³ÅĭÃ¡Ã¡
wÃł rÃł
yÃŃ dÃłÃł
ĠU n
ĠU lo
ĠU WR
Ġi raa
Ġband a
Ġband apole
Ġspo ken
Ġdanky in
arn ated
ĠfÉĶ rÉĶ
ĠfÉĶ nnÉĽÉĽ
ĠfÉĶ nnÉĶ
ĠfÉĶ lebÉĶ
ĠfÉĶ llÉĶ
ĠfÉĶ nemÉĶ
ĠfÉĶ rbÉĶ
ĠgaÅĭ ÉĽÉĽ
ĠmoÉĶ nÉĶ
ĠmoÉĶ nema
Ġhap ra
Ġhap reba
Ġhap py
ÅĭmÉª gÉª
bons aana
dÃ² pÉĶ
dÃ² gÃ¬
kan eÉĽ
kÃ¹ Ã¹rÃ¬
kaÅĭk ama
pie ce
pie to
pot uo
saal ommaane
sens ÉĽroo
tÃ¡Ã¡ bÊĬ
va e
vÉª nvÉª
yÃ© Ã©
Ġel bow
Ġel astic
Ġel oped
Ġuu ni
Ġuu nee
Ġuu imo
Ġuu nimo
ĠteÉĽ naa
Ġtáº½e koÉĶ
ĠnÉĶÉĶ g
ĠnÉĶÉĶ ky
ĠnÉĶÉĶ teroo
ĠnÉĶÉĶ teerÉĽÉĽ
ĠnÉĶÉĶ saÅĭkp
ĠnÉĶÉĶ tem
ĠnÉĶÉĶ feele
Ġburi buribo
Ġtom ino
Ġpeg re
Ġpeg raa
Ġpeg rÉĽ
Ġpeg lÉĽ
Ġpeg lÉĽÉĽ
Ġmid air
Ġmid night
Ġmid section
ÃłrÉª mÃ¡
Ġyiri Åĭ
ĠzÉĶÉĶ nÉĶ
ĠzÉĶÉĶ zÉĶÉĶreba
Ġstop ping
Ġrest ing
Ġrest lessness
Ġhel met
Ġbile ÉĽ
bÃŃÃ© rÃŃ
dzÉª rÉĽ
dzÉª mÉĽ
dzÉª nnÉª
dzÉª fÃł
Ġloc ated
Ġappe ared
Ġclean er
Ġclean se
bin uu
tÃ¹ Åĭ
tÃ¹ mÃ³
tÃ¹ llÃ¬
wiri goÉĶ
wiri kogi
ĠÉĶÉĶ rÉĶ
Ġbal d
Ġbal am
Ġbal antamm
Ġbal antere
Ġkan eÉĽ
Ġpush ing
Ġdend ennee
Ġdend enni
ari an
Ġwu oli
Ġwu olo
Ġwiri zÉĶÉĶ
Ġgl ue
Ġgl ory
Ġgre ater
Ġmil ky
Ġmus cular
ĠvÉĽ ng
ĠvÉĽ raa
ĠvÉĽ rebÉĽ
ĠvÉĽ nÉĽ
ĠvÉĽ Åĭe
ĠvÉĽ llÉĽ
Ġhar ass
bab y
boÅĭ o
boÅĭ Åĭmare
boÅĭk aa
boÅĭk oÉĶraa
Ġnyo oraa
Ġnyo bog
Ġstri de
kÉĶkÉĶ re
Ġrel ies
Ġrel ieved
Ġrel igious
Ġgyeg iree
Ġgyeg eraa
Ġgyeg iraa
Ġexc ess
Ġexc itement
10 0
Sa fe
dab il
dab illee
dÃ£a f
dÃ£a bele
gbe le
gbe Åĭgb
gbe Åĭgbe
gbe gili
noÉĶ nÉĶ
pÃº rÃ²
pÃº lÃ³Åĭ
pÃº rÃŃmÃ³
Ġtro op
Ġair s
ĠboÉĶ bo
ĠboÉĶ naa
ĠboÉĶ leba
ĠboÉĶ nema
Ġsel gy
Ġsel lebÉĽ
Ġsel dom
Ġslee ve
Ġslee ping
Ġslee py
Ġslee plessness
Ġsage la
Ġsage reba
ĠvÅ© ud
room s
Ġhat red
Ġnyere saare
Ġnyere gaÅĭg
mpÉª lÃłÃ¡
Ġbonf aarÉĽÉĽ
É²Ã¡Åĭ ÃłÃ¡
Ġunt amed
Ġriver b
Ġright eousness
Ġslim ly
Ġsubst itute
Fo ong
Pl ural
To day
poÉĶ naa
poÉĶ roÅĭ
run ken
too gyÉĽle
vaa bo
vare ma
Ġnens en
Ġbul b
Ġbul let
Ġbul inim
Ġsim ie
Ġsim ultaneously
Ġsun set
Ġsens oga
Ġsens ogerÉĽÉĽ
Ġplu mage
Ġhigh ly
ĠkpaÅĭkp ama
ĠkpaÅĭkp azeg
Ġste w
Ġste er
Ġste ps
Ġste adfast
Ġstu bborn
nnÃŃ mÃŃrÃ¬
Ġnemb aalba
É²Ã¡ rÃ¡Ã¡
É²Ã¡ gÉªrÉª
bont ara
bont ÉĶre
Ġstrugg led
No vember
but t
but tocks
dáº½ÉĽ mpÉĶge
dáº½ÉĽ kak
fÃº rÃŃ
gÃ¨ rÃ¨
good s
sÃ³ rÃ¬
tra pped
Ġter ri
Ġter ree
Ġter ms
Ġturn ing
Ġturn ed
Ġbat he
Ġbat uo
Ġbark ing
Ġdas ÉĽrÉĽÉĽ
ĠdaÅĭ ÉĽÉĽ
Ġwal an
ĠwoÉĶ la
Ġmee lebÉĽ
Ġve in
Ġve ene
Ġve enÉĽ
Ġve enÉĽÉĽ
Ġzage z
Ġnye mb
Ġnye mpÉĽge
Ġrough ly
ĠpÉĶges eere
daw adawa
bomb aaraa
bomb alaa
bÉĶge maale
doÅĭ e
gra ve
gra ph
kale Åĭk
kale nyaa
lÃº rÃ¬
lÃº rÃ³
lÃº girÃŃ
tÃ¬ Ã¬rÃ¬
val inv
val uable
wÃ¡ lÉª
wÃ³ g
wÃ³ gÃ¬
yÃ¡ gÃł
yÃ¡ grÉª
Ġtig re
Ġtig ernut
Ġtend on
Ġtend aana
Ġbamb unnee
Ġswe ating
Ġpar rot
Ġpar boil
Ġpar liament
Ġpad aare
Ġpad dle
Ġpad lock
Ġdig ging
ĠweÉĽ lbÉĽ
Ġfel t
Ġfel led
Ġmourn ers
Ġcap ital
Ġyie re
Ġyie me
set tle
ĠneÅĭk aareba
ĠneÅĭk aarebÉĽÉĽ
Ã¹Ã¹ rÃŃ
ntÉĽ rÉª
ĠkÉĶns ol
Ġmeas les
kore kore
Ġcomp any
Ġcomp ulsory
Ġju ice
Ġju icy
Ġblood shot
Ġnimi yuo
Ġnimi kuoÅĭaa
Ġstraight en
Ġstraight forward
De cember
dag uo
nÉ² Ã¬rÃ¬
ole ntly
yÃºÃ³ rÃŃ
ĠeÉĽ mÉĽÉĽ
ĠeÉĽ noo
Ġill ustration
Ġtont ona
Ġnen f
Ġnen laare
Ġaw arÉĽÉĽ
Ġaw ola
Ġaw ommu
Ġban zÉĶ
Ġkog iree
Ġlaa mÉĽÉĽ
Ġlaa tere
Ġwol ba
Ġwol laa
Ġow ed
ĠgÉĽ rebÉĽ
Ġgol lee
Ġgol lÉĶ
Ġgol laa
Ġgol lo
Ġgol igolo
Ġmay be
ĠvÉĶ lÉĽÉĽ
ĠvÉĶ lebÉĶ
Ġcount ed
Ġzanz aÅĭ
Ġzanz ans
Ġzanz annÉĽÉĽ
Ġzanz anne
str ange
str uggle
nye mb
nye mÉĽ
nye mÉĽÉĽ
nye gere
Ġheart beat
Ġboil s
Ġboil ing
ĠkÉĶntÉĶ nn
ĠkÉĶntÉĶ nky
ĠkÉĶntÉĶ mbile
Ġdec ant
Ġeng aging
Ġsupernat urally
Ġmarriage able
Ġharvest ing
Ġharvest ed
dÃºÃ³ rÃ¬
dÃºÃ³ rÃºÅĭ
hÃ¡ rÃ¡
mÃ¬ Ã¬rÃ¬
mÃ¬ llÃ¬
mÃ¬ lÃ²Ã²
mak oma
maale Åĭ
maale kondi
pÃ¹ lÃ³
pÃ¹ Ã¹rÃ¬
sing ing
sing ular
tÃ© rÃ©Ã©
waa bo
Ã¢ aa
Ã¢ ntÃº
ĠÃ¡ nÃ¡Ã¡rÉª
Ġlee rebÉĽ
Ġbol t
Ġbol la
Ġbol aara
Ġbol aarÉĽÉĽ
Ġbol aareba
leg an
leg iri
leg rÉĽÉĽ
Ġpel pelÉĽ
Ġpus s
Ġdan egÉĽ
Ġdom bÉĽrÉĽÉĽ
Ġdom bÉĽrÉĽ
Ġdest ruct
Ġdaky eÉĽrÉĽ
Ġdaky eÉĽre
Ġwof eÉĽne
Ġwof eÉĽnÉĽÉĽ
Ġwind y
Ġwind ing
ĠgÉĶÉĶ e
ĠgÉĶÉĶ ro
ĠgÉĶÉĶ rÉĶ
Ġcr ashed
Ġcol t
Ġcol umn
Ġlamp are
Ġlamp ond
bare kanneÉĽ
bage lakala
Ġinsect s
Ġnyog ÉĽÉĽ
Ġnyog raa
Ġnyog lÉĶ
Ġnyog reba
oto kpolo
seed less
nyi elibe
nyi elaaVar
Åĭkaa noo
ĠÅĭme ÉĽÉĽ
ĠÅĭme gere
ĠÅĭme enÉĽ
ĠÅĭmo onaa
ĠkÉĶnd ug
ĠkÉĶnd aarÉĽÉĽ
bond aaraa
bond aana
Ġasib itiri
Ġclimb ed
Ġlump y
gbori kuÅĭk
Ġbehav ed
Ġbehav es
kam as
min ated
paa sepÉĶÉĶ
sÉĶre sÉĶrÉĶ
wÉĶÉĶ gbÉĽre
yÃ¡Ã¡ nÉª
yÃ² pÉĶ
yÃ² gÃ¬
yage laa
Ġxyloph ones
Ġtun aa
Ġtip toe
ret ched
Ġbog is
Ġbog erÉĶ
Ġsy m
ĠsÉĽre dir
Ġpal pit
Ġdro ps
Ġdam ag
Ġdress ed
ĠgÉĶÅĭ gb
Ġvi iribe
Ġvi olently
bag up
bag ane
bag annÉĽÉĽ
kpere kpere
Ġind ustrious
ution er
bele Åĭ
Ġneg ire
Ġrec ount
Ġorder ly
Ġbore Åĭm
Ġfore ver
Ġfore arm
Ġfore head
Ġfore ign
Ġfore runner
É²Ãł rÃł
É²Ãł gÉªlÉª
Ġlibi b
Ġlibi bin
Ġbik oÅĭk
Ġbik uuni
Ġbik uunee
gale ma
gale gale
Ġprot agonist
âĢ¦âĢ¦âĢ¦âĢ¦âĢ¦âĢ¦âĢ¦âĢ¦âĢ¦âĢ¦âĢ¦âĢ¦âĢ¦âĢ¦âĢ¦âĢ¦ âĢ¦âĢ¦
âĢ¦âĢ¦âĢ¦âĢ¦âĢ¦âĢ¦âĢ¦âĢ¦âĢ¦âĢ¦âĢ¦âĢ¦âĢ¦âĢ¦âĢ¦âĢ¦ âĢ¦.
Ġgbori v
Ġgbori kuÅĭk
Ġbride maid
Ġperform ed
Ġperform ance
Ġcollect ed
Se ed
dÃ¹ Ã³
dÃ¨ nd
dÃ¨ Åĭg
dÃ¨ mÃ©
dÃ¨ glÃ¬
dend ÉĶg
dend ÉĶre
fÃ¡ lÉª
ground nuts
lam ic
lam bori
lÃ¹ rÃ²
mu i
pÃ³ sÊĬ
Ġten se
Ġtamb ÉĶge
Ġtamb aare
Ġtamb alaaraa
Ġnent a
Ġnent aÅĭ
Ġnent aky
ĠaÅĭg oÉĶlÉĶ
Ġsas us
inn ed
Ġkoro die
Ġpor k
Ġpere perÉĽ
Ġprom inent
Ġprom iscu
ĠdÃ£a biree
ĠwÉĶ nÉĶ
ĠwÉĶ mÉĶ
ĠwÉĶ nnÉĽÉĽ
ĠoÉĶ lÉĶ
ĠoÉĶ nÉĽÉĽ
ĠoÉĶ nÉĶ
ĠgaÅĭg any
Ġmess y
Ġvig re
Ġcou ple
Ġhalf way
kpÃ² glÃ¬
Ġzeg erÉĽÉĽ
boÅĭg ori
Ġinv it
oÅĭg onaa
Ġstore y
ĠÅĭmamp ap
ĠÅĭmamp eÉĽle
ĠÅĭmamp eÉĽlÉĽÉĽ
Ġbonny aane
Ġbonny aanÉĽÉĽ
tori ko
Ġpost natal
Ġdoge lÉĶ
again st
Ġtuber culo
ĠboÅĭg oree
Ġacc ount
Ġacc ording
Ġpainful ly
Po st
Po ssible
bre ed
don nyaÅĭaa
dal ane
dal ogi
daky age
daky eÉĽrÉĽko
kÃ¡Ã¡ sÉª
kÃ¨ rÃ¬
mÃ¹ ÃŃ
mÃ¹ Ãº
sent aa
tÃº ntÃº
tÃº mpÃ¡Ã¡nÉª
zÃŃ Åĭ
zÃŃ gÃŃ
zÃŃ mÃ©
Ġabo de
Ġber on
Ġbath room
ĠseÉĽrÉĽ mara
Ġkon zagera
Ġkon ÉĶÉĶnÉĽn
Ġkal oo
Ġkus i
Ġkus aale
Ġkus aalÉĽÉĽ
Ġkot ont
ĠlÉĽÉĽ Åĭ
Ġwi pe
Ġwi zard
Ġwel lÉĽ
Ġwel laa
ĠfoÉĶ nÉĶ
ĠfoÉĶ lbÉĶ
ĠfoÉĶ rba
Ġfur row
Ġfur nace
Ġgar ra
Ġgar bage
Ġmater nal
Ġvul oto
Ġvul aÅĭkaÅĭkp
Ġcult ivate
Ġzan nz
Ġzan za
Ġbeb ig
Ġbeb eri
Ġbeb elaa
pege lÉĽ
pege lÉĽÉĽ
akye ree
Ġnyag lÉĽÉĽ
Ġnyag laa
Ġnyag leba
biy aalaa
lÉĶre hazie
gbÃŃ Åĭ
gbÃŃ nÃŃ
gbÃŃ grÃ¬
Ġteg rÉĽ
mbÃ¡ nnÃ¡
mÉĽlÉĽ mÉĽlÉĽ
mÉĽlÉĽ mmÉĽlÉĽÅĭ
Ġcho sen
Ġgyi lee
Ġdeaf ness
pÉĶl lee
pÉĶl teÉĽ
Ġsac rum
Ġbombo orÉĽÉĽ
Ġbombo ora
Ġnaag annÉĽÉĽ
Ġunw iel
dzÃł bÃ¹
dzÃł ÅĭgbÃ²
dzÃł ndzÃ¡grÃ¡
Ġtakp allÉĽÉĽ
ĠBe biri
kÃºrÃŃ gbÉĽÉĽ
Ġmyst ery
Ġsix th
Ġsix ty
Ġsix teen
Ġmarket place
Ġmeasure d
Ch ief
Ch urch
Sing ular
awa e
baal ombiri
baal omboÉĶlaa
farm ing
farm land
gir Ã¬
kus iri
kus aalaa
kÃ£a záº½ÉĽ
ká¹¹ Å©
mpe leÅĭ
nens aala
tÃŃ Åĭ
tÃŃ gÃŃ
vÃł mÃł
vÃŃ gÃ¬
wÃº Ã²
wÃº llÃ³
Ġbowl s
Ġsus p
Ġsus uuro
Ġsla bs
Ġsaal ombugo
Ġtog if
Ġkno bbed
Ġpim biri
Ġpers pire
Ġpers uade
Ġpile s
Ġpond s
Ġown ing
Ġown ed
Ġfent eÉĽ
Ġfent erÉĽÉĽ
Ġfour teen
Ġfif th
Ġgor bo
Ġgal ba
Ġgal biiree
Ġgal biiri
Ġgare pegele
Ġgun imo
Ġgun powder
ĠgeÅĭ ee
ĠgeÅĭ inime
ĠgeÅĭ inaa
Ġmel t
Ġmel bÉĽ
Ġmel lÉĽ
Ġmel lÉĽÉĽ
Ġmind ed
Ġyog lo
ĠeÅĭkp oli
ĠeÅĭkp aÅĭkpoli
kpaÅĭkp ire
kpaÅĭkp oli
kpaÅĭkp aÅĭkp
Ġzam po
Ġzam bad
Ġzam bÉĽre
irc umcision
cept or
ste ps
stri p
Ġsepar ated
gbÃ³ l
gbÃ³ Åĭgb
gbÃ³ rÃ³
gbÃ¨ glÃ¬
gbÃ¨ lÃ¬mÃ©
mbÃł Åĭ
ĠÅĭmÉĽg raa
ĠÅĭmÉĽg lÉĽ
ĠÅĭmÉĽg rebÉĽ
ĠÅĭmÉĽg lebÉĽ
Ġgye mÉĽÉĽ
ĠgyoÅĭ gb
ĠgyoÅĭ ena
ĠgyoÅĭ enema
Ġdeg ilaa
Ġite m
Ġcons id
gyi eri
Ġbompe elÉĽÉĽ
Ġbompe ele
Ġbompe gerÉĽÉĽ
ĠbompÉĽ nne
ĠbompÉĽ llÉĽÉĽ
Ġunc ontro
Ġunc ompromising
dzÃ¬ ld
Ġcob web
Ġpartic le
Ġgbeg ire
Ġgbeg ile
Ġgbeg ili
ĠdÃ£ad ogere
Ġamount s
sÃ£ak oma
Ġsquee zed
ĠkaleÅĭk aw
Ġhelpless ly
âĢ¦âĢ¦âĢ¦âĢ¦âĢ¦âĢ¦âĢ¦âĢ¦âĢ¦âĢ¦âĢ¦âĢ¦âĢ¦âĢ¦ ..
Ġdecor ated
Ġdestro ys
NÃº bi
Zi ÉĽ
buri buri
dund uÅĭk
gar ment
mind ed
nÉĶÉĶ tere
pÃ£ ataky
tÉĽÉĽ tÉĽÉĽ
tens ane
tens ÉĽre
tens aana
vÃ¹ lÃ²
wÃ© l
zug ilaa
zug iloÅĭ
Ġid le
Ġtre mble
Ġtry ing
ĠtuÅĭ ino
ĠtuÅĭ inimo
Ġnur sed
Ġbar ra
ĠbÉĶÉĶ rÉĶ
Ġsad dle
Ġsag gy
Ġsag oÅĭg
Ġtori kori
Ġtori koree
Ġkne ad
Ġkerek ere
Ġkerek erÉĽ
Ġph arma
Ġph otograph
ĠpÉĶg o
Ġpire pire
ĠpÉĽg lÉĽ
Ġdat aare
Ġdat uuri
Ġdat uuree
Ġog raa
Ġog ribo
Ġfeg raa
Ġgri ma
Ġgara pegelÉĽ
Ġmer ry
Ġmist aken
Ġmist letoe
ĠmorÉĶ morÉĶ
Ġce ment
Ġcool ness
Ġcool headed
Ġhy ena
Ġhy ster
Ġhy pnot
Ġhy steria
ÅĭmÃł mpÊĬ
Ġnya bi
Ġstep ping
Ġstep ped
Ġless on
kÉĶnn oÅĭ
kÉĶnn yuuri
mpoÉĶ naa
ÅĭkÃ³ rÃ³Ã²
ntÃł mm
Ġgbel ime
Ġbole bolÉĶ
ĠkÉĶmb ÉĶgeraa
Ġposs ess
Ġposs ible
nÉªmb ÃłÃł
dÃłÊ§ ÉªÉª
Ġdoor way
ĠnÉĶkp ogi
ĠnÉĶkp anky
Ġburo mburoÅĭ
Ġpier cing
yelb uli
Ġnimip oÅĭi
ĠpÉĶle bile
Ġrespond ing
Ġspec ific
Ġfrighten ing
Ġsettle d
Ġsettle ment
Ġdirect ed
................ ........
Ġappear ances
Ġvarev araa
Ġvarev areba
Ġjump ing
Ġmysterious ly
ÅıÉĶ noÉĶ
DÉĶÉĶ ng
Go at
St ick
St omach
Wa il
boro boro
fÃ¹ gÃ¬
gbi re
gbi Åĭi
gaÅĭg ad
ganaa ganaa
kere se
kant ÉĽroo
kap ala
mÃłÃłlÉª Åĭ
sÉĽre dire
wor oto
wor thless
ĠtÉĽre tÉĽ
ĠtÉĽre tÉĽrÉĽ
Ġsam ama
Ġsam anÉĽÉĽ
Ġsamp are
Ġsnat ched
Ġsnat ching
ĠkÉĽ kÉĽ
Ġkor Åĭzaa
Ġpuori Åĭ
Ġpound ed
Ġdw elling
Ġdou ble
Ġlig raa
ĠlÉĶre ha
Ġwuo e
Ġwrest le
Ġwrest led
Ġgi eribe
Ġvari ba
Ġvari bo
Ġcri es
Ġcri cket
Ġhi ine
Ġhi inime
Ġhi eribe
bamb aala
baÅĭk alÉĽ
Ġem ergency
ĠzaÅĭ bo
ĠzaÅĭ noo
ĠzaÅĭ ena
Ġzog eraa
Ġzog erÉĶ
Ġzog boÅĭg
bole bole
pele ed
mpÃŃ Åĭ
mpÃŃ lÃŃ
lÉªmÃ¡ lÉª
loc ally
Ġhen ime
Ġdav ori
Ġdale nd
Ġdale erÉĽ
Ġshout ed
Ġbony uuree
Ġgyo reba
Ġgyo ona
ĠkÉĶmp are
ĠkÉĶmbÉĶ nne
ĠkÉĶmbÉĶ nnÉĽÉĽ
ĠkÉĶmbÉĶ Åĭene
ĠNg ma
ĠNg maa
Ġroll ing
Ġrobb ery
nsÃ¡Ã¡ nÃ¡
Ġmane ma
pÉĽrÉĽ pÉĽrÉĽ
Ġnaad ÉĶgerÉĶ
ÅĭkpÃ³ glÃŃ
Ġpeel bÉĽ
sÃłlÉª ndÊĬ
Ġswallow ed
ĠkuÅĭk uÅĭ
ĠkuÅĭk unnee
ĠkuÅĭk unler
Ġkpere kperÉĽ
ĠEven ing
zÃ¡nz Ãł
zÃ¡nz Ã¡ÅĭÃłÃ¡
grand child
grand mother
Ġdisturb ed
Ġdisturb ance
fuom iÅĭ
Ġwitch raft
Ġcompound s
Ġjudge ment
Drink ing
KÉĶ ng
bÉĶÉĶ do
bath ing
car riage
car nivorous
cut ting
dale mpoÉĶ
fel zeÉĽ
fee lee
giv en
kal biri
kamp ili
kamp oÅĭi
mant eÉĽ
mant aroo
nÉĶg bÉĽ
ok ro
piri ted
piri yoro
pÃ¨ lÃ©Ã¨
pÃ£a pere
rÃ¹ Åĭ
rÃ¹ ng
sit ime
sug ili
sug ilo
sÉĽge biri
tÉĽre wÉĽrÉĽ
vÅ©u zele
zup elaa
zib alaa
zamb aa
zamb uuli
Ġur ge
Ġur ine
Ġtum ee
Ġnuuli pare
ĠbÉĶre f
Ġser ving
Ġsed an
Ġsed im
ĠselÉĽ Åĭkaa
Ġsimm ie
Ġsimm iiree
Ġsimm iruu
Ġsibling s
Ġtor so
Ġkill ing
Ġdind ig
Ġwarn ing
Ġfre ely
Ġfre nzy
Ġfanf ama
Ġgoo lÉĶ
Ġgoo leba
ĠgaÅĭk onni
ĠgaÅĭk onnee
Ġmal ice
gelÉĶ Åĭ
Ġvere verÉĽ
Ġvalle ys
Ġhon est
Ġlam bori
Ġlaugh ter
Ġev eÉĽle
Ġev ade
Ġev aporate
Ġemm iinee
kpÃłÃ¡ kpÃłÃ¡
Ġzege z
bÉĽmp ÉĽge
thick ness
Åĭme ene
Åĭme gere
Åĭmamp elaa
ĠnyoÉĶ nÉĶ
ĠnyoÉĶ nema
ĠnyoÉĶ lba
kÉĶre ma
Ġnemp ÉĶgere
Ġsele ct
Ġsele Åĭkaa
Ġtege lÉĽ
mbÃ¡Ã¡ rÃ¡Ã¡
Ġdap aaloÅĭ
ĠdapÉĽ lÉĽ
Ġgyil ny
ĠgyaÅĭg boree
ĠgyaÅĭg boÅĭi
Ġpole ÉĽne
É²Ã¹ Ã³
Ġyelit uuri
Ġunste ady
Ġwealth y
ĠbÉĽmbÉĽ Åĭ
ĠbÉĽmbÉĽ nÉĽ
ĠgbÉĽg rebÉĽ
Ġgrand father
Ġgrand mother
Ġenjoy able
Ġherd sman
Ġtump aanÉĽÉĽ
Ġtump aama
Ġpresent ed
Ġarm let
ĠpÉĶl bilii
ĠdÃ£as eny
Ġfail ure
nvÉª rÃ¡Ãł
Ġchew ing
ĠkaÅĭkand ori
ĠkaÅĭkand oree
serek uli
object s
Ġgborgb oro
Ġgborgb orÉĶ
nÃºÃºlÃ©Ã© mÃ¡kÊĬ
ĠzÉĽnzÉĽ nÉĽ
ĠzÉĽnzÉĽ nemÉĽ
Ġboastful ness
Bon so
He at
Ky aaraa
Maa ng
Nor th
cat tle
dÃ© mÃ©Ã©
dand ay
dire ction
daÅĭk uuri
daÅĭk asaÅĭ
dond oli
dond igire
fent ere
fent errÉĽÉĽ
gaa noo
gol ig
gol la
hÃł mÃł
mun u
mun ii
manne w
mÃ¬Ã¬ rÃ©
mÃ¬Ã¬ rÃ¹Åĭ
she a
tÃ¡Åĭ Ãł
tÃ¡Åĭ Ã¡Ã¡
taÅĭg ara
zon kyoo
zan noo
zan zakpiri
Ġtat too
Ġtur ns
Ġtanne ma
ĠtaÅĭg ÉĶÉĶ
ĠtaÅĭg arem
ĠneÉĽre kuuri
Ġbil laa
Ġbra ke
Ġbam baÅĭ
Ġboore bÉĶ
ĠbÉĽre n
Ġbullo ck
Ġbangy erÉĽÉĽ
Ġbangy eraa
Ġsna il
ĠsÉĽge bie
ĠsÉĽge biiree
Ġkar ma
Ġkar amb
Ġkas ÉĽÉĽ
Ġkut ooree
Ġdund ul
ĠdaÅĭm eÉĽre
Ġwat ers
Ġwat ched
Ġwat ches
Ġwis dom
Ġwag yÉĽ
Ġfal se
Ġfal anf
Ġfol kta
Ġfere bo
Ġfib rous
Ġferment ed
Ġgan l
Ġgeg ile
Ġgeg ilibe
Ġgamb ling
Ġyaa ÉĽ
ĠyÉĶge vaarÉĽÉĽ
kpÇİ Åĭkp
Ġthreat en
ĠnyÉĶÉĶ nÉĶ
ĠnyÉĶÉĶ nema
Ġnyeg enyege
Ġnyaale nyiele
ĠkpoÅĭ Åĭo
Ġkpuli kp
Ġkpuli kpulo
Ġstud ent
Ġstud ies
Ġstud ents
Ġstole n
bet ter
Ġlegele gÉĽ
mpu roÅĭ
Ġseg amp
Ġsere te
ĠsekÃ£a boli
gbÃ¡Åĭ gbÃ¡
Ġhealth y
ĠÅĭmeg rÉĽÉĽ
ĠÅĭmeg raa
ĠÅĭmeg rebÉĽ
Ġgyab unni
Ġgyongy ono
naazo zuri
Ġsafo a
Ġsafo orÉĽÉĽ
ĠsabÉĽlemÉĽ ky
Ġyelb oÉĶre
Ġuncle ar
ĠPe ople
ĠPÉĶge ba
Ġobli ged
Ġnimis ogÉĶ
mÃŃÃŃ mÃ©
mÃŃÃŃ rÃ»
Ġarmp its
ĠbÉĶle mbÉĶ
ĠbÉĶle mbÉĶre
Ġtravel er
Ġkpeg ire
Ġkpeg iree
Ġdisc ontinue
Ġrefer ring
Ġfair ly
ĠtÉĽr raa
Ġunderstand ing
Ġrum our
Ġsharpen ing
sukyiri fÃµÉĶ
Ġsenso gere
Ġintens ity
zÃ¹g dÃ¡Ã¡
Ġgrace fully
kÃ©rÃ© kÃ©rÃ©
Ġglutton y
Ġglutton ous
Ġelectric ity
ĠgbÉĽregbÉĽ rÉĽ
ĠgbÉĽregbÉĽ rbÉĽ
Ġtigit igre
Ġdakpal ori
Ġdakpal oree
ĠkÉĶndaz ugo
dankyins ÉĶglaa
dankyins ÉĶÉĶraa
boÅĭgu oli
Ġcovet ous
Ġgorg ora
Ġgorg orba
ĠbiÅĭibiÅĭ inime
Ġgrip ping
ĠgbÉĶÉ¡ erÉĶ
Dire ction
Fe bru
bl ood
bim a
bur nt
bÃºÃº lÃ³
bÃºÃº lÃºÅĭ
bÇĴ mbÃ²
bÇĴ mpÃ¡Ã¡rÉª
com pete
com plet
col our
col oured
dat uo
deg ili
emm iiruÅĭ
fÉĽge tÉĽgÉĽ
hand ed
kas ogi
keg isege
koro so
kogi roÅĭ
mbe be
nlÃ¡Ã¡ nÉª
pre par
pre gnant
pÄ© is
páº½e páº½e
sol om
táº½ eda
var kpÉĽ
vul otokpolo
vÃłrÉª vÃ¡rÉª
waale Åĭ
welÉĽ welÉĽ
wÃ¡rÉª mÃ¡
yÃŃÃ© nÃŃ
yÃŃÃ© lÃºÅĭ
Ġund ers
Ġund ress
Ġide a
Ġtug ged
Ġtale bearing
Ġtaky Éª
Ġtangy uu
ĠtiÅĭ ine
ĠtentÉĶ l
Ġnak uoraa
Ġbene vo
Ġbene fit
ĠborÉĶ so
Ġsil k
ĠsÃµÉĶ zeÉĽnag
Ġtow er
Ġkank yÉĽl
Ġkunt unni
Ġkunt unnee
Ġkandaz ug
Ġpon der
ĠpoÅĭ ee
Ġpour s
Ġpath way
Ġpili p
Ġpili pile
Ġpest le
Ġpest ered
Ġden ies
Ġdee ply
Ġdee pest
Ġdet our
ĠdoÅĭk ÉĶÉĶ
Ġlon l
Ġlur king
Ġwhe el
Ġwand er
Ġwrink led
ĠfÉĽ rbÉĽ
ĠfÉĶÅĭ enÉĶ
ĠfÃ£a fÃ£
Ġgall op
Ġgad o
ĠgÉĶg ÉĶrebÉĶ
ĠgÉĶg ÉĶÉĶrÉĶ
Ġmin utes
Ġmult iple
Ġvel lÉĽ
Ġvol avola
Ġcre vice
Ġhalh ala
Ġeag le
Ġeag erly
ĠzoÅĭ enÉĶ
Ġzimaa li
Ġzimaa nee
Ġbege b
Ġinh aling
Ġbap arÉĽÉĽ
Ġbap imb
Åĭmam pere
Åĭmam bilee
ÅĭmÇİ nzÉªÉĽ
ĠkpÉĽge lÉĽÉĽ
ĠkpÉĽge laa
ĠAm eric
seg ilekele
Ġlearn ing
kÉĶmbÉĶ ÅĭenÉĶ
Ġans iÅĭ
Ġsegese gerÉĽ
Ġread er
Ġdabe gÉĽ
Ġdabe gerÉĽÉĽ
Ġsoon er
Ġgbant ieloo
Ġbonsaa lÉĽÉĽ
Ġbonsaa nÉĽÉĽ
Ġgyef are
Ġgyef arÉĽÉĽ
Ġbored om
Ġroot s
Ġkore kora
gyaÅĭgb oro
mmÃ¡ lÃ¡
ÅĭgbÉĽ rÉª
ĠKow ÉĽrÉĽÉĽ
ĠÉĶnne ma
Ġbombon nÉĽÉĽ
ĠnaÅĭgb eÉĽnÉĽ
ÅĭkpÃ² lÃ¬
dabo záº½e
ĠbuÅĭ ino
ĠbuÅĭ inimo
Ġblad es
yelw ono
Ġcock erel
Ġarri ved
Ġrat tle
Ġrush ing
diff erent
Ġdond igiri
Ġdond igiree
dÉĽmÉĽ dÉĽmÉĽ
Ġbreath ing
kÃ³g il
Ġdisap proval
bÃ²rÃ² bÃ²rÃ²
Ġgbag reba
pain ful
nimig boÅĭk
ĠzÉĶnzÉĶre ma
ĠzÉĶnzÉĶre mÉĶ
zÃ¡gÉª lÃ¡Ã¡
ĠboÅĭÅĭm arÉĽÉĽ
Ġspect acles
Ġspect ators
gbaÅĭg baÅĭ
gbaÅĭg baky
bÃ¹Ã¹ lÃ¹
ĠkÉĶÉĶlÉĶ mara
Ã¬Ã¬r Ã»Åĭ
kÉĶkÉĶl woÉĶ
kÉĶkÉĶl weÉĽmÉĽ
ĠvÅ©us aalbiri
Ġmeeme enÉĽ
Ġwolw olo
Ġwolw olibo
Ġwuliw ulo
Ġcolour ful
ĠgÉĶÅĭgÉĶ nÉĶ
ĠgÉĶÅĭgÉĶ nema
Ġmelem elÉĽ
Ġinvad er
Ġpersist ence
Ġphys ically
Ġirrit ation
Ġoccas ion
Ġmegem egrÉĽ
Ġyoyogi bie
Kpar oo
Mar tha
Nens oÅĭ
Nany igi
Nany igiri
Pe ople
PÉĶg s
PÉĶg daa
Sep aan
Sep tember
Tu esday
YÉĶ bonzie
deÉĽ ndÉĶÉĶ
doo gÉĶ
dist ance
dÃ¹Ã² r
fom fom
fÃºÃº rÃ³
gÉĶÉĶ rombiri
hÃ¡Ã¡ lÃ¬
kaÅĭmÉĽ daa
log itogo
mar shy
nÃ¹ ÃºlÃ¬
nÇİ Åĭgb
pers ed
pers ist
pap oÉĶ
sot uuraa
sot ugane
taÅĭkp olo
voÉĶ loÅĭ
vÃ² rÃ²
wad ÉĽrÉĽÉĽ
wÃ¹ l
wÃ¹ rÃ²
yÉĶge vaare
zÉĶÅĭ a
ÆĲ re
ÉĶle ve
Ġtick et
Ġtable t
Ġtalt ala
Ġnus amp
Ġnay agere
Ġnane Åĭ
Ġnuulee makÃµÉĶ
ĠniÅĭ es
Ġbant akp
Ġbru ised
Ġboro b
ĠbÃµÉĶ ÉĽ
Ġbuli ba
Ġsle pt
Ġsle nder
ĠsÃ¡ wÉĶ
lefÉĽ lÉĽ
Éªnf Ã¹Ã²
Ġpamp unt
Ġpimp ine
Ġdus ty
Ġdoore bÉĶ
ĠdaÅĭgb alÉĽÉĽ
Ġoper ate
Ġger minate
Ġgand aare
Ġgand aarÉĽÉĽ
Ġgru mble
Ġgab araa
Ġgab rba
Ġgbog ilo
Ġgbogi ro
Ġmoo lÉĶ
Ġmol lÉĶ
Ġmur mur
Ġmens elÉĽ
anc ies
Ġvak uoni
Ġvac ancies
Ġcy lind
ĠhÉĽge lebÉĽ
Ġhunt ers
Ġeyel id
kpÃ£a o
Ġzel gan
Ġzus ogÉĶ
ĠziÅĭ ine
ĠbagbÉĽÉĽ rÉĽÉĽ
Ġnyuu bu
Ġkpal ba
Ġkpal aÅĭkpalaÅĭ
Ġkpog ro
ĠkpÉĶge tere
Ġkpag y
Ġkpoli Åĭkp
ĠkpÉĽrÉĽ ÅĭkpÉĽrÉĽÅĭ
kÉĶnd az
kÉĶmm aaroÅĭ
mpÃ¡Ã¡ lÃł
stu ff
Ġnaw ale
Ġtele graph
ĠtekoliÅĭk uoraa
mbÃłÃł lÃ¡
Ġdabo orab
Ġdabil kaÅĭkany
ĠÅĭmentÉĶ mpÉĶ
ĠbonsÉĶ rre
Ġgyer rÉĽ
Ġbori boro
ĠkÉĶr rÉĶ
ĠkÉĶmm iiree
ĠkÉĶÅĭkÉĶ nne
ĠkÉĶÅĭkÉĶ nnÉĽÉĽ
Ġfogele bÉĶ
Ġroast ed
Ġdoled olÉĶ
ĠIs lamic
ĠSe w
ĠsawÉĶ lÉĽÉĽ
ĠsawÉĶ lÉĶ
gyÉĶ reba
gyil nyaa
ÅĭgÃł lÃłÅĭ
ÅĭgoÉĶ naa
Ġexam ple
Ġexha usted
Ġexha ustion
ĠnaÅĭkoÉĶ se
ĠnaakyeemÉĽ gbe
Ġunint ellig
Ġpear l
Ġpear ls
move ment
ĠtahÉĽ lÉĽ
ĠdÉĶÉĶt ay
ĠpÉĽmp ÉĽrÉĽ
Ġblink ing
Ġnimig boÅĭk
Ġnimif aare
Ġnimif aarÉĽÉĽ
Ġtwig s
Ġart ist
pige pige
ĠbÉĶl ÅĭmeÉĽrÉĽ
dÉĽndÉĽ Åĭe
dÉĽndÉĽ lÉĽÅĭ
ĠgbeÅĭgb elaa
ĠDagbÉĽ nne
Ġscat ter
Ġscat tered
Ġscor ched
Ġscor pion
Ġscab ies
Ġscab bard
Ġgbol lo
Ġpump uÅĭ
Ġpump kin
kpÉĽle wÉĽlÉĽ
gÃ¡l bÃŃÃ©
ĠdÉĶndÉĶ rre
Ġimit ated
Ġimpro ve
Ġimpat ient
Ġimpat ience
kÃºl tÃ¡Ã¡
kÃºs ÃŃrÃ¬
Ġmalem ala
sÃ¡mÃ¡ nÉª
Ġrag s
Ġsaku biiri
gboÅĭg boÅĭ
zÃ¬mÃ¡Ã¡ vÉĽ
Ġumb rella
Ġumb ilical
Ġtamm alaaraa
baÅĭene mÉĽÉĽ
Ġacquaint ed
Ġacquaint ance
vÉĽnÉĽ vÉĽnÉĽ
Ġempath y
Ġempath ise
taaÅĭk araa
kpaakpaa biri
Ġbabysit ter
ĠkurigbÉĽÉĽ gbo
Ġincess ant
Ġincess antly
Ġhaphazard ly
DagbÉĽ mmo
Ġburibu ro
kÃ£aburi tuo
dÃ£azu kpala
pÃºlÃ³ pÃºlÃ³
Ġannoun ced
Ġwalpie le
Ġwalpie lee
fÃ³m fÃ³m
Ġwidow hood
Ġtakpale ÉĽne
ĠnÉĶgbÉĽ mÉĽ
Ġsatis faction
ĠeÅĭkpoÅĭkp oli
Ġconsider able
ĠChrist mas
ĠkaleÅĭkal oÉĶraa
âĢ¦âĢ¦âĢ¦âĢ¦âĢ¦âĢ¦âĢ¦âĢ¦âĢ¦âĢ¦âĢ¦âĢ¦âĢ¦âĢ¦âĢ¦ ..
Ġident ify
Ġtreas ure
Ġtreas ury
Ġbolebo lebÉĶ
ĠsansaÅĭg oÉĶ
medic ine
medic inal
Ġsasepil im
Ġsasepil imb
Ġmoment um
dÇİnÊ§ÇĲ nsÉĶ
Al so
BÃ¬ e
Bag bÉĽre
Car ry
Daga kparoo
Le ft
Lit tle
Mon day
Not e
Res taurant
Sw imming
Sub way
bÃ¡ÅĭÉª nÃ¡
daÅĭm eÉĽraa
dÃŃÃŃ bÃº
ema e
emp hatic
fin gered
gbog ili
kerek ere
mark et
nak yige
nug ÉĶÉĶ
pul oÅĭ
pent i
sur face
saÅĭg ara
tw ist
tamm iri
tÃ¬Ã¬r Ãºng
yerÉĽ baa
yof uu
ziri Åĭma
Ġut ensils
ĠÃ£ o
ĠtÃ£a ÉĽ
ref use
Ġawa e
Ġbound ary
Ġsar ra
Ġseet ere
Ġtoko ky
Éªmm Ã¬Ã¬rÃ»Åĭ
ĠkÉĶge la
ĠkÃ£ aburi
Ġkanny iri
Ã¡Åĭg Ã¡Ã¡rÃ¡
Ã¡nÃ¡ nsÊĬ
ĠpÄ© is
Ġpimb it
Ġperek at
Ġdoo ga
ĠdÉĶre ka
Ġdang ling
Ġdeli ver
Ġlar vae
ĠloÅĭk oroo
Ġwed ding
Ġwul w
Ġwast age
Ġfen ced
Ġfro th
ĠfelÉĽ felÉĽ
Ġfoll owing
ĠfoÉĶne mÉĶ
Ġfert ilizer
Ġgam mizoo
ĠgaÅĭene ma
Ġmold y
Ġcunn ing
Ġcoun ter
Ġcorre ct
Ġcele br
ĠyÃ© nÃ¬
neg ative
ndz Ã³Åĭ
kpaw oÉĶ
Ġzor ra
Ġziny aane
Ġbever age
Ġbeber ri
Ġinno cence
Ġinact ive
Ġthir teen
bÉĽnd aarÉĽÉĽ
bÉĽmbÉĽ Åĭ
Ġkaku bee
ĠkpaÅĭ ky
seb ite
nyele le
gÉªsÃ¡ gÃ¡
ĠdabÉĶl makas
Ġchar coal
Ġcharge d
Ġchunk s
Ġchamber pot
Ġgyage leba
Ġgyoge reba
Ġord ered
Ġorgan ised
ĠkÉĶnz ul
ĠkÉĶnso bÉĶÉĶ
ĠkÉĶntÉĶÅĭ gb
ĠNyÉĶ vore
naameÉĽ o
dÃłlÉª mpÊĬ
dÃłkÃ² gÃ¬
Ġgover nment
pÉĽmp ÉĽre
pÉĽnz age
Ġdiver t
ĠpÉĶgeb eÉĽlebÉĽ
gyab umo
gyangy agera
Ġexact ly
Ġfeature s
Ġunshe ll
kÃ¡Åĭk Ã¡Åĭ
Ġpean ut
ĠyÉĽn kye
bÃ¬lÃ¨ mbÃŃlÃ©Åĭ
Ġcomple ments
Ġworsen ed
kukuri bone
Ġaloo pelee
ĠPol isiri
ĠtÉĶte erÉĽ
Ġqual ified
ĠnÉĽÅĭ Åĭmaara
sawÉĶ lÉĶ
Ġinterrup ted
Ġarch ery
dÃ£as eny
yÃ¨ly Ã¨
ĠHmm m
Ġmedi um
Ġpuff ed
Ġdisg ust
ĠzÉĽmbÉĽ re
Ġabandon ed
nimis ogÉĶ
nimif aa
Ġfier cely
Ġdescend ant
grind ing
Ġsignif ic
Ġpolygam ous
taant unnuu
bandaz oore
Ġintest inal
Ġwrigg le
Ġkalekale ba
Ngm enaa
kÃ¹kÃº rÃ¬
kaÅĭkand oraa
sensÉĽ laa
Ġexcre te
ĠkpaÅĭkpannyug bie
Ġdelib erate
ĠbidÉĽ ndÉĽ
Ġgolg olibo
Ġcolla pse
Ġattach ment
Ġgborgbo reba
vÃŃlÃ© nv
sÃ£akont ulimo
ĠpÉĶlese erÉĽ
Ġkurku mp
Ġwrongdo er
Ġemotion al
dÃŃndÃŃ glÃŃ
Ġscrat ched
bran ch
Ġsnap ping
Ġgangyinn uÅĭ
behav iour
ĠbÉĶgeÅĭmampe gere
tookuri seÉĽ
Ġcamouf lage
Ġhurried ly
mabiekontapÉĶge ma
Ġdefec ated
Ġhunihun o
dÃ¹ndÃ¹ l
Dankyini Åĭ
Ġsoothsay er
Aug ust
Apri l
Ban ang
Bee f
Breat he
DI R
Das Ã£Ã£
DÃ² ba
Dav oro
DÃºÃ³ rÃ¹ng
Even ing
Fri day
Idi oms
Jer ome
Jan uary
KÃ¡ mÃ¡Ã¡
LÃŃ bÃŃ
Ob ject
Pen is
Sat urday
SaÅĭ paraa
Sere ng
Sund ay
Ste am
Tak oro
Tutaa faare
Voc abular
Wed nesday
Zaa mee
cro ps
circ ular
dans eÉĽ
dud ugiri
flo or
ferment ed
gal bie
gamb ling
golÉĶ nsomm
kult aa
kunt uÅĭi
kakye erÉĽ
mor als
nin saalaa
pon aÅĭa
sibling s
tul undaa
tast ing
togil ogo
ura ble
vin cing
vie w
vak uoÅĭaa
vitaÅĭkp ulee
wri ting
zun oÉĶ
ĠÃ¹ rÉª
ĠÅ© ue
Ġign or
ĠtÉĶÅĭ ena
Ġtint ed
Ġtuul bo
Ġtrum pet
Ġtset se
Ġnie ce
Ġnorm al
Ġamb ush
Ġamm eseÉĽrÉĽ
Ġaeri al
ĠsÃł bÉĶ
inform ed
insect s
Ġtoog bulo
Ġtoile t
Ġtogi ro
Ġkeg isegee
Ġkena f
ĠkÅıÉĶ tuo
Ã¡gy ÉªmÉĽ
Ġpet oo
ĠpÅ© oe
Ġdul ong
Ġdent ed
Ġdru mmer
ĠdoÉĶle bÉĶ
Ġlul laby
Ġlugg age
Ġori ginal
Ġfunn y
Ġfonne mÉĶ
Ġguur bo
ĠmoÅĭ gbÉĽ
Ġmush room
Ġmini ature
Ġmulli bo
Ġmotion less
Ġvess el
altak yel
alys is
Ġhig hest
baba mmo
ilil ili
Ġearm arked
Ġepile psy
Ġejac ulate
kpot eÉĽ
kpug iloÅĭ
kpÉĶÅĭ kÉĶrÉĶÅĭ
Ġzone mÉĶ
Ġbeet le
uuru Åĭ
Ġinvo ke
Ġinfl ict
Ġindiff erence
Ġthous and
Ġbawas eÉĽrebÉĽ
akuro ku
Åĭmant ummu
ĠkpÃ£ al
Ġkpuri munu
Ġstur dy
ĠTá½¹ á½¸
nnye leÅĭ
segese ge
ceiv ed
beaut iful
yÉĽnÊ§ Éª
cteri um
Ġadvant age
Ġsevent een
Ġrent al
Ġrequ est
Ġredu ced
Ġrept ile
Ġreinc arnated
gbÇİ ndÃŃ
nyeg enyege
Ġwhirl wind
Ġdapere kal
Ġcharre d
Ġbonver re
Ġbonkpag la
Ġbogere bÉĶ
Ġsmalle st
Ġdexter ity
naasare lee
Ġsmallpo x
Ġdogele bÉĶ
ĠlÉĽpÉĽ l
ĠSamarit an
Ġsumm it
Ġconco ction
Ġconvul sion
gyongy oÅĭ
gyaaÅĭk oli
ĠKale o
Ġexec utioner
Ġbompa ÉĽ
bÃŃgÃŃ rÃŃ
Ġspark le
Ġunaw are
Ġunbal anced
kÃ¡sÃ² gÃŃ
bÃ¬gÃ¨ Åĭ
dazug ivÅ©u
Ġcompar ison
Ġflouri sh
Ġprostr ate
Ġshepher d
Ġlodge d
dÉĶndÉĶ rÉĽÉĽ
Ġovertak en
Ġgrassh opper
Ġblank et
yelkab eÉĽ
Ġcocon ut
Ġcoccy x
ĠBef ore
Ġswimm er
Ġprefere nce
Ġinterced e
intrans itive
zÉĶmpÉĶ rÉĶÅĭ
ĠgÉĶntÉĽ rebÉĽ
Ġsciss ors
bumbunt uri
kÃ³kÃ³ lÃ¡Ãł
tÃ¡mÃ³ gÃŃlÃ³
kÃłndÃł zÃ¹gdÃ¡Ã¡
ĠGbeÉĽ doma
ĠGbeÉĽdom ÉĽÉĽ
Ġdisbel ief
Ġdisorder ly
Ġimport ant
Ġimpri son
Ġoffsp ring
Ġabrup tly
ĠmÉĽlÉĽntÉĽ mm
yÃ¨lmÃłÃł lÃ¡Ãł
bilembile Åĭ
wÉĶÅĭkam pÉĶre
Ġlightsk inned
phys ically
thems elves
Ġfaced own
gyÉĽngy eÉĽne
Ġperman ent
Ġpermiss ion
bogikant oo
spirit ually
sÃºnsÃº grÃŃ
fÉĽlefÉĽ le
zÃ¹lÃº ng
Ġtribut ary
Ġfootpr int
Ġtáº½ekoÉĶ r
Ġdestruct ive
barekanneÉĽ baa
Ġbridemaid s
Ġpromiscu ous
Ġtuberculo sis
Ġunwiel dy
Ġpharma cy
mÃŃÃŃrÃ» ng
Febru ary
complet ely
ĠAmeric a
Vocabular y
