{"<s>":0,"<pad>":1,"</s>":2,"<unk>":3,"<mask>":4,"!":5,"\"":6,"#":7,"$":8,"%":9,"&":10,"'":11,"(":12,")":13,"*":14,"+":15,",":16,"-":17,".":18,"/":19,"0":20,"1":21,"2":22,"3":23,"4":24,"5":25,"6":26,"7":27,"8":28,"9":29,":":30,";":31,"<":32,"=":33,">":34,"?":35,"@":36,"A":37,"B":38,"C":39,"D":40,"E":41,"F":42,"G":43,"H":44,"I":45,"J":46,"K":47,"L":48,"M":49,"N":50,"O":51,"P":52,"Q":53,"R":54,"S":55,"T":56,"U":57,"V":58,"W":59,"X":60,"Y":61,"Z":62,"[":63,"\\":64,"]":65,"^":66,"_":67,"`":68,"a":69,"b":70,"c":71,"d":72,"e":73,"f":74,"g":75,"h":76,"i":77,"j":78,"k":79,"l":80,"m":81,"n":82,"o":83,"p":84,"q":85,"r":86,"s":87,"t":88,"u":89,"v":90,"w":91,"x":92,"y":93,"z":94,"{":95,"|":96,"}":97,"~":98,"¡":99,"¢":100,"£":101,"¤":102,"¥":103,"¦":104,"§":105,"¨":106,"©":107,"ª":108,"«":109,"¬":110,"®":111,"¯":112,"°":113,"±":114,"²":115,"³":116,"´":117,"µ":118,"¶":119,"·":120,"¸":121,"¹":122,"º":123,"»":124,"¼":125,"½":126,"¾":127,"¿":128,"À":129,"Á":130,"Â":131,"Ã":132,"Ä":133,"Å":134,"Æ":135,"Ç":136,"È":137,"É":138,"Ê":139,"Ë":140,"Ì":141,"Í":142,"Î":143,"Ï":144,"Ð":145,"Ñ":146,"Ò":147,"Ó":148,"Ô":149,"Õ":150,"Ö":151,"×":152,"Ø":153,"Ù":154,"Ú":155,"Û":156,"Ü":157,"Ý":158,"Þ":159,"ß":160,"à":161,"á":162,"â":163,"ã":164,"ä":165,"å":166,"æ":167,"ç":168,"è":169,"é":170,"ê":171,"ë":172,"ì":173,"í":174,"î":175,"ï":176,"ð":177,"ñ":178,"ò":179,"ó":180,"ô":181,"õ":182,"ö":183,"÷":184,"ø":185,"ù":186,"ú":187,"û":188,"ü":189,"ý":190,"þ":191,"ÿ":192,"Ā":193,"ā":194,"Ă":195,"ă":196,"Ą":197,"ą":198,"Ć":199,"ć":200,"Ĉ":201,"ĉ":202,"Ċ":203,"ċ":204,"Č":205,"č":206,"Ď":207,"ď":208,"Đ":209,"đ":210,"Ē":211,"ē":212,"Ĕ":213,"ĕ":214,"Ė":215,"ė":216,"Ę":217,"ę":218,"Ě":219,"ě":220,"Ĝ":221,"ĝ":222,"Ğ":223,"ğ":224,"Ġ":225,"ġ":226,"Ģ":227,"ģ":228,"Ĥ":229,"ĥ":230,"Ħ":231,"ħ":232,"Ĩ":233,"ĩ":234,"Ī":235,"ī":236,"Ĭ":237,"ĭ":238,"Į":239,"į":240,"İ":241,"ı":242,"Ĳ":243,"ĳ":244,"Ĵ":245,"ĵ":246,"Ķ":247,"ķ":248,"ĸ":249,"Ĺ":250,"ĺ":251,"Ļ":252,"ļ":253,"Ľ":254,"ľ":255,"Ŀ":256,"ŀ":257,"Ł":258,"ł":259,"Ń":260,"ÉĽ":261,"Ìģ":262,"čĊ":263,"ÉĶ":264,"Ġt":265,"re":266,"ÌĢ":267,"Ġn":268,"pl":269,"Ġ[":270,"aa":271,"Ġa":272,"Ġb":273,"Ġs":274,"Åĭ":275,"in":276,"er":277,"le":278,"on":279,"Ġto":280,"Éª":281,"Ġk":282,"Ã¡":283,"Ġp":284,"he":285,"ÉĽÉĽ":286,"Ġd":287,"Ġpl":288,"Ġl":289,"ar":290,"Ġw":291,"Ġo":292,"Ġf":293,"Ġg":294,"Ġm":295,"an":296,"Ġ(":297,"ri":298,"Ġ2":299,"en":300,"Ãł":301,"ge":302,"Ġv":303,"at":304,"or":305,"al":306,"Ġc":307,"âĢ":308,"ing":309,"ÊĬ":310,"Ġthe":311,"ro":312,"Ġof":313,"it":314,"Ġh":315,"eÉĽ":316,"]Ìģ":317,"Ġy":318,"Ġla":319,"om":320,"ed":321,"ne":322,"is":323,"el":324,"ÃŃ":325,"ou":326,"ba":327,"nd":328,"il":329,"Ġe":330,"oÉĶ":331,"oo":332,"kp":333,"Ġz":334,"ree":335,"as":336,"Ġbe":337,"Ã¬":338,"]ÌĢ":339,"âĢ¢":340,"bo":341,"aÅĭ":342,"ĠâĢ¢":343,"uu":344,"Ġad":345,"Ġin":346,"ra":347,"Var":348,"ol":349,"Ãº":350,"rÉª":351,"am":352,"iri":353,"Ġth":354,"Ã¡Ã¡":355,"bÉĽ":356,"rÉĽÉĽ":357,"ie":358,"im":359,"Ġba":360,"ul":361,"pe":362,"ĠVar":363,"th":364,"Ã³":365,"us":366,"Ġka":367,"ng":368,"es":369,"ak":370,"raa":371,"ÉĶÉĶ":372,"all":373,"ig":374,"og":375,"Ã©":376,"Åĭm":377,"ÉĶge":378,"one":379,"ic":380,"Ġny":381,"ee":382,"Ġand":383,"ad":384,"oÅĭ":385,"Ġkp":386,"Ġst":387,"ot":388,"ĠA":389,"ut":390,"ĠT":391,"ma":392,"Ã£":393,"are":394,"ir":395,"nn":396,"ĠĠ":397,"ow":398,"ag":399,"Ã²":400,"ve":401,"lee":402,"se":403,"Îµ":404,"aare":405,"Ġis":406,"ce":407,"be":408,"yÉĽ":409,"Í»":410,"rÉĽ":411,"Ġ]Ìģ":412,"âĢ¦":413,"ct":414,"bi":415,"ug":416,"ent":417,"la":418,"un":419,"Ġle":420,"ÉĶg":421,"Ġadj":422,"Ġadv":423,"Ìĥ":424,"kÉĶ":425,"mp":426,"lÉĽ":427,"Ġan":428,"st":429,"ith":430,"ome":431,"ur":432,"ers":433,"âĢ¦âĢ¦":434,"ly":435,"lÉª":436,"ĠThe":437,"ay":438,"Ġne":439,"bÊĬ":440,"id":441,"Ìģ]":442,"bÉĶ":443,"ion":444,"Ã¹":445,"Ġwith":446,"ter":447,"Ġfor":448,"ss":449,"lÉĽÉĽ":450,"Ġse":451,"lÉĶ":452,"ype":453,"Ġre":454,"ere":455,"gb":456,"laa":457,"li":458,"uo":459,"Ġthat":460,"ny":461,"ch":462,"Ġna":463,"rÉĶ":464,"Ġte":465,"Ġtype":466,"age":467,"nÉĽÉĽ":468,"âĢĻ":469,"gÉª":470,"Ġwh":471,"ÉªÉĽ":472,"lo":473,"Ġhe":474,"mb":475,"reba":476,"Åĭk":477,"mÉĽ":478,"na":479,"nt":480,"erÉĽÉĽ":481,"Ġda":482,"and":483,"Ġso":484,"Ġon":485,"ÌĢ]":486,"ĠÅĭm":487,"Ġch":488,"ck":489,"ÃłÃł":490,"Ġsh":491,"ii":492,"et":493,"ant":494,"ky":495,"rÃ¬":496,"Ġgb":497,"Ġbon":498,"Ã¨":499,"Ġgy":500,"ht":501,"Ġor":502,"Ġbo":503,"up":504,"Ġsm":505,"nÉĶ":506,"ĠkÉĶ":507,"ild":508,"ĠN":509,"ver":510,"Ġde":511,"naa":512,"Ġfo":513,"Ġone":514,"to":515,"und":516,"Ġyou":517,"rÃŃ":518,"ap":519,"Ġnot":520,"ong":521,"Ġpo":522,"É²":523,"rom":524,"ru":525,"Ġsome":526,"ire":527,"ÉĽg":528,"ood":529,"uuri":530,"ine":531,"erÉĽ":532,"uri":533,"Ġma":534,"thing":535,"Ġli":536,"nÉª":537,"eg":538,"rebÉĽ":539,"Ġhas":540,"nÉĽ":541,"áº":542,"Ġwa":543,"Ġro":544,"Ġus":545,"áº½":546,"ns":547,"Ġ]ÌĢ":548,"our":549,"aara":550,"aarÉĽÉĽ":551,"Ġko":552,"iree":553,"Ġit":554,"ll":555,"Ġme":556,"ni":557,"Ã¡Ãł":558,"ake":559,"dÃł":560,"Ġfrom":561,"Ġsmall":562,"Ġdo":563,"Ġman":564,"ally":565,"erson":566,"ab":567,"te":568,"ick":569,"ard":570,"end":571,"ĠI":572,"ight":573,"ĠD":574,"ara":575,"eraa":576,"ĠlÉĽ":577,"Ġbi":578,"pÉĶ":579,"ĠS":580,"Ġsg":581,"Ġgo":582,"ÉĶÅĭ":583,"Ġsa":584,"ke":585,"pÉĽ":586,"arÉĽÉĽ":587,"âĢ¦âĢ¦âĢ¦âĢ¦":588,"ko":589,"me":590,"ane":591,"bon":592,"Ġdi":593,"qu":594,"Ġha":595,"aale":596,"ther":597,"Ġchild":598,"ater":599,"nee":600,"ill":601,"ga":602,"Ġsu":603,"Ġcon":604,"po":605,"ĠkyÉĽ":606,"oÉĶre":607,"ry":608,"Ġmo":609,"so":610,"ĠpÉĶge":611,"gy":612,"ell":613,"Ba":614,"mm":615,"ta":616,"ate":617,"row":618,"Ġperson":619,"Åĭg":620,"ene":621,"eÉĽrÉĽ":622,"Ġsomething":623,"lÃŃ":624,"Ãµ":625,"ĠK":626,"ĠO":627,"Ġtree":628,"ĠÌĢ":629,"Ġex":630,"oraa":631,"aal":632,"Ġat":633,"oro":634,"ĠnÉĶ":635,"of":636,"rÃ¡Ã¡":637,"ĠÅĭ":638,"Å©":639,"Ġyel":640,"arge":641,"Ìģ.":642,"ind":643,"orÉĽÉĽ":644,"ĠÉĶ":645,"Ġbom":646,"oore":647,"ĠnaÅĭ":648,"Ġnaa":649,"ze":650,"ĠÌģ":651,"ÃºÃº":652,"Ġwho":653,"ace":654,"bÃŃ":655,"ÃłÃ¡":656,"lÃ©":657,"um":658,"ÉĽre":659,"ime":660,"Ġthing":661,"Ġact":662,"ĠpoÉĶ":663,"ath":664,"ĉĉ":665,"ast":666,"av":667,"eri":668,"Ġfe":669,"sh":670,"Ġsp":671,"ff":672,"Ġun":673,"ÉĽge":674,"Ìģ:":675,"ame":676,"de":677,"ive":678,"Åĭkp":679,"ish":680,"kÃ¡":681,"ÉĶre":682,"Ġtaa":683,"Ġwe":684,"ogi":685,"orn":686,"ÌĥÌģ":687,"Ġare":688,"Ġpe":689,"eÉĽre":690,"Ġgaa":691,"mÉĶ":692,"yi":693,"Ġlarge":694,"Ġout":695,"ort":696,"ous":697,"ook":698,"ile":699,"ye":700,"Ġby":701,"Ġused":702,"ĠW":703,"Ġri":704,"art":705,"ĠyÉĽ":706,"Ġwas":707,"ili":708,"Ã£a":709,"Ġup":710,"Ġbie":711,"ery":712,"uori":713,"ib":714,"if":715,"nne":716,"ĠmaÅĭ":717,"Ġhave":718,"gbÉĽ":719,"rain":720,"ÃºÃ³":721,"ld":722,"Ġzaa":723,"ĠrÉª":724,"ÉªÉª":725,"ens":726,"ass":727,"ale":728,"araa":729,"ide":730,"ÃµÉĶ":731,"dz":732,"..":733,"Ġsaa":734,"ĠĠĠĠ":735,"est":736,"lÃ¬":737,"ĠnyÉĽ":738,"no":739,"ty":740,"Ġno":741,"Ġwater":742,"biri":743,"bie":744,"Åĭe":745,"ans":746,"eÉĽle":747,"oÉĶrÉĶ":748,"oli":749,"áº½ÉĽ":750,"bÃł":751,"bÃ¬":752,"mo":753,"ang":754,"ness":755,"da":756,"iv":757,"kÊĬ":758,"Ġbut":759,"Ġcom":760,"Ġta":761,"ĠbÉĽ":762,"Ġfl":763,"ation":764,"round":765,"Ġwor":766,"ist":767,"eere":768,"ruit":769,"ure":770,"ess":771,"ade":772,"we":773,"Ê§":774,"elaa":775,"uli":776,"ip":777,"Ġpro":778,"ĠgbÉĽ":779,"ect":780,"ment":781,"Ġbaa":782,"ound":783,"ku":784,"Ġj":785,"ĠdÉĶÉĶ":786,"Ġbu":787,"Ã¡Åĭ":788,"Ġpa":789,"elÉĽ":790,"amp":791,"Ġshe":792,"Ġzu":793,"Ġal":794,"Ġvery":795,"ala":796,"gÉĶ":797,"Ġlo":798,"Ġwaa":799,"mÉĽÉĽ":800,"rÊĬ":801,"ĠčĊ":802,"Ġwom":803,"ise":804,"imal":805,"lÊĬ":806,"Ä©":807,"Ġye":808,"Ġstr":809,"mÃ¡":810,"olo":811,"ue":812,"ress":813,"ora":814,"Ġho":815,"eÉĽraa":816,"nz":817,"sÉª":818,"ually":819,"aaraa":820,"nÃŃ":821,"ĠP":822,"ĠKa":823,"bil":824,"dÉĶ":825,"ple":826,"Ġover":827,"gere":828,"eÉĽrebÉĽ":829,"ely":830,"bog":831,"aane":832,"Ġas":833,"ÅĭÉĽ":834,"Ġgr":835,"iribe":836,"Ġanimal":837,"ud":838,"uuree":839,"ies":840,"lÃ¡Ã¡":841,"tÉĶ":842,"annÉĽÉĽ":843,"uuro":844,"aga":845,"do":846,"ject":847,"ÉĽrÉĽ":848,"ÌĢÌĥ":849,"arm":850,"ÉĶÉĶre":851,"fe":852,"nÃ¡Ã¡":853,"ore":854,"uÅĭ":855,"Ġ-":856,"Ġfruit":857,"orÉĶ":858,"Ġen":859,"ĠBa":860,"Ġpi":861,"ĠdeÉĽ":862,"old":863,"ron":864,"yu":865,"Ġmake":866,"ance":867,"ama":868,"ich":869,"Ġleg":870,"pÊĬ":871,"ĠF":872,"Ġob":873,"ach":874,"bom":875,"che":876,"rÃ¡Ãł":877,"sÉĽ":878,"ÉªrÉª":879,"ĠpÉĽ":880,"Ġbl":881,"Ġtoo":882,"Ġcl":883,"roÅĭ":884,"out":885,"ĠkpÉĽ":886,"aareba":887,"Ġdog":888,"arre":889,"Ġwill":890,"anne":891,"Ġhis":892,"ouse":893,"aÅĭk":894,"ult":895,"nnÉĽÉĽ":896,"lÃ³":897,"pÉĶge":898,"way":899,"yel":900,"ÌĢ.":901,"alk":902,"Ġher":903,"Ġnim":904,"sÉĶ":905,"ink":906,"ĠmÉĶ":907,"Ġco":908,"Ġyi":909,"Ġwoman":910,"ĠÌĢ]":911,"ĠtÉĶ":912,"ase":913,"amb":914,"ulo":915,"areba":916,"bÉĽÉĽ":917,"pen":918,"sÃł":919,"ĠM":920,"Ġ]":921,"Ġqu":922,"Ġtw":923,"ĠnÉĽ":924,"Ġpot":925,"mÃł":926,"mÃŃ":927,"ori":928,"ĠB":929,"Ġtu":930,"aana":931,"Ġsw":932,"hen":933,"ille":934,"oÅĭk":935,"ft":936,"Ġmade":937,"ite":938,"ity":939,"day":940,"per":941,"ting":942,"zu":943,"Ã¡rÉª":944,"Ġmi":945,"enÉĽ":946,"eÉĽne":947,"oÉĶraa":948,"Ġwhich":949,"sa":950,"zÉĽ":951,"Ġall":952,"less":953,"Ġpre":954,"ark":955,"ated":956,"aÅĭa":957,"Ġinter":958,"Ġinto":959,"ather":960,"gÃŃ":961,"lÃł":962,"ÌĮ":963,"dÊĬ":964,"gÃł":965,"tÉĽ":966,"red":967,"Ġar":968,"any":969,"Ġbec":970,"use":971,"oney":972,"Ġbir":973,"int":974,"leba":975,"Ġfood":976,"dÃ£":977,"ĠÉĽ":978,"reat":979,"ition":980,"aÅĭg":981,"uuli":982,"âĢ¦âĢ¦âĢ¦âĢ¦âĢ¦âĢ¦âĢ¦âĢ¦":983,"lÃ©Ã©":984,"baa":985,"bÃ¡":986,"gÃ¬":987,"lle":988,"ĠsÉĽ":989,"Ġfoo":990,"âĢĺ":991,"ull":992,"ush":993,"male":994,"own":995,"tle":996,"tÉª":997,"yÃ¨":998,"zÉĶ":999,"ĠH":1000,"Ġr":1001,"Ġrain":1002,"Ìģ,":1003,"Ġget":1004,"aÅĭkp":1005,"di":1006,"daa":1007,"pi":1008,"ÌĤ":1009,"Ġnu":1010,"ĠbÉĶ":1011,"ĠpÉĶ":1012,"Ġpart":1013,"Ġmed":1014,"alle":1015,"ĠÅĭa":1016,"Ġobject":1017,"dy":1018,"ght":1019,"rÃ©":1020,"za":1021,"Ġpare":1022,"Ġday":1023,"Ġplant":1024,"Ġhard":1025,"ould":1026,"ust":1027,"ice":1028,"biiree":1029,"lÃ¡":1030,"unn":1031,"Ġku":1032,"Ġky":1033,"Ġdon":1034,"igi":1035,"nnÉª":1036,"ugi":1037,"dÉĽ":1038,"ful":1039,"saa":1040,"Ġtra":1041,"ĠgÉĶ":1042,"Ġgbe":1043,"Ġcar":1044,"Ġhand":1045,"ÃŃÃ©":1046,"Ġear":1047,"imo":1048,"ĠĠĠ":1049,"ĠDag":1050,"Ġplace":1051,"able":1052,"kÃ²":1053,"maa":1054,"yÉĶ":1055,"Ġbre":1056,"Ġsc":1057,"onni":1058,"ĠlÉĶ":1059,"Ġlong":1060,"Ġgbo":1061,"nema":1062,"ugh":1063,"bu":1064,"kÃ³":1065,"tÃ¡":1066,"aala":1067,"Ġpu":1068,"eÉĽlÉĽ":1069,"kpÉĽ":1070,"Ġhead":1071,"Ġmedic":1072,"wa":1073,"Ġbig":1074,"Ġkpe":1075,"ĠlÉª":1076,"Ġground":1077,"aÅĭe":1078,"aky":1079,"der":1080,"ĠnÉª":1081,"Ġcome":1082,"Ġwork":1083,"tÃł":1084,"zÃº":1085,"Ġpie":1086,"anna":1087,"Ġthis":1088,"Ġbird":1089,"ka":1090,"nÃł":1091,"op":1092,"pÉª":1093,"rÃ¡":1094,"sÊĬ":1095,"ved":1096,"inal":1097,"Ġpron":1098,"orm":1099,"Ġcan":1100,"Ġbare":1101,"ÉĶgere":1102,"eet":1103,"iiree":1104,"Ġexp":1105,"gÃ¡":1106,"kÃł":1107,"Ġ/":1108,"ĠG":1109,"Ġbur":1110,"Åĭgb":1111,"Ġfir":1112,"enÉĽÉĽ":1113,"Ġca":1114,"ĠÊĬ":1115,"Ġap":1116,"ĠdÉĶ":1117,"Ġdis":1118,"Ġga":1119,"Ġgu":1120,"ana":1121,"ĠzÉĽ":1122,"used":1123,"Çİ":1124,"Ġdu":1125,"alÉĽÉĽ":1126,"Ġclo":1127,"eli":1128,"ven":1129,"wÉĽ":1130,"yÍ»":1131,"Ġim":1132,"Ġsl":1133,"ond":1134,"Ġpow":1135,"Ġoff":1136,"iire":1137,"Ġinterj":1138,"Bo":1139,"bÃ²":1140,"kÃº":1141,"mÊĬ":1142,"nÃ¡":1143,"pare":1144,"Ġab":1145,"Ġfarm":1146,"Ġgiv":1147,"ĠmÉĽ":1148,"anky":1149,"Ġeat":1150,"eep":1151,"Ġmale":1152,"Ġyeli":1153,"bilii":1154,"ople":1155,"rÃ³":1156,"ÌĢ-":1157,"ĠkoÅĭ":1158,"ĠTh":1159,"biiri":1160,"áº½e":1161,"Ġgrass":1162,"oree":1163,"tu":1164,"onnee":1165,"Ġlu":1166,"gee":1167,"mpÉĽ":1168,"Ġmove":1169,"yÃ¨l":1170,"du":1171,"sÃ¡":1172,"era":1173,"lebÉĽ":1174,"ont":1175,"ĠdÉĽ":1176,"enne":1177,"elÉĽÉĽ":1178,"Ġyoung":1179,"uman":1180,"ible":1181,"illet":1182,"nu":1183,"rink":1184,"Ġbro":1185,"ĠgyÉĽ":1186,"ative":1187,"Ġhim":1188,"eÉĽlÉĽÉĽ":1189,"Ġbag":1190,"bile":1191,"Ġseed":1192,"Ġusually":1193,"Å©u":1194,"ĠyÉĽlÉĽ":1195,"dition":1196,"ege":1197,"llÉĽÉĽ":1198,"mine":1199,"rre":1200,"wÉĶ":1201,"Ġ1":1202,"Ġname":1203,"ono":1204,"Ġgba":1205,"ito":1206,"Ġya":1207,"Ġround":1208,"aaloÅĭ":1209,"bb":1210,"co":1211,"fter":1212,"ving":1213,"Ġsup":1214,"ini":1215,"eral":1216,"hed":1217,"Ġdaa":1218,"Ġlight":1219,"ĠwÉĽ":1220,"alaa":1221,"Ġhouse":1222,"omp":1223,"ool":1224,"uuraa":1225,"Ġform":1226,"anema":1227,"Ġpeople":1228,"dÃ¬":1229,"ĠY":1230,"Ġra":1231,"ren":1232,"Ġaway":1233,"Ġmu":1234,"Ġmillet":1235,"ank":1236,"eÉĽrÉĽÉĽ":1237,"Ġany":1238,"Ġref":1239,"Ġres":1240,"under":1241,"uuribo":1242,"Ġlike":1243,"gain":1244,"Ġcompl":1245,"Ġexpress":1246,"den":1247,"kol":1248,"pa":1249,"sm":1250,"zÊĬ":1251,"Ġtake":1252,"Ġagain":1253,"led":1254,"ange":1255,"Ġcle":1256,"Ġthey":1257,"elf":1258,"ily":1259,"Ã¡Ã¡rÉª":1260,"Ġbad":1261,"iruu":1262,"nnÉĶ":1263,"lack":1264,"ÉĶÅĭe":1265,"....":1266,"ner":1267,"nim":1268,"ĠC":1269,"erÉĶ":1270,"onaa":1271,"Ġwell":1272,"Ġmat":1273,"anz":1274,"Ġbet":1275,"owl":1276,"ugo":1277,"uneral":1278,"agere":1279,"ĠFo":1280,"Ġbecome":1281,"fo":1282,"fÊĬ":1283,"mÃ¡Ã¡":1284,"mbÉĶ":1285,"ph":1286,"the":1287,"ĠL":1288,"Ġtime":1289,"aanÉĽÉĽ":1290,"Ġdry":1291,"Ġlit":1292,"enaa":1293,"roo":1294,"ief":1295,"Ġback":1296,"ural":1297,"ĠThey":1298,"tain":1299,"now":1300,"rÃł":1301,"zi":1302,"ĠE":1303,"Ġafter":1304,"Ġsk":1305,"Ġsur":1306,"Ġput":1307,"ĠdÃ£":1308,"Ġopen":1309,"Ġgood":1310,"oÉĶrÉĽÉĽ":1311,"Ġbeing":1312,"olle":1313,"ÉĶÉĶrÉĽÉĽ":1314,"adj":1315,"oÅĭi":1316,"Ġbond":1317,"Ġcomplet":1318,"ef":1319,"gÉĽ":1320,"grÉª":1321,"gÃ³":1322,"ps":1323,"ves":1324,"Ġbit":1325,"Ġsak":1326,"Ġfa":1327,"Ġcut":1328,"eÉĽnÉĽÉĽ":1329,"omm":1330,"Ġze":1331,"ĠzÉĶ":1332,"aÅĭaa":1333,"uulo":1334,"ular":1335,"Ġshort":1336,"Ġthings":1337,"Ġstrong":1338,"Ġgiven":1339,"go":1340,"ling":1341,"nÊĬ":1342,"tÊĬ":1343,"tere":1344,"ĠtÉĽ":1345,"ÌĢ,":1346,"ins":1347,"Ġdid":1348,"arrÉĽÉĽ":1349,"oÉĶnÉĽÉĽ":1350,"Ġzo":1351,"Ġkare":1352,"ogil":1353,"adv":1354,"ugiri":1355,"unt":1356,"ÌĥÌģ]":1357,"ntÉĶ":1358,"ĠÅĭmaa":1359,"nÃŃmÃŃ":1360,"loÅĭ":1361,"pÃŃ":1362,"zÉªÉĽ":1363,"Ġend":1364,"Ġunder":1365,"Ġtak":1366,"Ġbel":1367,"ĠsÉĶ":1368,"Åĭi":1369,"onne":1370,"Ġtop":1371,"Ġdown":1372,"Ġfall":1373,"Ġfire":1374,"eÉĽnÉĽ":1375,"Ġyam":1376,"oÉĶle":1377,"oÉĶreba":1378,"ÉĶgele":1379,"nnaa":1380,"urn":1381,"ĠIf":1382,"Ġmedicinal":1383,"gi":1384,"gbo":1385,"rÃłÃł":1386,"Ġsou":1387,"erre":1388,"here":1389,"Ġlook":1390,"Ġwild":1391,"Ġmy":1392,"Ġcook":1393,"oÉĶlÉĶ":1394,"Ġbab":1395,"nga":1396,"igiri":1397,"Ġheav":1398,"Ġsuff":1399,"bÃŃrÃ¬":1400,"Ġhole":1401,"aalÉĽÉĽ":1402,"Ġbri":1403,"Ġsee":1404,"oni":1405,"orri":1406,"Ġcat":1407,"oma":1408,"Ġbeen":1409,"Ã¬rÃ¬":1410,"Ġthick":1411,"Ġant":1412,"ĠÅĭmÉĽ":1413,"Ġbons":1414,"ÉĽgÉĽ":1415,"Ġdiff":1416,"Ġexpression":1417,"Ġcompletely":1418,"Da":1419,"loo":1420,"lÃ²":1421,"lÃ¡Ãł":1422,"nv":1423,"zo":1424,"zÃ¡":1425,"zeÉĽ":1426,"Ġed":1427,"ÉĽÅĭ":1428,"Ìģ?":1429,"Ġam":1430,"ĠboÅĭ":1431,"Ġspe":1432,"Ġpat":1433,"Ġplay":1434,"Ġfri":1435,"Ġgro":1436,"Ġgreat":1437,"ÃŃrÃ¬":1438,"ĠeÅĭ":1439,"ooth":1440,"ason":1441,"ola":1442,"onema":1443,"agra":1444,"Ã¹rÃ¬":1445,"Ġwithout":1446,"Ġbody":1447,"uribo":1448,"Ġmeat":1449,"Ġfemale":1450,"Ġ-,":1451,"gyÉĽ":1452,"other":1453,"port":1454,"vel":1455,"ĠrÉĽ":1456,"ÌĢ:":1457,"Ġother":1458,"Ġmaa":1459,"Ġmoney":1460,"Ġtheir":1461,"ount":1462,"ulli":1463,"erebÉĽ":1464,"É²ÊĬ":1465,"Ġsomeone":1466,"aaleba":1467,"bee":1468,"ha":1469,"kÉĶÉĶ":1470,"llÉª":1471,"par":1472,"tÃ²":1473,"ties":1474,"wn":1475,"zÃł":1476,"zÃ¬":1477,"Ġu":1478,"Ġru":1479,"Ġtam":1480,"iny":1481,"Ġlog":1482,"Ġwood":1483,"Ġfi":1484,"Ġfuneral":1485,"gele":1486,"Ġcow":1487,"uulee":1488,"Ġins":1489,"Ġleav":1490,"Ġset":1491,"enemÉĽ":1492,"uoribo":1493,"ween":1494,"Ġsuffer":1495,"bÉª":1496,"ced":1497,"fÉª":1498,"gre":1499,"gba":1500,"ient":1501,"rÎµ":1502,"ten":1503,"á¹":1504,"Ġ3":1505,"Ìģ-":1506,"Ġblack":1507,"inni":1508,"Ġper":1509,"Ġdie":1510,"Ġdes":1511,"ary":1512,"alm":1513,"Ġthere":1514,"nemÉĽ":1515,"baÅĭ":1516,"kpÃ³":1517,"ÃºÅĭ":1518,"ullo":1519,"Ġstick":1520,"ÉĶgÉĽÉĽ":1521,"Ġyour":1522,"Ġcontain":1523,"Ġproper":1524,"ched":1525,"dge":1526,"ep":1527,"eÅĭ":1528,"llÉĽ":1529,"noo":1530,"wo":1531,"ward":1532,"ĉčĊ":1533,"Ġac":1534,"onÉĽÉĽ":1535,"onnÉĽÉĽ":1536,"Ġtoma":1537,"Ġfu":1538,"anny":1539,"angy":1540,"ena":1541,"ature":1542,"Ġcorn":1543,"rog":1544,"usually":1545,"Ġstate":1546,"ÉĶgÉĶ":1547,"ÉĶgrÉĶ":1548,"ĠkÉĶkÉĶ":1549,"Ġflour":1550,"bogi":1551,"Ġfruits":1552,"unni":1553,"Ġfirst":1554,"fa":1555,"fÃ¡Ã¡":1556,"fore":1557,"gÃ²":1558,"ize":1559,"mi":1560,"nat":1561,"not":1562,"ring":1563,"ti":1564,"Ġsound":1565,"hes":1566,"aroo":1567,"ribo":1568,"Ġthem":1569,"eÉĽmÉĽ":1570,"kpe":1571,"Ġza":1572,"aste":1573,"Ġbeg":1574,"aÅĭgb":1575,"Åĭmaa":1576,"Ġstra":1577,"nnÉĽ":1578,"ÉĶgerÉĽÉĽ":1579,"ÉĶgerÉĶ":1580,"Ġanother":1581,"uring":1582,"Ã¹Ã²":1583,"Ġboy":1584,"ÉĽgere":1585,"Th":1586,"bÃº":1587,"bÃ¡Ã¡":1588,"ces":1589,"gu":1590,"gÊĬ":1591,"glÉª":1592,"ho":1593,"lÃłÃł":1594,"lÃłÃ¡":1595,"mÃ©":1596,"rrÉĽÉĽ":1597,"sÃ£":1598,"vÉĽ":1599,"ĠnoÉĶre":1600,"aalaa":1601,"Ġkol":1602,"ĠkÃµÉĶ":1603,"Ġpito":1604,"Ġdri":1605,"Ġwhen":1606,"Ġgrow":1607,"ence":1608,"Ġcare":1609,"inger":1610,"rough":1611,"omach":1612,"ÃŃrÃŃ":1613,"bad":1614,"kpÃł":1615,"irt":1616,"Ġred":1617,"ourn":1618,"ĠWhen":1619,"iful":1620,"ĠfooÅĭ":1621,"Ġbetween":1622,"Ġheavy":1623,"Ġproperties":1624,"bÃ¹":1625,"dÃ¡Ã¡":1626,"iÅĭ":1627,"nÃº":1628,"sp":1629,"sÃłÃł":1630,"ulee":1631,"wÊĬ":1632,"with":1633,"yo":1634,"ĠbÉĶge":1635,"inime":1636,"ĠtoÉĶ":1637,"Ã¡nÉª":1638,"Ġdrink":1639,"ĠwÉĶÉĶ":1640,"ĠyÉĶÉĶ":1641,"oun":1642,"Ġemp":1643,"that":1644,"Ġkpaa":1645,"uts":1646,"ÉĶgrÉĽÉĽ":1647,"Ġmother":1648,"Ġext":1649,"Ġbomp":1650,"Ġalong":1651,"Ġtradition":1652,"Ġskin":1653,"gr":1654,"pri":1655,"sÃº":1656,"tÃ³":1657,"ĠZ":1658,"ÉĽrÉĽÉĽ":1659,"aaba":1660,"Ġaround":1661,"innee":1662,"ona":1663,"onimo":1664,"head":1665,"Ġdag":1666,"Ġfull":1667,"Ġmen":1668,"Ġche":1669,"oloÅĭ":1670,"Ġthan":1671,"aking":1672,"alla":1673,"ĠnyÎµ":1674,"Ġstone":1675,"nnÃ¬":1676,"ÉĶgeraa":1677,"lÉĽÅĭ":1678,"Ġseason":1679,"like":1680,"uoree":1681,"Ġwhat":1682,"Ġdiv":1683,"Ġchildren":1684,"Ġbomb":1685,"Ġflat":1686,"Ġanimals":1687,"Ġedible":1688,"Ġleaves":1689,"for":1690,"gh":1691,"lÃ¨":1692,"nÊ§":1693,"sc":1694,"sÃ¡Ã¡":1695,"zard":1696,"resh":1697,"ĠbaÅĭ":1698,"Ġbiri":1699,"ĠsoÉĶ":1700,"Ġsig":1701,"ĠkaÅĭk":1702,"Ġknow":1703,"Ġpol":1704,"Ġdaare":1705,"Ġvo":1706,"Ġhad":1707,"Ġyaga":1708,"outh":1709,"ooreba":1710,"allÉĽÉĽ":1711,"ically":1712,"Ġstre":1713,"ĠTe":1714,"Ġsori":1715,"Ġshar":1716,"Ġshould":1717,"iiraa":1718,"quid":1719,"Ġsud":1720,"Ä©i":1721,"19":1722,"fÃł":1723,"lla":1724,"mÃ³":1725,"ted":1726,"vÊĬ":1727,"yuo":1728,"Ġĉ":1729,"read":1730,"Ġbug":1731,"ĠboÉĶrÉĶ":1732,"Ġsap":1733,"iness":1734,"ĠkÉĶÉĶ":1735,"Ġdist":1736,"Ġwo":1737,"Ġmar":1738,"anf":1739,"Ġcro":1740,"Ġhu":1741,"Ġyu":1742,"elle":1743,"ough":1744,"imb":1745,"ogiri":1746,"ĠnyÉĶ":1747,"ction":1748,"Ġleft":1749,"Ġremo":1750,"Ġwhy":1751,"Ġroom":1752,"nso":1753,"Ġweak":1754,"Ġtwo":1755,"Ġsweet":1756,"Ġcontainer":1757,"Ġsudden":1758,"af":1759,"aut":1760,"fÉĽ":1761,"form":1762,"kuri":1763,"taa":1764,"ĠJ":1765,"Ġiri":1766,"Ġtight":1767,"Ġtalk":1768,"Ġsick":1769,"Ġfowl":1770,"ennÉĽÉĽ":1771,"Ġhold":1772,"oÉĶlÉĽÉĽ":1773,"kpaa":1774,"Ġbefore":1775,"aÅĭene":1776,"uul":1777,"olaa":1778,"irii":1779,"Ġthrow":1780,"ieved":1781,"igh":1782,"ĠleÉĽ":1783,"gbÃł":1784,"Ġwhite":1785,"kye":1786,"Ġmany":1787,"Ġsub":1788,"alaba":1789,"Ġlittle":1790,"Ġsoup":1791,"Ġpatient":1792,"Ġgroup":1793,"ain":1794,"dÉªÉĽ":1795,"llaa":1796,"mee":1797,"pro":1798,"pÃ¬":1799,"rd":1800,"vo":1801,"ya":1802,"ying":1803,"zaa":1804,"zÉª":1805,"ĠV":1806,"Ġent":1807,"Ġag":1808,"ĠboÅĭk":1809,"Ġbush":1810,"Ġsal":1811,"inee":1812,"ĠlÉĶÉĶ":1813,"Ġfast":1814,"Ġgbi":1815,"Ġmis":1816,"anaa":1817,"ĠyÉĶ":1818,"Ġlag":1819,"Ġeye":1820,"Ġzie":1821,"Ġbee":1822,"Ġbere":1823,"Ġbeat":1824,"oll":1825,"olÉĶ":1826,"ÅĭmÉĽ":1827,"ÉĶgelaa":1828,"ÉĶglÉĶ":1829,"Ġnew":1830,"ered":1831,"Ġsmooth":1832,"Ġlibie":1833,"Ġgoat":1834,"Ġcont":1835,"ilibe":1836,"olibo":1837,"Ġbaala":1838,"Ġjust":1839,"ĠkyÎµ":1840,"ĠThat":1841,"small":1842,"Ġbaby":1843,"Ġdiffic":1844,"á¹¹":1845,"The":1846,"daare":1847,"faa":1848,"grÃŃ":1849,"kyÉĽ":1850,"mÉª":1851,"olee":1852,"pÃł":1853,"pÉªÉĽ":1854,"rÃ¨":1855,"wÉª":1856,"Ġbone":1857,"les":1858,"Ġkuri":1859,"Ġpig":1860,"Ġpass":1861,"aring":1862,"Ġwall":1863,"Ġwhere":1864,"Ġold":1865,"Ġface":1866,"Ġmaale":1867,"annaa":1868,"eni":1869,"orree":1870,"Ġhot":1871,"oud":1872,"kpÉª":1873,"Ġbeaut":1874,"ogÉĶ":1875,"Ġnyu":1876,"unnee":1877,"gbÃ²":1878,"Ġdab":1879,"Ġonly":1880,"very":1881,"Ġpoint":1882,"Ġpain":1883,"Ġlegs":1884,"ĠDagaare":1885,"ĠDagaaba":1886,"Ġpower":1887,"aw":1888,"ber":1889,"band":1890,"person":1891,"rÃ²":1892,"si":1893,"su":1894,"sÃ¹":1895,"tt":1896,"vÉĶ":1897,"vil":1898,"zie":1899,"ĠâĢĺ":1900,"Ġti":1901,"Ġng":1902,"Ġni":1903,"Ġbaare":1904,"Ġsen":1905,"ĠseÉĽ":1906,"ÅĭkÉĶ":1907,"eroo":1908,"onno":1909,"Ġkaa":1910,"Ġpri":1911,"Ġdak":1912,"Ġdire":1913,"Ġfish":1914,"Ġgive":1915,"ged":1916,"Ġcalaba":1917,"iti":1918,"ison":1919,"ndÉĶ":1920,"oori":1921,"kpÃ¡":1922,"ash":1923,"ask":1924,"Ġbean":1925,"Ã¬Ã¬":1926,"Ġint":1927,"imm":1928,"ullee":1929,"pere":1930,"ÉĶgelÉĶ":1931,"agÉĽÉĽ":1932,"Ġneck":1933,"ĠShe":1934,"Ġconf":1935,"Ġatt":1936,"zeerÉĽÉĽ":1937,"eribe":1938,"Ġjo":1939,"Ġbreak":1940,"Ġpiece":1941,"20":1942,"Te":1943,"human":1944,"mbÉĽ":1945,"nf":1946,"ping":1947,"sed":1948,"uree":1949,"xed":1950,"zÃ¹":1951,"ÍĤ":1952,"Ġang":1953,"Ġsing":1954,"Ġsit":1955,"ÅĭÉĶ":1956,"ÅĭÉĽÉĽ":1957,"inter":1958,"lemÉĽ":1959,"ĠkaÅĭa":1960,"Ġdise":1961,"Ġdeep":1962,"Ġwant":1963,"Ġwalk":1964,"Ġfin":1965,"Ġmon":1966,"Ġmet":1967,"gether":1968,"alf":1969,"Ġcla":1970,"Ġcold":1971,"oÉĶlaa":1972,"amm":1973,"irit":1974,"Ġthrough":1975,"ogo":1976,"Ã£Ã£":1977,"irty":1978,"owing":1979,"ÅĭkÊĬ":1980,"É²Éª":1981,"rum":1982,"Ġliquid":1983,"Ġdoes":1984,"key":1985,"rown":1986,"ÃºÃºrÃŃ":1987,"erious":1988,"eÉĽlebÉĽ":1989,"ĠHe":1990,"eget":1991,"Ġmuch":1992,"Ġsakuuri":1993,"ogilo":1994,"PÍ»":1995,"ble":1996,"bÃłÃł":1997,"come":1998,"dle":1999,"faare":2000,"hat":2001,"ial":2002,"ked":2003,"nÃłÃł":2004,"seÉĽ":2005,"tÉªÉĽ":2006,"yaa":2007,"yÊĬ":2008,"Ġbogi":2009,"Ġsog":2010,"Ġsqu":2011,"Ġkind":2012,"Ġpra":2013,"Ġdra":2014,"Ġdark":2015,"Ġland":2016,"Ġway":2017,"ato":2018,"Ġyage":2019,"oÉĶne":2020,"Ġbeh":2021,"igire":2022,"ĠnyÉĶge":2023,"Ġstomach":2024,"irri":2025,"nnÊĬ":2026,"mpÉĶ":2027,"urri":2028,"Ġuse":2029,"Ġhair":2030,"Ġconj":2031,"ĠÌĢÌĥ":2032,"dzÉĽ":2033,"ĠĠĠĠĠ":2034,"ulibo":2035,"Ġcover":2036,"Ġfirm":2037,"Ġimm":2038,"Ġsuddenly":2039,"Ġbeautiful":2040,"Ġdisease":2041,"az":2042,"bÃ³":2043,"ige":2044,"man":2045,"od":2046,"pÃ¡":2047,"Ġtri":2048,"Ġtiny":2049,"res":2050,"Ġnar":2051,"Ġbow":2052,"Ġsug":2053,"lebÉĶ":2054,"Ġkye":2055,"Ġloo":2056,"Ġwri":2057,"Ġwere":2058,"Ġgra":2059,"Ġgather":2060,"Ġmud":2061,"Ġveget":2062,"orre":2063,"Ġzi":2064,"aÅĭm":2065,"Ġinst":2066,"Ġkale":2067,"irl":2068,"agera":2069,"ugg":2070,"ÉĶgre":2071,"ÉĶglaa":2072,"nyu":2073,"Ġsoft":2074,"Ġbont":2075,"É²ÉĽ":2076,"Ġits":2077,"dÃłÃ¡":2078,"Ġmanner":2079,"ĠIt":2080,"ĠWe":2081,"anger":2082,"Ġarrow":2083,"ugiro":2084,"Ġcarry":2085,"ave":2086,"clo":2087,"dak":2088,"ele":2089,"fl":2090,"fÉĶ":2091,"kon":2092,"kÃ©":2093,"lu":2094,"lÎµ":2095,"nÃ¬":2096,"nyÉĽ":2097,"pÃ²":2098,"rÃłÃ¡":2099,"teÉĽ":2100,"ware":2101,"wÉªÉĽ":2102,"yes":2103,"zage":2104,"ĠR":2105,"ĠÉª":2106,"ĠÌģ]":2107,"ĠneÉĽ":2108,"Ġnanny":2109,"Ġborn":2110,"Ġsi":2111,"Ġsol":2112,"Åĭaa":2113,"ÅĭÉª":2114,"inne":2115,"errÉĽÉĽ":2116,"onÉĶ":2117,"Ġtoday":2118,"Ġtogether":2119,"Ġdáº½ÉĽ":2120,"Ġwould":2121,"Ġfat":2122,"Ġfam":2123,"ĠgÉª":2124,"Ġgame":2125,"anÉĽÉĽ":2126,"ennÉĽ":2127,"Ġcra":2128,"Ġcame":2129,"ital":2130,"ities":2131,"Ġhit":2132,"ĠyÎµ":2133,"Ġlast":2134,"Ġeven":2135,"kpÉĶ":2136,"Ġbeans":2137,"Ġinc":2138,"ÃºlÃŃ":2139,"Ġthief":2140,"Ã³rÃŃ":2141,"oÅĭkp":2142,"agreba":2143,"sere":2144,"enty":2145,"ently":2146,"mpÊĬ":2147,"Ġret":2148,"chool":2149,"mbers":2150,"Ġpoison":2151,"ÉĽgrÉĽ":2152,"inea":2153,"llÃ¬":2154,"icked":2155,"ĠlÉĽnso":2156,"Ġsale":2157,"pÉĽmpÉĽ":2158,"ĉĉĉ":2159,"iled":2160,"bomp":2161,"Ġfoot":2162,"tual":2163,"Ġsupport":2164,"Ġbelieved":2165,"Ġsharp":2166,"Ġremove":2167,"Ġcalabash":2168,"11":2169,"AR":2170,"Ng":2171,"ac":2172,"bs":2173,"beÉĽ":2174,"dÃ¡":2175,"dom":2176,"dÉĶÉĶ":2177,"fu":2178,"kare":2179,"llÉĶ":2180,"nake":2181,"oy":2182,"pu":2183,"pÃ¡Ã¡":2184,"pÃ¡rÉª":2185,"tak":2186,"vÃ¡":2187,"vÅ©":2188,"wÃł":2189,"water":2190,"yÃŃ":2191,"ĠU":2192,"Ġi":2193,"ĠÌĥ":2194,"Ġband":2195,"Ġspo":2196,"Ġside":2197,"Ġdanky":2198,"Ġduring":2199,"arn":2200,"ars":2201,"Ġworn":2202,"ĠfÉĶ":2203,"Ġfet":2204,"Ġfound":2205,"Ġfinger":2206,"ĠgaÅĭ":2207,"Ġgone":2208,"Ġgrain":2209,"Ġgirl":2210,"ĠmoÉĶ":2211,"Ġmark":2212,"eny":2213,"Ġhun":2214,"Ġhap":2215,"omb":2216,"ilaa":2217,"amÉĽÉĽ":2218,"imes":2219,"ngÎµ":2220,"ester":2221,"ÅĭmÉª":2222,"eele":2223,"Ġstand":2224,"ĠTo":2225,"ugiree":2226,"Ġlead":2227,"Ġdaw":2228,"Ġonce":2229,"É²ÉĶ":2230,"ÉĽgerÉĽÉĽ":2231,"ÉĽgerÉĽ":2232,"ĠDef":2233,"bons":2234,"oÉĶrebÉĶ":2235,"elling":2236,"mmo":2237,"ship":2238,"ife":2239,"Ä©Ä©":2240,"eÉĽnemÉĽ":2241,"Ġcause":2242,"Ġguinea":2243,"Ġcloth":2244,"Ġclose":2245,"Ġagainst":2246,"........":2247,"Ġbondirii":2248,"ART":2249,"Be":2250,"Dag":2251,"IM":2252,"act":2253,"ause":2254,"cle":2255,"dÃ²":2256,"from":2257,"fruit":2258,"kan":2259,"ken":2260,"kÃ¹":2261,"kaÅĭk":2262,"mit":2263,"nÎµ":2264,"oge":2265,"pie":2266,"pot":2267,"sÉªÉĽ":2268,"saal":2269,"sens":2270,"tree":2271,"tÃ¡Ã¡":2272,"va":2273,"vÉª":2274,"yÃ©":2275,"zeere":2276,"Ã´":2277,"ÇĴ":2278,"Ġel":2279,"Ġuu":2280,"ĠrÃ¡Ã¡":2281,"ĠteÉĽ":2282,"ĠtÃµÉĶ":2283,"Ġtáº½e":2284,"rest":2285,"ĠnÉĶÉĶ":2286,"aama":2287,"Ġburi":2288,"ĠbeÉĽrÉĽ":2289,"Ġsour":2290,"Ġschool":2291,"Ġtom":2292,"Ġkam":2293,"Ġpeg":2294,"Ġdance":2295,"Ġfron":2296,"Ġmid":2297,"Ġmouse":2298,"ÃłrÉª":2299,"Ġyiri":2300,"ĠzÉĶÉĶ":2301,"amine":2302,"Ġbage":2303,"thers":2304,"oga":2305,"ical":2306,"Ġstop":2307,"vere":2308,"bere":2309,"bilee":2310,"Ġlean":2311,"ÉĶgreba":2312,"ĠseÅĭ":2313,"Ġrest":2314,"gÉªrÉª":2315,"Ġhel":2316,"ÃłÃłlÉª":2317,"iile":2318,"kyiri":2319,"ÉĽgre":2320,"Ġlizard":2321,"Ġroof":2322,"nsÊĬ":2323,"Ġbile":2324,"Ġbibiiri":2325,"ÉĶÅĭÉĽÉĽ":2326,"bÃŃÃ©":2327,"ĉĉčĊ":2328,"Ġspirit":2329,"ogiro":2330,"dzÉª":2331,"Ġloc":2332,"Ġquick":2333,"rÃ©Ã©":2334,"igiraa":2335,"Ġappe":2336,"Ġclean":2337,"Ġsurpri":2338,"Ġempty":2339,"Ġtraditionally":2340,"Ġdifficult":2341,"IMP":2342,"),":2343,"bin":2344,"baare":2345,"bÍ»":2346,"bÉªÉĽ":2347,"dÉª":2348,"gÃ©":2349,"kÃ£":2350,"lÃºÃº":2351,"ms":2352,"mon":2353,"nw":2354,"tÃ¹":2355,"wiri":2356,"yÃ³":2357,"ĠÉĶÉĶ":2358,"Ġif":2359,"Ġtall":2360,"Ġnga":2361,"Ġbr":2362,"Ġbal":2363,"Ġbot":2364,"Ġbrown":2365,"Ġsame":2366,"onnaa":2367,"Ġkan":2368,"Ġpush":2369,"Ġdend":2370,"ari":2371,"Ġwu":2372,"Ġwit":2373,"Ġwiri":2374,"Ġgl":2375,"Ġgre":2376,"ĠgÉĽrÉĽ":2377,"Ġmil":2378,"Ġmus":2379,"ĠvÉĽ":2380,"Ġhar":2381,"Ġhow":2382,"Ġhoney":2383,"eÉĽlaa":2384,"ised":2385,"ished":2386,"ÃŃrÃ©":2387,"ought":2388,"bab":2389,"boÅĭ":2390,"boÅĭk":2391,"Ã¡Ã¡lÉª":2392,"Ġbale":2393,"Ã³lÃŃ":2394,"ÉĶgereba":2395,"onee":2396,"Ġnyo":2397,"Ġstri":2398,"Ġstalk":2399,"irree":2400,"agraa":2401,"agerÉĽÉĽ":2402,"ught":2403,"ention":2404,"kÉĶkÉĶ":2405,"Ġrel":2406,"Ġgyeg":2407,"aped":2408,"thern":2409,"mmÊĬ":2410,"Ġexc":2411,"ously":2412,"Ġwomen":2413,"Ġhoe":2414,"aanema":2415,"Ġblind":2416,"ĠMtt":2417,"ĠnÉĽne":2418,"ĠThis":2419,"Ġfront":2420,"-ÌĢ":2421,"10":2422,"13":2423,"16":2424,"DÍ»":2425,"Sa":2426,"cy":2427,"die":2428,"dap":2429,"dab":2430,"dÃ£a":2431,"ear":2432,"gbe":2433,"hol":2434,"kÉĽ":2435,"lish":2436,"noÉĶ":2437,"pp":2438,"pÃº":2439,"pically":2440,"sw":2441,"sak":2442,"tuo":2443,"tÃºÃ³":2444,"yÎµ":2445,"ĠerÉĽ":2446,"ÉĶbÉĶ":2447,"Ġtro":2448,"place":2449,"Ġair":2450,"Ġann":2451,"ĠbÊĬ":2452,"ĠboÉĶ":2453,"Ġball":2454,"Ġblo":2455,"Ġbaal":2456,"Ġbask":2457,"Ġsel":2458,"Ġslee":2459,"Ġsage":2460,"ĠsÉĶre":2461,"Åĭa":2462,"ince":2463,"ons":2464,"Ġpalm":2465,"Ġdal":2466,"ĠlÊĬ":2467,"Ġfell":2468,"Ġfresh":2469,"Ġmaking":2470,"Ġmouth":2471,"ennaa":2472,"ĠvÅ©":2473,"Ġcur":2474,"Ġcour":2475,"room":2476,"Ġhat":2477,"Ġyet":2478,"omo":2479,"omÉĶ":2480,"Ġele":2481,"Ġeyes":2482,"pect":2483,"ogili":2484,"ÅĭmÃłÃł":2485,"Ġnyere":2486,"Ġkpi":2487,"ute":2488,"yÉĽlÉĽ":2489,"biree":2490,"mpÉª":2491,"urree":2492,"Ġones":2493,"Ġbonf":2494,"É²Ã¡Åĭ":2495,"ÉĽgÉĽÉĽ":2496,"Ġmain":2497,"Ġwaist":2498,"Ġroad":2499,"nife":2500,"Ġsaw":2501,"Ġspot":2502,"Ġunt":2503,"Ġriver":2504,"Ġright":2505,"anging":2506,"uulibo":2507,"Ġearly":2508,"Ġpronoun":2509,"Ġslim":2510,"Ġabout":2511,"Ġeating":2512,"Ġclear":2513,"Ġmatter":2514,"Ġfriend":2515,"Ġsuffering":2516,"spital":2517,"Ġsubst":2518,"ĠVol":2519,"Ġfamily":2520,"Ġreturn":2521,"Ġbasket":2522,"12":2523,"14":2524,"15":2525,"Fo":2526,"Pl":2527,"To":2528,"bt":2529,"bÃ¨":2530,"gn":2531,"lit":2532,"pt":2533,"poÉĶ":2534,"rÍ»":2535,"run":2536,"rated":2537,"too":2538,"type":2539,"tÉªÉª":2540,"vaa":2541,"vare":2542,"wh":2543,"ys":2544,"Ġtimes":2545,"rem":2546,"Ġnens":2547,"Ġane":2548,"Ġbul":2549,"ĠbaaloÅĭ":2550,"Ġsim":2551,"Ġsun":2552,"Ġsens":2553,"ert":2554,"eroÅĭ":2555,"let":2556,"onj":2557,"Ġtown":2558,"Ġkyi":2559,"Ġdirty":2560,"Ġplu":2561,"Ġwet":2562,"Ġwife":2563,"Ġfather":2564,"Ġmiire":2565,"riage":2566,"Ġval":2567,"atural":2568,"Ġcor":2569,"ross":2570,"Ġhigh":2571,"nemÉĶ":2572,"ister":2573,"Ġeach":2574,"Ġevil":2575,"uulaa":2576,"ollÉĽÉĽ":2577,"pec":2578,"ogerÉĽÉĽ":2579,"Ġkpa":2580,"ĠkpaÅĭkp":2581,"Ġste":2582,"Ġstu":2583,"Ġstill":2584,"iruÅĭ":2585,"nnÃŃ":2586,"ower":2587,"agrÉĽÉĽ":2588,"lage":2589,"Ġnemb":2590,"erek":2591,"Ġchange":2592,"Ġshirt":2593,"Ġpos":2594,"É²Ã¡":2595,"ired":2596,"ÉĽgrÉĽÉĽ":2597,"egon":2598,"Ġrope":2599,"nsÉĶ":2600,"ightly":2601,"ĠDa":2602,"Ġgod":2603,"meÅĭÉĽ":2604,"bont":2605,"poe":2606,"Ġnaane":2607,"typically":2608,"ĠgbÉĽre":2609,"Ġstrugg":2610,"Ġhospital":2611,"Ġgrind":2612,"ĠHuman":2613,"Ġhands":2614,"Ġmedicine":2615,"Ġgroundn":2616,"Ġcannot":2617,"Ġburn":2618,"cohol":2619,"Ġanything":2620,"Ġ30":2621,"rogative":2622,"ournal":2623,"ĠJournal":2624,"2019":2625,"Ġmetal":2626,"Ġnannyige":2627,"ĠHumanities":2628,".)":2629,"No":2630,"bit":2631,"but":2632,"cing":2633,"ding":2634,"dáº½ÉĽ":2635,"fÃº":2636,"gg":2637,"gÃ¨":2638,"good":2639,"kes":2640,"koÉĶre":2641,"kÃºÃ³":2642,"lÃºÅĭ":2643,"sÃ³":2644,"side":2645,"tra":2646,"uoni":2647,"vaare":2648,"vest":2649,"yÉĶÉĶ":2650,"Ġter":2651,"Ġtap":2652,"Ġturn":2653,"aanaa":2654,"aaroÅĭ":2655,"Ġayi":2656,"Ġbat":2657,"Ġbark":2658,"Ġsnake":2659,"inaa":2660,"Ġkaara":2661,"Ġknife":2662,"Ġpull":2663,"Ġdel":2664,"Ġdas":2665,"ĠdaÅĭ":2666,"Ġwal":2667,"ĠwoÉĶ":2668,"Ġwicked":2669,"Ġgane":2670,"Ġmee":2671,"Ġmine":2672,"Ġmenne":2673,"get":2674,"Ġve":2675,"Ġvaara":2676,"oruu":2677,"orrÉĽÉĽ":2678,"orse":2679,"Ġhus":2680,"Ġhide":2681,"ÃŃÃŃ":2682,"Ġevery":2683,"oot":2684,"Ġzage":2685,"ĠzenÉĽ":2686,"Ġbebi":2687,"uuni":2688,"uunee":2689,"olÉĽÉĽ":2690,"Ġnye":2691,"utter":2692,"agre":2693,"sect":2694,"uni":2695,"ÉĶgraa":2696,"Ġteach":2697,"Ġhere":2698,"mble":2699,"ÅĭkÃ¡":2700,"ÃłÃłrÉª":2701,"ÉĽgeraa":2702,"Ġrough":2703,"ÉĶÅĭÉĶ":2704,"Ġsaid":2705,"Ġmore":2706,"ĠpÉĶges":2707,"alect":2708,"daw":2709,"Ġworth":2710,"Ġshea":2711,"Ġshell":2712,"Ġalso":2713,"ĠPers":2714,"ÌĢÌĥ]":2715,"bomb":2716,"Ġclan":2717,"Ġbecause":2718,"Ġrun":2719,"Ġbrew":2720,"elibe":2721,"Ġrefuse":2722,"Ġbits":2723,"tÃ²Ã²":2724,"wards":2725,"Thing":2726,"Ġhung":2727,"ÍĤÌģ":2728,"**":2729,"Ko":2730,"Prog":2731,"bÉĶge":2732,"baarÉĽÉĽ":2733,"cer":2734,"doÅĭ":2735,"face":2736,"gra":2737,"glÃ¡Ã¡":2738,"iiri":2739,"kaa":2740,"kale":2741,"lÃº":2742,"pper":2743,"sen":2744,"some":2745,"ton":2746,"tom":2747,"tÃ¬":2748,"tes":2749,"val":2750,"wÃ¡":2751,"wÃ³":2752,"xy":2753,"yÃ¡":2754,"zÃŃÃ©":2755,"Ġtig":2756,"Ġtend":2757,"Ġnuts":2758,"ply":2759,"Ġbamb":2760,"Ġsli":2761,"Ġswe":2762,"Ġself":2763,"Åĭee":2764,"erature":2765,"ernat":2766,"Ġkyu":2767,"Ġpar":2768,"Ġpad":2769,"Ġpup":2770,"ĠpeÉĽrÉĽ":2771,"Ġdig":2772,"Ġdone":2773,"Ġdrum":2774,"ĠweÉĽ":2775,"Ġothers":2776,"Ġfel":2777,"Ġfree":2778,"Ġfig":2779,"Ġmound":2780,"Ġmourn":2781,"gereba":2782,"Ġvare":2783,"oroÅĭ":2784,"alaÅĭ":2785,"Ġcap":2786,"Ġcolle":2787,"Ġyie":2788,"eld":2789,"oop":2790,"ooree":2791,"kpÉªÉĽ":2792,"kponni":2793,"ĠzeÉĽre":2794,"ammo":2795,"imp":2796,"imee":2797,"nglish":2798,"ÅĭmÉªÉĽ":2799,"ÉĶgelÉĽÉĽ":2800,"eemÉĽ":2801,"set":2802,"law":2803,"stone":2804,"ĠneÅĭk":2805,"Ã¹Ã¹":2806,"gbÉĽÉĽ":2807,"child":2808,"ntÉĽ":2809,"ntÉª":2810,"Ġsoil":2811,"Ġchief":2812,"cks":2813,"Ġshow":2814,"Ġshake":2815,"antity":2816,"ĠkÉĶns":2817,"Ġdead":2818,"ongue":2819,"Ġmeas":2820,"kore":2821,"meat":2822,"Ġhaving":2823,"Ġwhose":2824,"Ġfeel":2825,"ÅĭkpÉĽ":2826,"Ġarea":2827,"Ġcomp":2828,"Ġcoming":2829,"Ê§Éª":2830,"Ġju":2831,"Ġbuild":2832,"ches":2833,"Ġblood":2834,"Ġnimi":2835,"Ġ]ÌĥÌģ":2836,"Ġtwist":2837,"Ġprepare":2838,"âĢ¦âĢ¦âĢ¦âĢ¦âĢ¦âĢ¦âĢ¦âĢ¦âĢ¦âĢ¦âĢ¦âĢ¦":2839,"Ġfarming":2840,"Ġinside":2841,"Ġstraw":2842,"Ġstraight":2843,"ĠZenÉĽ":2844,"Ġsurprise":2845,"De":2846,"]ÌĮ":2847,"bal":2848,"bÉªrÉª":2849,"biruu":2850,"cc":2851,"dag":2852,"faarÉĽÉĽ":2853,"gze":2854,"long":2855,"nÉ²":2856,"ole":2857,"py":2858,"peÉĽ":2859,"rrÉª":2860,"rong":2861,"self":2862,"wÃ¬rÃ¬":2863,"xt":2864,"yÃºÃ³":2865,"ĠeÉĽ":2866,"Ġill":2867,"Ġtens":2868,"Ġtont":2869,"ÌĢ)":2870,"Ġnen":2871,"Ġaw":2872,"Ġban":2873,"Ġbid":2874,"Ġbend":2875,"ĠserÉĽ":2876,"ĠsaÅĭa":2877,"Ġserious":2878,"ÅĭÃ¡Ã¡":2879,"onhuman":2880,"Ġkog":2881,"ĠkÍ»":2882,"Ġkuuri":2883,"Ġkono":2884,"ĠpeÉĽ":2885,"ĠdoÉĶ":2886,"Ġplenty":2887,"Ġlaa":2888,"arch":2889,"Ġwol":2890,"Ġwuli":2891,"Ġow":2892,"Ġfle":2893,"Ġfly":2894,"Ġfaara":2895,"Ġfight":2896,"ĠgÉĽ":2897,"Ġgree":2898,"Ġgol":2899,"Ġgot":2900,"Ġmay":2901,"ric":2902,"gerebÉĽ":2903,"ĠvÉĶ":2904,"ata":2905,"atch":2906,"oroo":2907,"orrow":2908,"alt":2909,"alth":2910,"Ġcall":2911,"Ġcount":2912,"eÉĽÅĭaa":2913,"ney":2914,"ndi":2915,"ndÃł":2916,"kpÃ©":2917,"kponnee":2918,"Ġzuo":2919,"Ġzanz":2920,"Ġzagere":2921,"boge":2922,"boree":2923,"ÃºrÃŃ":2924,"ampe":2925,"bÉĽre":2926,"iet":2927,"uses":2928,"allow":2929,"oÅĭaa":2930,"Ġsting":2931,"Ġstage":2932,"ĠAs":2933,"nni":2934,"yÉĽre":2935,"ugri":2936,"str":2937,"lÉªÉĽ":2938,"ĠThere":2939,"Ġnear":2940,"erent":2941,"uolee":2942,"nye":2943,"loph":2944,"Ġheart":2945,"mber":2946,"Ġchick":2947,"cking":2948,"cket":2949,"Ġboil":2950,"ĠkÉĶntÉĶ":2951,"Ġdec":2952,"egrÉĽ":2953,"temp":2954,"Ġbiiri":2955,"pÉĽge":2956,"Ġdialect":2957,"Ġwhole":2958,"bÃŃlÃ©":2959,"lÃ©Åĭ":2960,"umo":2961,"ÉĽgelÉĽ":2962,"Ġritual":2963,"Ġwash":2964,"angu":2965,"Ã¡ÅĭÉª":2966,"Ġalway":2967,"Ġlost":2968,"doge":2969,"Ġeng":2970,"Ġcloud":2971,"unno":2972,"Ġearth":2973,"Ġslow":2974,"Ġluck":2975,"duce":2976,"Ġsupernat":2977,"Ġspeak":2978,"ĠĉĠĉ":2979,"Ġmarriage":2980,"Ġattention":2981,"Ġpoisonous":2982,"Ã´Åĭ":2983,"Ġharvest":2984,"Ġposition":2985,"xyloph":2986,"Ġalways":2987,"Def":2988,"Ma":2989,"Ne":2990,"OC":2991,"PÉĶge":2992,"Ta":2993,"ape":2994,"con":2995,"cond":2996,"cco":2997,"dent":2998,"dÃºÃ³":2999,"fÉªÉª":3000,"gerÉĽÉĽ":3001,"hÃ¡":3002,"ia":3003,"iraa":3004,"karaa":3005,"kolo":3006,"lbÉĽ":3007,"laare":3008,"mÃ¬":3009,"mak":3010,"maale":3011,"nÉªÉĽ":3012,"nky":3013,"noÉĶre":3014,"ob":3015,"oorÉĽÉĽ":3016,"pse":3017,"pÃ¹":3018,"pelaa":3019,"pÉªrÉª":3020,"pÄ©Ä©":3021,"sing":3022,"sÃŃ":3023,"tÃ©":3024,"ual":3025,"uoraa":3026,"waa":3027,"weÉĽ":3028,"woÉĶ":3029,"wÃ²":3030,"yiri":3031,"yoÉĶre":3032,"zy":3033,"Ã¢":3034,"Ã»":3035,"ĠÃ¡":3036,"Ġlee":3037,"ĠrÊĬ":3038,"Ìģ!":3039,"Ġtuo":3040,"Ġtaste":3041,"Ġtired":3042,"ÌĢ?":3043,"pless":3044,"Ġbol":3045,"Ġbaara":3046,"Ġbook":3047,"Ġsent":3048,"ĠsÃ£a":3049,"ÅĭÃ¡":3050,"leg":3051,"onna":3052,"ĠtoÅĭ":3053,"ĠkoÉĶreba":3054,"Ġpel":3055,"Ġpus":3056,"Ġpaste":3057,"Ġdan":3058,"Ġdom":3059,"Ġdest":3060,"Ġdaky":3061,"Ġwin":3062,"Ġwof":3063,"Ġwind":3064,"Ġfaa":3065,"ĠgÉĶÉĶ":3066,"ĠgÎµ":3067,"Ġ('":3068,"enee":3069,"Ġvu":3070,"Ġvis":3071,"ating":3072,"ory":3073,"Ġcr":3074,"Ġcol":3075,"Ġcry":3076,"Ġhid":3077,"Ġhanging":3078,"Ġlamp":3079,"eds":3080,"eloo":3081,"elli":3082,"ÃŃmÃŃ":3083,"bare":3084,"bage":3085,"bacco":3086,"illi":3087,"ilii":3088,"ĠeÅĭe":3089,"Ġesc":3090,"oÉĶbo":3091,"kpoÅĭi":3092,"ĠzeÉĽrÉĽ":3093,"Ġzoro":3094,"aster":3095,"aÅĭenÉĽÉĽ":3096,"Ġinsect":3097,"Ã³Åĭ":3098,"igiree":3099,"Ġnyog":3100,"oto":3101,"othes":3102,"ared":3103,"seed":3104,"ugree":3105,"ÉĶglÉĽÉĽ":3106,"ayuo":3107,"terÉĽÉĽ":3108,"Ġreally":3109,"nyi":3110,"nyaa":3111,"ĠteÅĭÉĽ":3112,"Åĭkaa":3113,"ntÃ¡":3114,"Ġdakp":3115,"ĠÅĭme":3116,"ĠÅĭmo":3117,"ĠkÉĶnd":3118,"ĠmeÅĭ":3119,"Ġmang":3120,"Ġgoing":3121,"bond":3122,"Ãµo":3123,"Ġspread":3124,"gbÉĽre":3125,"aleba":3126,"ĠĠĠĠĠĠĠĠ":3127,"Ġtail":3128,"Ġalcohol":3129,"Ġlove":3130,"Ġstring":3131,"Ġstrange":3132,"billee":3133,"Ġasib":3134,"Ġtook":3135,"Ġtooth":3136,"Ġclimb":3137,"Ġquantity":3138,"Ġquiet":3139,"Ġmixed":3140,"Ġpregn":3141,"Ġobjects":3142,"Ġburnt":3143,"Ġduor":3144,"Ġlump":3145,"Ġseeds":3146,"anks":3147,"Ġrefused":3148,"ĠLk":3149,"ugiribo":3150,"gbori":3151,"Ġcooked":3152,"Ġstret":3153,"Ġanger":3154,"interrogative":3155,"Ġbehav":3156,"ĠÌĥ]Ìģ":3157,"Ġfetish":3158,"ĠToday":3159,"Ġquickly":3160,"Ġbran":3161,"anguage":3162,"Dans":3163,"Ka":3164,"NÃŃmÃŃ":3165,"PART":3166,"You":3167,"aÉĽ":3168,"air":3169,"bir":3170,"bÉªÉª":3171,"danky":3172,"fÃ³":3173,"fish":3174,"father":3175,"ger":3176,"grÃ¬":3177,"gerÉĽ":3178,"hÉĽ":3179,"iour":3180,"kam":3181,"kÃµÉĶ":3182,"min":3183,"nge":3184,"oe":3185,"oke":3186,"paa":3187,"pÃŃÃ©":3188,"sÃ²":3189,"sÉĶre":3190,"sale":3191,"uce":3192,"vent":3193,"wÉĶÉĶ":3194,"yÃ¡Ã¡":3195,"yÃ²":3196,"yage":3197,"ĠâĢ":3198,"Ġxyloph":3199,"ÉĶrÉĽÉĽ":3200,"Ġtun":3201,"ĠteÉĽrÉĽ":3202,"Ġtest":3203,"Ġtip":3204,"Ġtuuro":3205,"ret":3206,"ÌĢ!":3207,"Ġnight":3208,"Ġbog":3209,"ĠbaÅĭe":3210,"Ġsy":3211,"ĠsÉĽre":3212,"onnÉĶ":3213,"Ġkeep":3214,"Ġpen":3215,"Ġpal":3216,"ĠpÄ©i":3217,"Ġdro":3218,"Ġdam":3219,"ĠdoÉĶrÉĶ":3220,"Ġdress":3221,"Ġlot":3222,"Ġlaara":3223,"Ġlanguage":3224,"Ġfareba":3225,"ĠgÉĶÅĭ":3226,"Ġmie":3227,"Ġmere":3228,"Ġmeet":3229,"ribe":3230,"Ġvi":3231,"Ġvil":3232,"Ġcast":3233,"Ġthen":3234,"Ġyire":3235,"outhern":3236,"bag":3237,"ndÃ¡Ã¡":3238,"ilt":3239,"Ġegg":3240,"kpere":3241,"bori":3242,"boli":3243,"Ġind":3244,"Ġinf":3245,"Ġthin":3246,"uluu":3247,"ullaa":3248,"ogra":3249,"Ã©Ã©":3250,"Åĭmaara":3251,"Ġnyiile":3252,"Ġkparoo":3253,"ution":3254,"iron":3255,"bele":3256,"Ġleather":3257,"Ġleaf":3258,"mph":3259,"Ġneg":3260,"Ġrec":3261,"Ġwhile":3262,"ÃłÃłnÉª":3263,"ĠgbÉĽÉĽ":3264,"Ġbonv":3265,"Ġorder":3266,"Ġbore":3267,"Ġfore":3268,"Ġpoor":3269,"É²Ãł":3270,"Ġlibi":3271,"ourney":3272,"Ġmele":3273,"ĠDe":3274,"Ġbik":3275,"ĠSaa":3276,"ĠSing":3277,"meÅĭ":3278,"gale":3279,"Ġsuch":3280,"soba":3281,"ĠpÉĶgelee":3282,"ellow":3283,"ÅĭgÊĬ":3284,"Ġtrees":3285,"Ġatta":3286,"Ġattemp":3287,"ÉĽgerebÉĽ":3288,"ogilee":3289,"Ġrites":3290,"Ġnoba":3291,"Ġnothing":3292,"Ġprot":3293,"uÅĭi":3294,"Ġnimiri":3295,"ĠMy":3296,"âĢ¦âĢ¦âĢ¦âĢ¦âĢ¦âĢ¦âĢ¦âĢ¦âĢ¦âĢ¦âĢ¦âĢ¦âĢ¦âĢ¦âĢ¦âĢ¦":3297,"Ġbreast":3298,"Ġgbori":3299,"ormally":3300,"ÉĶgerebÉĶ":3301,"Ġ12":3302,"Ġbetter":3303,"mÃ¡Ã¡rÊĬ":3304,"Ġlooking":3305,"Ġbride":3306,"Ġdifferent":3307,"velop":3308,"Ġinsult":3309,"Ġperform":3310,"uuluÅĭ":3311,"ollow":3312,"Ġsingular":3313,"Ġpraise":3314,"ĠÌĢÌĥ]":3315,"Ġnarrow":3316,"Ġloose":3317,"Dagaare":3318,"Ġgreen":3319,"Ġcourt":3320,"É²Ã¡ÅĭÃ¡Ã¡":3321,"Ġstruggle":3322,"Ġgroundnuts":3323,"Ġhusband":3324,"Ġcollect":3325,"Ġslowly":3326,"Ġsupernatural":3327,"')":3328,"./":3329,"00":3330,"English":3331,"Legon":3332,"Person":3333,"Se":3334,"ache":3335,"bÃ©":3336,"dam":3337,"dÃ¹":3338,"dÃ¨":3339,"daarÉĽÉĽ":3340,"dend":3341,"fÃ¡":3342,"food":3343,"ground":3344,"her":3345,"ied":3346,"kuuri":3347,"karÉĽÉĽ":3348,"lam":3349,"lÃ¹":3350,"mu":3351,"moÉĶ":3352,"mbÊĬ":3353,"nal":3354,"ope":3355,"ose":3356,"ped":3357,"pÃ³":3358,"pill":3359,"peÉĽle":3360,"rans":3361,"sg":3362,"tÉĽgÉĽ":3363,"vore":3364,"xe":3365,"yer":3366,"ÇĲ":3367,"Ġ5":3368,"ĠÉĶÅĭ":3369,"ÉĽne":3370,"ÌģÌģ":3371,"ÉĶÉĽ":3372,"Ġten":3373,"ĠtÉĶÉĶ":3374,"Ġtamb":3375,"ÌĢ/":3376,"Ġnut":3377,"Ġnow":3378,"Ġnent":3379,"plant":3380,"ĠabÉĽ":3381,"ĠaÅĭg":3382,"Ġbed":3383,"Ġbus":3384,"Ġbang":3385,"Ġbuulo":3386,"Ġsas":3387,"ĠsÎµ":3388,"Ġsong":3389,"Ġsize":3390,"inn":3391,"Ġkoro":3392,"Ġpor":3393,"Ġpun":3394,"Ġpay":3395,"Ġpere":3396,"Ġprom":3397,"ĠdÃ£a":3398,"Ġdanger":3399,"ĠlÎµ":3400,"Ġlaare":3401,"ĠwÉĶ":3402,"Ġwee":3403,"Ġwent":3404,"Ġwid":3405,"Ġoo":3406,"ĠoÉĶ":3407,"ĠgoÉĶ":3408,"ĠgaÅĭg":3409,"ĠmerÉĽ":3410,"Ġmess":3411,"ried":3412,"right":3413,"Ġvig":3414,"ĠvÉĽÅĭ":3415,"Ġcou":3416,"Ġhome":3417,"Ġhalf":3418,"illee":3419,"ĠeÅĭÉĽ":3420,"kpoÅĭ":3421,"kpÃ²":3422,"Ġzeg":3423,"reement":3424,"Ġbeer":3425,"boÅĭg":3426,"body":3427,"Ġinv":3428,"olli":3429,"Ġthink":3430,"Ġthought":3431,"ieh":3432,"iele":3433,"Ġkap":3434,"ngma":3435,"ngme":3436,"aked":3437,"eerebÉĽ":3438,"oÅĭe":3439,"oÅĭg":3440,"Ġkpaara":3441,"Ġstore":3442,"irst":3443,"nnÃ¡":3444,"ageraa":3445,"Ã²rÃŃ":3446,"entÉĶ":3447,"Ġlet":3448,"Ġleave":3449,"mpÉĶge":3450,"urb":3451,"Ġneed":3452,"ions":3453,"Ġsex":3454,"gbÉªÉĽ":3455,"Ġsore":3456,"ĠÅĭmamp":3457,"Ġgbor":3458,"Ġbonny":3459,"ĠNeg":3460,"verbs":3461,"Ġdeath":3462,"Ġdevelop":3463,"tori":3464,"Ġpori":3465,"Ġpost":3466,"egÉĽ":3467,"Ġrodent":3468,"nsÉĽ":3469,"Ġdoge":3470,"Ġsauce":3471,"Ġcondition":3472,"Ġmoving":3473,"gye":3474,"ellig":3475,"bÃŃrÃŃ":3476,"ĠpoÉĶrÉĶ":3477,"kÃ¡rÃ¡Ã¡":3478,"orning":3479,"ĠWhat":3480,"ampana":3481,"Ġload":3482,"bogiri":3483,"again":3484,"ĠFut":3485,"Ġtuber":3486,"oÅĭkomm":3487,"Ġprepar":3488,"Ġbirth":3489,"piiri":3490,"Ġnumbers":3491,"ugiraa":3492,"maaroÅĭ":3493,"Ġcaused":3494,"Ġbroken":3495,"Ġraised":3496,"Ġrespect":3497,"ziiri":3498,"Ġcooking":3499,"ĠboÅĭg":3500,"Ġacc":3501,"Ġacross":3502,"Ġdried":3503,"Ġdrinking":3504,"headed":3505,"Ġdivin":3506,"Ġcross":3507,"Ġcontin":3508,"Ġpainful":3509,"Ġprice":3510,"Ġfinished":3511,"ialog":3512,"atopoe":3513,"Ġuseless":3514,"Ġfirmly":3515,"Ġvegetable":3516,"flour":3517,"esterday":3518,"Ġbottom":3519,"Ġoneself":3520,"Ġuntil":3521,"Ġsubstance":3522,"bÃ¨bÃŃ":3523,"Dansieh":3524,"atopoeia":3525,"Li":3526,"Nu":3527,"Po":3528,"Pers":3529,"bre":3530,"bug":3531,"cow":3532,"don":3533,"dal":3534,"dog":3535,"dress":3536,"daky":3537,"fere":3538,"furi":3539,"gÃ¹":3540,"grÉĶ":3541,"glÃ¬":3542,"hana":3543,"ious":3544,"kÃ¡Ã¡":3545,"kÃ¨":3546,"large":3547,"mÎµ":3548,"mÃ¹":3549,"maara":3550,"money":3551,"neÉĽ":3552,"nce":3553,"nlÉĽ":3554,"nÃºÃº":3555,"nÃłÃ¡":3556,"ock":3557,"sel":3558,"sare":3559,"sent":3560,"tÃº":3561,"ub":3562,"uro":3563,"yÃ¬":3564,"zz":3565,"zÃŃ":3566,"ziiree":3567,"ĠÃ":3568,"ĠrÃ¡Ãł":3569,"Ġtan":3570,"ĠteÉĽre":3571,"ĠteÉĽrebÉĽ":3572,"ĠnoÉĶ":3573,"ĠnÉĶÅĭ":3574,"Ġabo":3575,"Ġber":3576,"Ġbent":3577,"Ġbath":3578,"Ġspl":3579,"Ġsan":3580,"Ġsid":3581,"Ġsuuri":3582,"ĠseÉĽrÉĽ":3583,"ĠsoÉĶrÉĶ":3584,"ÅĭÃ©":3585,"innaa":3586,"erri":3587,"Ġtobacco":3588,"Ġkon":3589,"Ġkal":3590,"ĠkoÉĶ":3591,"Ġkus":3592,"Ġkot":3593,"Ġpaa":3594,"Ġperi":3595,"Ġporri":3596,"Ġplural":3597,"ĠlÉĽÉĽ":3598,"ĠlÉĶÉĶre":3599,"Ġwi":3600,"Ġwel":3601,"ĠwoÅĭ":3602,"Ġwaare":3603,"Ġwono":3604,"Ġok":3605,"Ġoil":3606,"ĠfoÉĶ":3607,"Ġfur":3608,"Ġflo":3609,"Ġfara":3610,"Ġfuuro":3611,"Ġgar":3612,"Ġgour":3613,"Ġmak":3614,"Ġmater":3615,"Ġmort":3616,"Ġmorning":3617,"anary":3618,"ennee":3619,"Ġvul":3620,"Ġvelaa":3621,"ĠvÅ©u":3622,"orry":3623,"als":3624,"Ġcrow":3625,"Ġcult":3626,"Ġcalm":3627,"Ġhuman":3628,"Ġhorse":3629,"Ġyuori":3630,"omatopoeia":3631,"nemb":3632,"elope":3633,"back":3634,"ndÃ¬":3635,"Ġeff":3636,"kpiri":3637,"kpala":3638,"Ġzan":3639,"Ġbeb":3640,"Ġinform":3641,"oluÅĭ":3642,"Ġthorn":3643,"Ġthose":3644,"ielee":3645,"pege":3646,"ngÉĽ":3647,"akye":3648,"allaa":3649,"ogrÉĽÉĽ":3650,"ogiree":3651,"ogera":3652,"ÅĭmÃ¡Ã¡":3653,"Ġnyi":3654,"Ġnyag":3655,"ady":3656,"beene":3657,"biy":3658,"biÅĭ":3659,"Ġlere":3660,"Ġforce":3661,"Ġsearch":3662,"lÉĶre":3663,"Ġreg":3664,"gbÃŃ":3665,"nyaÅĭaa":3666,"Ġteg":3667,"mbÃ¡":3668,"mbÃŃ":3669,"mbie":3670,"mbÃ²":3671,"ÅĭkÃł":3672,"mÉĽlÉĽ":3673,"nte":3674,"Ġcho":3675,"iibu":3676,"Ġbondi":3677,"Ġgyi":3678,"ĠgyaÅĭgb":3679,"Ġdeme":3680,"Ġdeaf":3681,"ruct":3682,"Ġlips":3683,"Ġrot":3684,"nsÉª":3685,"ended":3686,"aract":3687,"pÉĶl":3688,"Ġsac":3689,"kori":3690,"koree":3691,"pore":3692,"ĠKyÉĽ":3693,"Ġbombo":3694,"Ġnaag":3695,"ÃºÃºrÃ¬":3696,"Ġunw":3697,"deree":3698,"Ġgaabo":3699,"arted":3700,"ift":3701,"ÃºÃ³rÃ¬":3702,"dzÃł":3703,"ĠsaaÅĭ":3704,"Ġnoise":3705,"Ġbutter":3706,"Ġtakp":3707,"Ġworm":3708,"kuree":3709,"Ġjourney":3710,"Ġpair":3711,"Ġsheep":3712,"Ġstranger":3713,"ĠdeÉĽnÉĽ":3714,"Ġblade":3715,"Ġclothes":3716,"lÃ³Åĭ":3717,"Ġcove":3718,"ĠBe":3719,"ĠBayuo":3720,"illed":3721,"zÉĽle":3722,"Ġduoro":3723,"Ġslightly":3724,"bÃ²gÃŃ":3725,"bÃ²gÃ¬":3726,"kÃºrÃŃ":3727,"Ġresid":3728,"pair":3729,"nimiri":3730,"ĠCor":3731,"ĠConj":3732,"Ġsurface":3733,"Ġopening":3734,"Ġkarem":3735,"Ġfalling":3736,"Ġmyst":3737,"Ġantelope":3738,"ĠmaaroÅĭ":3739,"Ġrubb":3740,"Ġextra":3741,"grass":3742,"Ġpolice":3743,"ĠniÅĭe":3744,"Ġbehind":3745,"Ġvegetation":3746,"Ġsix":3747,"Ġmarket":3748,"Ġmiddle":3749,"Ġlocal":3750,"remely":3751,"aturalness":3752,"Ġcorpse":3753,"Ġmounds":3754,"Ġmeasure":3755,"Ġtwisted":3756,"Ġflesh":3757,"Ġgreeting":3758,"Ġclouds":3759,"Ġasibiti":3760,"Ġvillage":3761,"pillar":3762,"Ġgourd":3763,"-Ìģ":3764,"Ch":3765,"Do":3766,"EG":3767,"Glo":3768,"Good":3769,"Sing":3770,"Water":3771,"awa":3772,"aced":3773,"ball":3774,"bone":3775,"bara":3776,"baal":3777,"das":3778,"deri":3779,"farm":3780,"goÉĶ":3781,"gir":3782,"gla":3783,"gbÉĶ":3784,"geraa":3785,"glÃ¡Ãł":3786,"iÅĭk":3787,"ially":3788,"kat":3789,"kus":3790,"kÃ£a":3791,"ká¹¹":3792,"lare":3793,"mpe":3794,"mbile":3795,"nen":3796,"noore":3797,"nens":3798,"ogere":3799,"pow":3800,"pÍ»":3801,"pÄ©i":3802,"rate":3803,"rka":3804,"sÃ¬":3805,"squ":3806,"tÃŃ":3807,"vÃł":3808,"vÃŃ":3809,"vers":3810,"wom":3811,"wÃº":3812,"wood":3813,"yÃł":3814,"yed":3815,"zÉĶÉĶ":3816,"Åı":3817,"ÇĶ":3818,"âĨ":3819,"Ġutter":3820,"Ìģ'":3821,"Ġtie":3822,"Ġtrans":3823,"ĠnÉĶg":3824,"Ġnang":3825,"Ġnormally":3826,"Ġara":3827,"Ġahead":3828,"ĠbÉĽÉĽ":3829,"Ġbite":3830,"Ġbowl":3831,"Ġbring":3832,"Ġsat":3833,"Ġsus":3834,"Ġsla":3835,"Ġsay":3836,"Ġsane":3837,"Ġsaal":3838,"Ġsigi":3839,"Ġsister":3840,"erf":3841,"ering":3842,"ony":3843,"onomatopoeia":3844,"Ġtog":3845,"Ġtou":3846,"ÉªÅĭ":3847,"Ġkara":3848,"Ġkno":3849,"ĠkoÉĶrÉĶ":3850,"Ġkaareba":3851,"Ġpim":3852,"Ġpers":3853,"Ġpile":3854,"Ġpress":3855,"Ġpuuro":3856,"Ġpond":3857,"Ġpester":3858,"Ġlie":3859,"Ġline":3860,"Ġlate":3861,"Ġloud":3862,"Ġoli":3863,"Ġown":3864,"Ġfar":3865,"Ġfent":3866,"Ġfour":3867,"Ġfif":3868,"ĠfoÉĶrÉĶ":3869,"Ġfuuribo":3870,"Ġgor":3871,"Ġgal":3872,"Ġgare":3873,"Ġgun":3874,"Ġgum":3875,"ĠgoÉĶrÉĶ":3876,"ĠgeÅĭ":3877,"Ġmel":3878,"Ġmad":3879,"Ġmind":3880,"Ġmaraa":3881,"Ġmust":3882,"aning":3883,"eness":3884,"gel":3885,"ĠverÉĽ":3886,"Ġvara":3887,"ĠvoÉĶrÉĶ":3888,"Ġcould":3889,"Ġcalf":3890,"ingly":3891,"eÉĽbo":3892,"Ġyog":3893,"Ġyaara":3894,"ĠyÉĽre":3895,"Ġyagra":3896,"Ġyesterday":3897,"Ġlazy":3898,"edi":3899,"eluu":3900,"oured":3901,"nde":3902,"ndÉĽ":3903,"ils":3904,"iling":3905,"ĠeÅĭkp":3906,"kpa":3907,"kpÉªÉª":3908,"kpoli":3909,"kpaÅĭkp":3910,"Ġzom":3911,"Ġzam":3912,"ĠzÉĶÅĭ":3913,"ĠzÉĶÉĶre":3914,"ashed":3915,"Ġbear":3916,"Ġadult":3917,"rage":3918,"amed":3919,"Ã¡Ã¡nÉª":3920,"bÉĽlemÉĽ":3921,"ulaa":3922,"ngth":3923,"igree":3924,"igiribe":3925,"ÅĭmÃ¡":3926,"ÅĭmÃ¡nÉª":3927,"ict":3928,"icy":3929,"Ġnyuuro":3930,"eebo":3931,"ĠkpoÅĭkp":3932,"mare":3933,"arem":3934,"irc":3935,"nnÃ¡Ãł":3936,"ĠĠčĊ":3937,"cept":3938,"ÌĥÌĢ":3939,"kÉĶns":3940,"ste":3941,"stri":3942,"Ġneat":3943,"idaa":3944,"Ã¹lÃ¬":3945,"Ġsepar":3946,"gbÃ¡":3947,"gbÃ³":3948,"gbÃ¨":3949,"nyÉĶge":3950,"ching":3951,"ages":3952,"mbÃł":3953,"mbiri":3954,"ĠÅĭmÉĽg":3955,"ĠÅĭmaara":3956,"Ġcharact":3957,"ÃłÃłlÊĬ":3958,"Ġshare":3959,"iilee":3960,"antly":3961,"kyi":3962,"Ġgye":3963,"ĠgyoÅĭ":3964,"Ġsmell":3965,"Ġsmoke":3966,"Ġdeg":3967,"apÉĶge":3968,"Ġmaize":3969,"egion":3970,"áº½áº½":3971,"Ġite":3972,"Ġmeant":3973,"Ġmanne":3974,"teen":3975,"ĠDab":3976,"ĠbiÅĭi":3977,"pÉĽgÉª":3978,"mele":3979,"Ġsukyiri":3980,"Ġcons":3981,"gyi":3982,"Ġbompe":3983,"ĠbompÉĽ":3984,"aved":3985,"Ġfear":3986,"Ġfeast":3987,"Ġspace":3988,"Ġunc":3989,"ÉĽgele":3990,"ÉĶrebÉĶ":3991,"Ġweight":3992,"ĠWest":3993,"Ġrice":3994,"Ġrich":3995,"dzÃ¬":3996,"Ġsaana":3997,"noon":3998,"bÃ¬rÃŃ":3999,"mother":4000,"Ġflow":4001,"Ġproble":4002,"Ġjud":4003,"Ġbuy":4004,"Ã¡ÅĭÃ¡":4005,"Ġwaabo":4006,"nzÉĶ":4007,"sÉªrÉª":4008,"bogri":4009,"bogree":4010,"ĠennÉĽ":4011,"ĠlegerÉĽ":4012,"Ġnimib":4013,"Ġcob":4014,"Ġtwine":4015,"gÃłÅĭg":4016,"Ġpartic":4017,"ghten":4018,"Ġgbeg":4019,"Ġscar":4020,"Ġscra":4021,"kÃ³gÃŃ":4022,"pÉªlÃłÃ¡":4023,"gÃ¡nÉª":4024,"ĠGhana":4025,"Ġable":4026,"Ġbrother":4027,"Ġresult":4028,"ĠCh":4029,"Ġmature":4030,"ĠdÃ£ad":4031,"unted":4032,"Ġtaken":4033,"Ġcattle":4034,"Ġamount":4035,"Ġfried":4036,"have":4037,"kÉĶÉĶloÅĭ":4038,"Ġfixed":4039,"kpÃ³Åĭ":4040,"kpele":4041,"sÃ£ak":4042,"Ġcareful":4043,"dÃ¡Ã¡nÃ¡":4044,"Ġextremely":4045,"Ġtraditional":4046,"Ġdivor":4047,"Ġstream":4048,"Ġcrops":4049,"ogiribo":4050,"Ġtightly":4051,"Ġsickness":4052,"Ġpointed":4053,"Ġngma":4054,"Ġintellig":4055,"Ġmonkey":4056,"Ġclaim":4057,"Ġsquee":4058,"ĠkaleÅĭk":4059,"ĠRegion":4060,"ĠUpper":4061,"Ġhunter":4062,"Ġhelpless":4063,"ppery":4064,"literature":4065,"runk":4066,"âĢ¦âĢ¦âĢ¦âĢ¦âĢ¦âĢ¦âĢ¦âĢ¦âĢ¦âĢ¦âĢ¦âĢ¦âĢ¦âĢ¦":4067,"Ġcountry":4068,"Ġdecor":4069,"Ġdestro":4070,"Ġbehaviour":4071,"Ġxylophone":4072,"Ġpunish":4073,"Ġcontinu":4074,"ialogue":4075,"Ġporridge":4076,"Ġeffort":4077,"Ġresidue":4078,"Gloss":4079,".âĢĻ":4080,"17":4081,"30":4082,"Bad":4083,"Eye":4084,"Gbe":4085,"NÃº":4086,"Zi":4087,"buri":4088,"black":4089,"dund":4090,"eye":4091,"fÃµÉĶ":4092,"first":4093,"gar":4094,"gan":4095,"gÎµ":4096,"glÃŃ":4097,"grÃ¡Ã¡":4098,"grÊĬ":4099,"hy":4100,"iver":4101,"iinee":4102,"koÉĶ":4103,"kta":4104,"koli":4105,"kÃ¹rÃ¬":4106,"land":4107,"mat":4108,"mba":4109,"mÍ»":4110,"mere":4111,"mÃłÃł":4112,"mind":4113,"made":4114,"nÉĶÉĶ":4115,"nÃ©":4116,"nÃ¡Ãł":4117,"nonhuman":4118,"pÃ£":4119,"pulo":4120,"pond":4121,"ral":4122,"rÃºÅĭ":4123,"saare":4124,"serÉĽÉĽ":4125,"sure":4126,"sue":4127,"sely":4128,"tÉĽÉĽ":4129,"tam":4130,"take":4131,"tÃºÃº":4132,"tens":4133,"tÉªrÉª":4134,"taÅĭe":4135,"vi":4136,"vÃ¹":4137,"wl":4138,"wÃ©":4139,"woore":4140,"worm":4141,"yee":4142,"zed":4143,"zoo":4144,"zare":4145,"zug":4146,"zoore":4147,"Ġ6":4148,"Ġid":4149,"ĠrÉĶ":4150,"Ġiron":4151,"ÉĶraa":4152,"Ġtre":4153,"Ġtin":4154,"Ġtere":4155,"Ġtru":4156,"Ġtry":4157,"ĠtuÅĭ":4158,"Ġnur":4159,"Ġass":4160,"Ġata":4161,"Ġaff":4162,"Ġaxe":4163,"Ġbin":4164,"Ġbar":4165,"ĠbÃ¡Ã¡":4166,"ĠbÉĶÉĶ":4167,"ĠbÍ»":4168,"ĠbeÉĽrebÉĽ":4169,"ĠsaÅĭ":4170,"Ġsad":4171,"Ġsag":4172,"ÅĭenÉĽ":4173,"ones":4174,"Ġtot":4175,"Ġtori":4176,"Ġke":4177,"Ġkat":4178,"ĠkÊĬ":4179,"Ġkne":4180,"ĠkoÅĭk":4181,"ĠkoÉĶraa":4182,"Ġkerek":4183,"Ġph":4184,"Ġpul":4185,"ĠpÍ»":4186,"ĠpÉĶg":4187,"Ġpire":4188,"ĠpÉĽg":4189,"ĠparÉĽÉĽ":4190,"ĠpeÉĽraa":4191,"ĠpeÉĽrebÉĽ":4192,"Ġpiire":4193,"Ġdat":4194,"Ġdand":4195,"Ġdaara":4196,"ĠdoÉĶrebÉĶ":4197,"Ġplaced":4198,"ĠlÃ¡Ã¡":4199,"Ġlorry":4200,"Ġog":4201,"Ġfla":4202,"Ġfeg":4203,"Ġfest":4204,"Ġfinal":4205,"Ġfeet":4206,"Ġgri":4207,"Ġgara":4208,"Ġgently":4209,"Ġmer":4210,"Ġmiri":4211,"Ġmare":4212,"Ġmii":4213,"Ġmara":4214,"Ġmoore":4215,"Ġmist":4216,"ĠmorÉĶ":4217,"ĠmerebÉĽ":4218,"enÉĶ":4219,"enime":4220,"Ġvaaraa":4221,"Ġvareba":4222,"orns":4223,"orous":4224,"Ġce":4225,"Ġcool":4226,"âĢĿ":4227,"roat":4228,"itor":4229,"Ġhy":4230,"eÉĽnaa":4231,"Ġyiribe":4232,"ede":4233,"ndÃłÃ¡":4234,"kpÊĬ":4235,"Ã¬rÃŃ":4236,"bol":4237,"ollee":4238,"Ġthresh":4239,"iere":4240,"imaa":4241,"ulty":4242,"ulimo":4243,"usk":4244,"using":4245,"igri":4246,"ogre":4247,"ÅĭmÃł":4248,"ÅĭmÊĬ":4249,"Åĭmane":4250,"Ġnya":4251,"Ġnyaa":4252,"Ġnyaal":4253,"Ġstep":4254,"Ġstunted":4255,"ĠAll":4256,"ĠAyuo":4257,"nning":4258,"beerÉĽÉĽ":4259,"yÉĽrÉĽÉĽ":4260,"bieri":4261,"Ġless":4262,"ĠleÉĽre":4263,"ÉĶga":4264,"kÉĶnn":4265,"mpoÉĶ":4266,"ster":4267,"stand":4268,"Ġnever":4269,"teroo":4270,"nyere":4271,"Ġheld":4272,"mbÃŃrÃ¬":4273,"ÅĭkÃ³":4274,"ÅĭkÃ£a":4275,"nts":4276,"ntÃł":4277,"ntÊĬ":4278,"ntÍ»":4279,"ntÉªÉĽ":4280,"Ġsoba":4281,"Ġshoot":4282,"Ġshape":4283,"ete":4284,"Ġgbel":4285,"Ġbole":4286,"Ġsmear":4287,"ĠkÉĶmb":4288,"tocks":4289,"Ġposs":4290,"É²ÉªrÉª":4291,"rument":4292,"ÉĽgrÉª":4293,"Ġlife":4294,"Ġlives":4295,"Ġlikes":4296,"nÉªmb":4297,"Ġroam":4298,"Ġmembers":4299,"dÃłÊ§":4300,"Ġdoor":4301,"abit":4302,"ĠDÉĽre":4303,"pÉĶle":4304,"kele":4305,"kelee":4306,"pÉĽle":4307,"aterpillar":4308,"pori":4309,"Ġmosqu":4310,"gyere":4311,"enema":4312,"ĠnÉĶkp":4313,"Ġnaasaal":4314,"ÃºÃºlÃŃ":4315,"bÃŃnÃŃ":4316,"athers":4317,"Ġfeathers":4318,"shaped":4319,"Ġspro":4320,"kÃ¡lÉª":4321,"Ġwear":4322,"Ġweed":4323,"ogiraa":4324,"eÉĽrebÉĽÉĽ":4325,"Ġoutside":4326,"Ġupright":4327,"ibling":4328,"ĠnyÉĽrÉĽ":4329,"Ġworld":4330,"weight":4331,"Ġbaaraa":4332,"kuÅĭk":4333,"Ġburo":4334,"Ġwaana":4335,"nzÉªÉĽ":4336,"ĠPART":4337,"agao":4338,"Ġenough":4339,"Ġenclo":4340,"Ġpier":4341,"arrel":4342,"yelb":4343,"Ġnimip":4344,"ĠMaa":4345,"zuiÅĭ":4346,"Ġallow":4347,"lÃłÅĭ":4348,"Ġran":4349,"Ġnubi":4350,"ĠpÉĶle":4351,"Ġparents":4352,"dÉĽrÉª":4353,"Ġtrap":4354,"Ġears":4355,"Ġpuoro":4356,"Ġworkers":4357,"Ġpieces":4358,"Ġcauses":4359,"Ġapp":4360,"Ġpowd":4361,"Ġpowers":4362,"Ġpowder":4363,"Ġeaten":4364,"Ġluro":4365,"Ġbroom":4366,"ĠYou":4367,"Ġrespond":4368,"Ġafternoon":4369,"tered":4370,"ogiluu":4371,"nÃŃmÃŃrÃ¬":4372,"Ġtaking":4373,"Ġants":4374,"Ġspec":4375,"Ġfrighten":4376,"Ġfield":4377,"Ġsettle":4378,"Ġdespair":4379,"ept":4380,"woorÉĽÉĽ":4381,"Ġgrowth":4382,"Ġshoulder":4383,"Ġhuge":4384,"Ġagreement":4385,"Ġmiss":4386,"wÉªrÉĽ":4387,"Ġdirect":4388,"Ġjoke":4389,"ÍĤÌĢ":4390,"Ġsitu":4391,"bÃłÃłlÊĬ":4392,"Ġimmature":4393,"Ġkyebe":4394,"Ġinstrument":4395,"cloth":4396,"Ġsolid":4397,"Ġstanding":4398,"Ġdawdaw":4399,"................":4400,"mites":4401,"Ġappear":4402,"Ġannoy":4403,"Ġbloated":4404,"Ġsleep":4405,"Ġslimy":4406,"which":4407,"Ġmeeting":4408,"Ġteacher":4409,"Ġslippery":4410,"Ġpuppy":4411,"Ġvarev":4412,"Ġjump":4413,"Ġhidden":4414,"Ġpregnant":4415,"ĠâĢĵ":4416,"Ġindic":4417,"Ġattempt":4418,"Ġdangerous":4419,"Ġweek":4420,"Ġcourage":4421,"selves":4422,"ĠÃĴ":4423,"Ġabove":4424,"Ġmortar":4425,"Ġcrowd":4426,"Ġmysterious":4427,"woman":4428,"ÅıÉĶ":4429,"âĨĵ":4430,"Ġcharacter":4431,"Ġproblem":4432,"Ġaffect":4433,"Ġenclosure":4434,".-":4435,"18":4436,"Baa":4437,"Daa":4438,"DÉĶÉĶ":4439,"DÃ£":4440,"Eres":4441,"Go":4442,"It":4443,"Na":4444,"PL":4445,"St":4446,"Wa":4447,"ax":4448,"by":4449,"bul":4450,"big":4451,"barÉĽÉĽ":4452,"boro":4453,"born":4454,"baaraa":4455,"bulo":4456,"bany":4457,"bini":4458,"dÃº":4459,"ek":4460,"ex":4461,"foÉĶ":4462,"fÃ¹":4463,"ging":4464,"gÍ»":4465,"gbi":4466,"gbÊĬ":4467,"gda":4468,"grÃ¡Ãł":4469,"gaÅĭg":4470,"ganaa":4471,"kin":4472,"kak":4473,"kaare":4474,"kere":4475,"kant":4476,"kap":4477,"lÍ»":4478,"lbÉĶ":4479,"light":4480,"look":4481,"my":4482,"meÉĽ":4483,"mÉªÉĽ":4484,"mÃ¨":4485,"muri":4486,"mara":4487,"mbiiree":4488,"mÃłÃłlÉª":4489,"nare":4490,"nÍ»":4491,"nent":4492,"press":4493,"rbÉĶ":4494,"rup":4495,"son":4496,"soÉĶ":4497,"sÉĽre":4498,"samp":4499,"sugo":4500,"sÉĶgelaa":4501,"tage":4502,"tÉĽrÉĽ":4503,"tongue":4504,"uoÅĭaa":4505,"vÉªÉĽ":4506,"vÃ¡Ãł":4507,"vorous":4508,"wor":4509,"werÉĽ":4510,"weÉĽlÉĽ":4511,"who":4512,"you":4513,"yoÉĶ":4514,"yÃłÃł":4515,"zuri":4516,"zanz":4517,"É¡":4518,"á½":4519,"ĠÃ¡nÉª":4520,"Ġty":4521,"ĠtÉª":4522,"Ġtal":4523,"Ġtas":4524,"Ġtage":4525,"Ġtara":4526,"ĠtÉĽre":4527,"Ġtáº½ÉĽ":4528,"Ġteere":4529,"Ġtreat":4530,"Ġtigiri":4531,"rel":4532,"rep":4533,"ĠnÊĬ":4534,"Ġnam":4535,"Ġnuuri":4536,"Ġnest":4537,"Ġnagra":4538,"Ġnaturalness":4539,"ĠaÅĭ":4540,"Ġash":4541,"Ġaku":4542,"ĠazuiÅĭ":4543,"ĠberÉĽ":4544,"ĠbarÉĽÉĽ":4545,"Ġbell":4546,"Ġsam":4547,"Ġsow":4548,"Ġsell":4549,"ĠseÉĽre":4550,"Ġsans":4551,"Ġsamp":4552,"Ġsnat":4553,"ĠsÉĶgerÉĶ":4554,"ĠsÉĶgereba":4555,"inv":4556,"erment":4557,"Ġtora":4558,"Ġtowards":4559,"ĠkÉĽ":4560,"Ġkor":4561,"Ġkur":4562,"Ġkamp":4563,"Ġkaaraa":4564,"Ġkooreba":4565,"Ġkept":4566,"Ã¡n":4567,"ĠpÉĽÉĽ":4568,"Ġpil":4569,"Ġpur":4570,"Ġpuri":4571,"Ġpaara":4572,"Ġpaale":4573,"Ġpast":4574,"Ġport":4575,"Ġpuori":4576,"Ġpure":4577,"Ġpound":4578,"Ġdw":4579,"Ġdou":4580,"ĠdoÅĭ":4581,"ĠdarÉĽÉĽ":4582,"Ġdish":4583,"Ġdust":4584,"Ġduoribo":4585,"Ġple":4586,"Ġlim":4587,"Ġlig":4588,"Ġlow":4589,"ĠlÉĶre":4590,"Ġlaareba":4591,"Ġlying":4592,"araÅĭ":4593,"Ġwuo":4594,"ĠweÉĽrÉĽ":4595,"ĠwoÅĭi":4596,"Ġwonimo":4597,"Ġwrest":4598,"Ġwrong":4599,"Ġful":4600,"Ġfine":4601,"Ġfill":4602,"Ġfind":4603,"Ġfuribo":4604,"Ġgi":4605,"Ġgog":4606,"Ġgareba":4607,"Ġmor":4608,"Ġmass":4609,"enni":4610,"Ġva":4611,"Ġvaa":4612,"ĠverebÉĽ":4613,"Ġvari":4614,"ord":4615,"alaaraa":4616,"Ġcri":4617,"Ġcase":4618,"ings":4619,"itch":4620,"itche":4621,"Ġhi":4622,"Ġhur":4623,"Ġhook":4624,"eÉĽmÉĽÉĽ":4625,"eÉĽloo":4626,"Ġyo":4627,"ĠyÉĽÉĽ":4628,"ĠyoÅĭ":4629,"Ġlad":4630,"ĠlaÅĭ":4631,"oming":4632,"ellÉĽÉĽ":4633,"oul":4634,"balee":4635,"bamb":4636,"baÅĭk":4637,"ndÃŃ":4638,"ilo":4639,"ilar":4640,"Ġem":4641,"Ġeight":4642,"kpo":4643,"kpÃ¡Ã¡":4644,"kpaare":4645,"kpÃ´Åĭ":4646,"Ġzon":4647,"ĠzaÅĭ":4648,"Ġzog":4649,"ĠzeÉĽrebÉĽ":4650,"Ġbeam":4651,"bore":4652,"bole":4653,"bolee":4654,"bolo":4655,"uur":4656,"Ġinward":4657,"oly":4658,"ollaa":4659,"iribee":4660,"Ġthroat":4661,"bÉĽrÉĽÉĽ":4662,"ieves":4663,"Ġbareba":4664,"ulbo":4665,"pele":4666,"ngko":4667,"ngka":4668,"akoraa":4669,"ign":4670,"ogri":4671,"ogree":4672,"ÉĶgeleba":4673,"icious":4674,"Ġnyon":4675,"ĠnyeÉĽrÉĽ":4676,"adawa":4677,"utton":4678,"ĠTZ":4679,"irge":4680,"irrel":4681,"nnoo":4682,"seerÉĽÉĽ":4683,"bebi":4684,"yÉĽle":4685,"âĢ¦.":4686,"ctor":4687,"entÉĶÅĭ":4688,"lace":4689,"kÉĶntÉĶ":4690,"mpÃŃ":4691,"Ġansw":4692,"stly":4693,"ersion":4694,"lÉªgÉª":4695,"lÉªmÃ¡":4696,"ider":4697,"bÉĶle":4698,"Ġsevere":4699,"Ġregre":4700,"laara":4701,"laarÉĽÉĽ":4702,"nya":4703,"agereba":4704,"Ġwhip":4705,"loc":4706,"Ġhen":4707,"Ġhear":4708,"Ġheight":4709,"ÅĭkÃ£":4710,"ntere":4711,"Ġdav":4712,"Ġdale":4713,"Ġonto":4714,"Ġshall":4715,"Ġshout":4716,"Ġgbara":4717,"Ġgbiribe":4718,"Ġbony":4719,"Ġgyo":4720,"Ġgyere":4721,"Ġbox":4722,"Ġboiled":4723,"ĠkÉĶmp":4724,"ĠkÉĶmbÉĶ":4725,"ĠkÉĶllÉĶ":4726,"ĠNa":4727,"ĠNg":4728,"ĠNo":4729,"Ġdebt":4730,"ongy":4731,"Ġpop":4732,"É²Ãº":4733,"Ġlift":4734,"egiri":4735,"egerÉĽÉĽ":4736,"nÉĽne":4737,"Ġroll":4738,"Ġrobb":4739,"nsÃ¡Ã¡":4740,"Ġkoe":4741,"Ġmeaning":4742,"nivorous":4743,"Ġdoing":4744,"Ġmane":4745,"teerÉĽÉĽ":4746,"ards":4747,"ĠDuring":4748,"Ġbiy":4749,"pÉĶlÉĶ":4750,"ĠSince":4751,"ĠSpec":4752,"pÉĽrÉĽ":4753,"bonf":4754,"qual":4755,"pos":4756,"pose":4757,"Å©Å©":4758,"ĠÉĶrÉĶ":4759,"Ġboma":4760,"Ġnaad":4761,"ava":4762,"ĠfeelÉĽ":4763,"ÅĭkpÃ³":4764,"kÃ¡rÉª":4765,"Ġpeel":4766,"ĠgaaÉĽ":4767,"ileÅĭ":4768,"ĠWa":4769,"ĠyÉĽrÉĽ":4770,"ĠyÉĽreba":4771,"Ġwasp":4772,"ify":4773,"dzÊĬ":4774,"...":4775,"ĠnyÉĽllÉĽ":4776,"Ġnose":4777,"bÃ¬rÃ¬":4778,"ival":4779,"Ġword":4780,"wear":4781,"Ê§ÉĽ":4782,"ĠdÉĶÉĶta":4783,"Ġbuying":4784,"Ġyele":4785,"Ġyear":4786,"ĠPÍ»":4787,"bogiree":4788,"Ġgranary":4789,"female":4790,"ĠdeÉĽne":4791,"ĠFOC":4792,"ĠpÉĽnemÉĽ":4793,"ĠpÉĽnnÉĽ":4794,"Ġblunt":4795,"ĠtÉĶnema":4796,"sÃłlÉª":4797,"Ġquest":4798,"Ġtwins":4799,"Ġpots":4800,"oribo":4801,"Ġswelling":4802,"Ġswallow":4803,"Ġmix":4804,"lessness":4805,"Ġprevent":4806,"Ġrainy":4807,"allenge":4808,"zaÉĽ":4809,"ĠkuÅĭk":4810,"saalaa":4811,"ĠlÉĶreba":4812,"ĠlÉĶnnÉĶ":4813,"Ġkpere":4814,"Ġbirds":4815,"ĠGod":4816,"Ġcaution":4817,"Ġapply":4818,"ĠzÉĽnz":4819,"Ġduck":4820,"rÃ³Ã³":4821,"duor":4822,"Ġbroth":4823,"dÃ¬Ã¨":4824,"phant":4825,"ĠEven":4826,"ollen":4827,"Ġbitter":4828,"Ġsoul":4829,"Ġbright":4830,"Ġcatch":4831,"zÃ¡nz":4832,"Ġamong":4833,"hair":4834,"Ġuoro":4835,"gbale":4836,"á¹į":4837,"ĠkÉĶkÉĶl":4838,"Ã¹Ã²rÃ¬":4839,"ĠwÉĶÉĶrÉĶ":4840,"grand":4841,"lÃ¨Ã¨":4842,"Ġdisturb":4843,"Ġdifficulty":4844,"They":4845,"mÉªlÉª":4846,"Ġpowerful":4847,"Ġconfused":4848,"Ġattend":4849,"Ġclay":4850,"Ġpract":4851,"Ġdrag":4852,"Ġdraw":4853,"Ġimmedi":4854,"Ġmuddy":4855,"Ġcarrying":4856,"fuom":4857,"Ġdankyini":4858,"Ġuuno":4859,"Ġtomorrow":4860,"Ġkamaa":4861,"Ġkamaana":4862,"Ġbottle":4863,"Ġwitch":4864,"Ġmusical":4865,"ĠvÅ©Å©":4866,"Ġcurved":4867,"white":4868,"ertile":4869,"pecially":4870,"Ġdelay":4871,"Ġwickedness":4872,"cern":4873,"Ġcompound":4874,"Ġprepared":4875,"Ġillness":4876,"Ġtontonema":4877,"Ġowner":4878,"Ġengage":4879,"Ġwinnow":4880,"Ġescaped":4881,"Ġstretch":4882,"Ġdrop":4883,"Ġeggs":4884,"Ġrecently":4885,"Ġbangle":4886,"Ġmaterial":4887,"ká¹¹á¹¹":4888,"Ġseparate":4889,"Ġitems":4890,"Ġjudge":4891,"Ġfestival":4892,"Ġmosquito":4893,"Ġsprout":4894,"Ġsituation":4895,"Eresong":4896,"itchen":4897,"Ġregret":4898,".'":4899,"22":4900,"24":4901,"52":4902,"Drink":4903,"Dialogue":4904,"KÉĶ":4905,"Mtt":4906,"NyÉĽ":4907,"SG":4908,"Saa":4909,"Some":4910,"Southern":4911,"What":4912,"Yu":4913,"abab":4914,"ban":4915,"bri":4916,"bel":4917,"bÉĶÉĶ":4918,"bÃłÃ¡":4919,"bath":4920,"beÉĽre":4921,"buuli":4922,"baaloÅĭ":4923,"cl":4924,"car":4925,"cut":4926,"dÃŃ":4927,"doÉĶ":4928,"darÉĽÉĽ":4929,"dav":4930,"dale":4931,"down":4932,"fi":4933,"fel":4934,"fÃŃ":4935,"fee":4936,"fÃ£":4937,"fare":4938,"fire":4939,"fÃ¡rÉª":4940,"fice":4941,"foori":4942,"gÉĽÉĽ":4943,"gÃ¡Ã¡":4944,"gare":4945,"giv":4946,"gori":4947,"ier":4948,"joy":4949,"kal":4950,"king":4951,"kom":4952,"kad":4953,"kamp":4954,"koÉĶnÉĽÉĽ":4955,"ls":4956,"lli":4957,"lind":4958,"logi":4959,"muu":4960,"mant":4961,"mÃ¡Ãł":4962,"mÉªÉª":4963,"mouth":4964,"nam":4965,"nÃ³":4966,"nic":4967,"nut":4968,"nse":4969,"nÉĶg":4970,"nnee":4971,"ok":4972,"oon":4973,"piri":4974,"pÃ©":4975,"pÃ¨":4976,"puri":4977,"pile":4978,"pÃ£a":4979,"páº½ÉĽ":4980,"pito":4981,"paalaa":4982,"rÃ¹":4983,"rÃºÃº":4984,"sy":4985,"sal":4986,"sit":4987,"sas":4988,"sug":4989,"sÉĽge":4990,"sÃ£a":4991,"sÉªÉª":4992,"saraa":4993,"saÅĭkp":4994,"tone":4995,"tÉĽre":4996,"tÉĶre":4997,"taÅĭaa":4998,"velaa":4999,"vÅ©u":5000,"weÉĽmÉĽ":5001,"yÉĽÉĽ":5002,"yam":5003,"yÉªÉĽ":5004,"yiree":5005,"zup":5006,"zÃłÃ¡":5007,"zib":5008,"zamb":5009,"záº½e":5010,"zÉĶÅĭe":5011,"Ã®":5012,"Ġ7":5013,"Ġ8":5014,"Ġer":5015,"Ġug":5016,"Ġur":5017,"ĠeÉĽrÉĽ":5018,"ĠÉĽrÉĽ":5019,"ÉĽle":5020,"ÉĽroo":5021,"ÉĽlemÉĽ":5022,"Ìģ/":5023,"ÉĶlÉĶ":5024,"Ġtee":5025,"Ġtarge":5026,"Ġtum":5027,"Ġtiire":5028,"ĠtÉĶglÉĶ":5029,"Ġtask":5030,"Ġtongue":5031,"ream":5032,"ĠnnÉª":5033,"Ġnuuli":5034,"aabo":5035,"Ġama":5036,"ĠaÅĭk":5037,"Ġbire":5038,"Ġbara":5039,"ĠbÉĶÅĭ":5040,"ĠbÉĶre":5041,"ĠboÉĶraa":5042,"Ġbuulee":5043,"Ġbarn":5044,"Ġser":5045,"Ġson":5046,"Ġsed":5047,"ĠsÃ£":5048,"Ġsand":5049,"Ġsaale":5050,"ĠselÉĽ":5051,"Ġsimm":5052,"Ġsowing":5053,"Ġsince":5054,"Ġsibling":5055,"leÅĭ":5056,"lease":5057,"Ġtoe":5058,"Ġtor":5059,"ĠtoloÅĭ":5060,"Ġkn":5061,"Ġkin":5062,"Ġker":5063,"Ġkill":5064,"Ġkans":5065,"Ġkomm":5066,"Ã¡rÃ¡":5067,"Ġpick":5068,"ĠporÉĶ":5069,"Ġpille":5070,"ĠpaalÉĽÉĽ":5071,"hered":5072,"ĠdeÉĽrÉĽ":5073,"Ġdind":5074,"Ġdareba":5075,"Ġdomp":5076,"Ġdrunk":5077,"Ġditch":5078,"Ġdirge":5079,"Ġplent":5080,"arr":5081,"arie":5082,"Ġwon":5083,"Ġwide":5084,"ĠwelÉĽ":5085,"Ġwarn":5086,"Ġwatch":5087,"Ġour":5088,"Ġoily":5089,"Ġfre":5090,"ĠfeÉĽ":5091,"Ġfed":5092,"Ġfuri":5093,"Ġfaareba":5094,"Ġfanf":5095,"Ġfollow":5096,"Ġfilled":5097,"Ġgoo":5098,"ĠgaÅĭk":5099,"Ġguulo":5100,"Ġmal":5101,"Ġmag":5102,"ĠmarÉĽÉĽ":5103,"ĠmoÉĶlÉĶ":5104,"Ġmalt":5105,"ances":5106,"rist":5107,"gese":5108,"gelÉĶ":5109,"Ġvan":5110,"Ġvere":5111,"Ġvalle":5112,"ĠveÉĽlÉĽ":5113,"ately":5114,"athered":5115,"ors":5116,"rol":5117,"roverbs":5118,"its":5119,"Ġhon":5120,"Ġhaara":5121,"Ġhip":5122,"Ġyaare":5123,"Ġlam":5124,"Ġlaugh":5125,"omit":5126,"ombiri":5127,"neÅĭk":5128,"iss":5129,"nda":5130,"ndaa":5131,"ndÊĬ":5132,"ility":5133,"Ġev":5134,"Ġeas":5135,"Ġemm":5136,"Ġeart":5137,"Ġequal":5138,"kpÃŃ":5139,"kpÃ£":5140,"kpÃłÃ¡":5141,"kpáº½ÉĽ":5142,"kpÉĽrÉĽ":5143,"kpÉªrÉª":5144,"kpaana":5145,"kpulee":5146,"kpeÉĽÅĭaa":5147,"Ġzup":5148,"Ġzib":5149,"ĠzeÉĽraa":5150,"Ġzege":5151,"ĠzeÉĽrÉĽÉĽ":5152,"ashes":5153,"aÅĭÉĽÉĽ":5154,"Ġadd":5155,"raft":5156,"Ġthree":5157,"Ġthanks":5158,"Ã¡Ã¡rÊĬ":5159,"bÉĽmp":5160,"bÉĽlle":5161,"ieree":5162,"thick":5163,"thnic":5164,"users":5165,"ngy":5166,"akare":5167,"ÉĶÉĶraa":5168,"Ã©Åĭ":5169,"Ã©lÃ©Åĭ":5170,"Åĭme":5171,"ÅĭmeÉĽ":5172,"ÅĭmeÉĽle":5173,"Åĭmamp":5174,"ĠnyoÉĶ":5175,"ĠnyÉĶgrÉĶ":5176,"ĠkpÎµ":5177,"ĠkperÉĽ":5178,"ĠkpeÉĽÅĭaa":5179,"mage":5180,"nnÃ¡Ã¡":5181,"ctric":5182,"ĠleÉĽrÉĽ":5183,"ÉĶgleba":5184,"ÉĶgera":5185,"kÉĶre":5186,"mpa":5187,"ĠanaÅĭ":5188,"Ġnemp":5189,"ĠneÅĭkp":5190,"Ġnext":5191,"bÉĶlÉĶ":5192,"tery":5193,"ssip":5194,"Ġsele":5195,"ĠseÅĭe":5196,"Ġsecond":5197,"Ġrese":5198,"gbÃ¹":5199,"cher":5200,"change":5201,"Ġtege":5202,"Ġtemb":5203,"Ġtears":5204,"agela":5205,"lori":5206,"Ġheel":5207,"mbÃ¡Ã¡":5208,"mbÃ³":5209,"Ġdap":5210,"ĠdapÉĽ":5211,"andaz":5212,"Ġona":5213,"ĠÅĭmeÉĽlÉĽ":5214,"ĠÅĭmenaa":5215,"Ġshot":5216,"Ġgyil":5217,"ĠgyerÉĽ":5218,"ĠgyaÅĭg":5219,"Ġboast":5220,"ĠboorÉĶ":5221,"Ġbodaa":5222,"Ġboabab":5223,"ĠkÉĶn":5224,"ĠkÉĶnn":5225,"ĠkÉĶreba":5226,"ĠkÉĶnÉĶ":5227,"Ġdemon":5228,"naasaal":5229,"Ġpole":5230,"Ġpokp":5231,"ĠpoorÉĽÉĽ":5232,"É²Ã¹":5233,"É²ÉªÉĽ":5234,"É²ÃłÃł":5235,"ÉĽgrebÉĽ":5236,"Ġliving":5237,"nsÉªÉĽ":5238,"Ġmember":5239,"dÃłlÃ©Ã©":5240,"Ġsmaller":5241,"Ġdoba":5242,"Ġdoctor":5243,"Ġmango":5244,"abiri":5245,"arden":5246,"ĠDagao":5247,"Ġbibile":5248,"Ġgossip":5249,"Ġsafe":5250,"Ġsuck":5251,"Ġconcern":5252,"oÉĶreÅĭ":5253,"ĠpÉĶgeba":5254,"ÅĭgÃºÃ³":5255,"ĠOh":5256,"aalba":5257,"ĠnÉĶrÉĽÉĽ":5258,"ĠnÉĶng":5259,"Ġyelit":5260,"ĠÉĶnnÉĶ":5261,"ĠnaÅĭkpaana":5262,"lÃ©Ã¨":5263,"ĉĉĠĠĠ":5264,"asty":5265,"Ġfever":5266,"Ġspi":5267,"Ġspring":5268,"Ġunable":5269,"Ġunste":5270,"Ġwealth":5271,"Ġpebb":5272,"ilent":5273,"Ġripe":5274,"ified":5275,"gbÉĽrÉª":5276,"ĠzaaÅĭ":5277,"ĠzaameÅĭ":5278,"ensive":5279,"dzÉªrÉª":5280,"Ġsaabo":5281,"ĠĠĠĠĠĠ":5282,"estic":5283,"nore":5284,"noorÉĽÉĽ":5285,"Ġwatery":5286,"dalee":5287,"Ġbuttocks":5288,"Ġcomes":5289,"ĠbÉĽrÉĽ":5290,"ĠbÉĽllÉĽ":5291,"ĠbÉĽmbÉĽ":5292,"isten":5293,"essive":5294,"wele":5295,"Ê§Ã¬":5296,"ĠgbÉĽg":5297,"ments":5298,"kuoÅĭaa":5299,"Ġlose":5300,"Ġwaala":5301,"Ġgrand":5302,"tÉĶr":5303,"Ġenjoy":5304,"sÉĽgÉª":5305,"ĠpÉĽmpÉĽ":5306,"ĠkpÉĽlÉĽ":5307,"Ġherd":5308,"Ġnimie":5309,"Ġcost":5310,"ĠMa":5311,"ĠMo":5312,"Ġquarrel":5313,"ĠnÉĽÅĭk":5314,"mÃłrÉª":5315,"ĠBi":5316,"Ġtump":5317,"Ġswing":5318,"Ġpresent":5319,"Ġarm":5320,"Ġfool":5321,"ĠHow":5322,"ĠbÉĶrÉĶ":5323,"ĠpÉĶl":5324,"unnaa":5325,"Ġkyaare":5326,"Ġcarried":5327,"Ġscr":5328,"ĠgboÅĭg":5329,"ĠGood":5330,"Ġappl":5331,"Ġclosely":5332,"Ġgiving":5333,"Ġ10":5334,"ĠgbaÅĭgb":5335,"ĠYÉĽ":5336,"Ġraise":5337,"Ġmui":5338,"kolÉĶ":5339,"ledge":5340,"Ġbadly":5341,"nimi":5342,"anzeÉĽ":5343,"foge":5344,"phan":5345,"ĠEmph":5346,"ĠdÃ£as":5347,"Ġfail":5348,"Ġkarema":5349,"Ġbelong":5350,"nvÉª":5351,"Ġplayed":5352,"Ġrunning":5353,"Ġlogiri":5354,"bÉªgÉª":5355,"baÅĭena":5356,"Ġfuro":5357,"Ġfirstborn":5358,"Ġboys":5359,"hoe":5360,"Ġdrive":5361,"ĠmengÉĽ":5362,"Ġchew":5363,"Ġchest":5364,"ĠkaÅĭkand":5365,"Ġstrength":5366,"Ġshoulders":5367,"fÃłrÃł":5368,"Ġcrop":5369,"Ġsalt":5370,"Ġbereaved":5371,"Ġjoint":5372,"Ġangry":5373,"Ġwanted":5374,"Ġfinish":5375,"Ġsquirrel":5376,"Ġtrip":5377,"Ġwrist":5378,"Ġgathering":5379,"Ġinstantly":5380,"Ġevening":5381,"serek":5382,"acity":5383,"pÃ¡Ã¡lÃ¡Ã¡":5384,"Ġfetch":5385,"Ġgrains":5386,"Ġleader":5387,"ÇĴÅĭ":5388,"Ġbageboge":5389,"Ġappearing":5390,"ĠdendÉĶ":5391,"Ġmilk":5392,"Ġstrip":5393,"Ġballoon":5394,"Ġelephant":5395,"Ġspotted":5396,"Ġsimilar":5397,"Ġpluck":5398,"kÃºÃ³ÅĭÃ¡Ã¡":5399,"Ġworthless":5400,"Ġbrewed":5401,"doÅĭÉĶ":5402,"something":5403,"Ġtender":5404,"Ġcapacity":5405,"strative":5406,"object":5407,"Ã»Åĭ":5408,"Ġtasteless":5409,"Ġbranch":5410,"Ġbranches":5411,"bird":5412,"kamaa":5413,"minate":5414,"Ġsymp":5415,"Ġinsulted":5416,"Ġpromise":5417,"Ġgborgb":5418,"Ġpreparation":5419,"Ġdivining":5420,"nÃºÃºlÃ©Ã©":5421,"zzle":5422,"Ġokra":5423,"girÃŃ":5424,"ÇĶÅĭ":5425,"Ġtransl":5426,"Ġsqueeze":5427,"Ġpulp":5428,"pression":5429,"ĠzÉĽnzÉĽ":5430,"Ġtarget":5431,"Ġplentiful":5432,"Ġboastful":5433,"21":5434,"42":5435,"50":5436,"AyÍ»":5437,"Ayuo":5438,"Bon":5439,"Bow":5440,"Base":5441,"Come":5442,"Conj":5443,"DÉĽ":5444,"Dakoraa":5445,"Food":5446,"FOC":5447,"He":5448,"In":5449,"Ku":5450,"Ky":5451,"KyÉĽ":5452,"Me":5453,"Maa":5454,"Nor":5455,"Page":5456,"Proverbs":5457,"So":5458,"See":5459,"Yo":5460,"YÉĽ":5461,"ack":5462,"aff":5463,"br":5464,"bour":5465,"bugi":5466,"cat":5467,"cis":5468,"cent":5469,"cend":5470,"cess":5471,"comb":5472,"cross":5473,"dan":5474,"dÃ©":5475,"dÎµ":5476,"dand":5477,"dire":5478,"dry":5479,"daÅĭk":5480,"dond":5481,"em":5482,"eÅĭe":5483,"fit":5484,"foo":5485,"fig":5486,"fÃ²":5487,"fent":5488,"fara":5489,"foore":5490,"fort":5491,"fÃ£a":5492,"fÃ¹rÃ¬":5493,"gaa":5494,"gol":5495,"gum":5496,"give":5497,"gera":5498,"glÃłÃ¡":5499,"hÃł":5500,"hot":5501,"hap":5502,"hide":5503,"iime":5504,"iini":5505,"kora":5506,"karre":5507,"kÅ©u":5508,"kÃ¡Ã¡rÉª":5509,"kÃºÃºrÃŃ":5510,"lÉĶÉĶ":5511,"ligi":5512,"men":5513,"med":5514,"mÃº":5515,"mun":5516,"met":5517,"maal":5518,"mÉªrÉª":5519,"manne":5520,"mÃ¬Ã¬":5521,"mÃºrÃŃ":5522,"noÅĭ":5523,"nbi":5524,"nfÊĬ":5525,"oes":5526,"oone":5527,"over":5528,"ooraa":5529,"obab":5530,"pat":5531,"put":5532,"puori":5533,"pÉªÉª":5534,"peÉĽlÉĽÉĽ":5535,"pÃ¹Ã²":5536,"pilli":5537,"rbÉĽ":5538,"rone":5539,"rrÃ¬":5540,"she":5541,"sam":5542,"suuri":5543,"saarÉĽÉĽ":5544,"sÃłÃ¡":5545,"seere":5546,"tan":5547,"teg":5548,"teere":5549,"tÃ¡Åĭ":5550,"taÅĭg":5551,"táº½e":5552,"two":5553,"toloÅĭ":5554,"une":5555,"unee":5556,"uoro":5557,"uble":5558,"vy":5559,"vÃº":5560,"vÃłÃł":5561,"vaarÉĽÉĽ":5562,"voÉĶre":5563,"vÃ¡rÉª":5564,"were":5565,"wind":5566,"wÉĽge":5567,"wuli":5568,"wise":5569,"wuluu":5570,"your":5571,"yuori":5572,"yÉªÉª":5573,"yoree":5574,"yÃŃrÃ¬":5575,"zon":5576,"zan":5577,"zÉªÉª":5578,"záº½ÉĽ":5579,"zÃ¡rÉª":5580,"ziness":5581,"ïĥ":5582,"Ġ9":5583,"Ġul":5584,"ĠÍ»":5585,"Ġene":5586,"ĠeÉĽrebÉĽ":5587,"ĠÌĤ":5588,"Ġirri":5589,"ÉĽnnÉĽÉĽ":5590,"ÉĶrre":5591,"ÉĶrrÉĽÉĽ":5592,"Ġtat":5593,"Ġtes":5594,"ĠtÍ»":5595,"Ġtur":5596,"Ġtand":5597,"ĠtÉĶre":5598,"ĠteÉĽraa":5599,"Ġtanne":5600,"ĠtaÅĭg":5601,"Ġtullo":5602,"rew":5603,"reme":5604,"ÌĢÌĢ":5605,"Ġnat":5606,"Ġnup":5607,"Ġnine":5608,"ĠneÉĽre":5609,"Ġnaky":5610,"Ġnative":5611,"ĠnÉĶÅĭe":5612,"Ġnoma":5613,"Ġnonhuman":5614,"aalee":5615,"Ġate":5616,"ĠbeÉĽ":5617,"Ġbil":5618,"Ġbra":5619,"Ġbam":5620,"Ġbund":5621,"ĠbaarÉĽÉĽ":5622,"Ġboore":5623,"ĠbÉĽre":5624,"ĠbeÉĽraa":5625,"Ġbiribe":5626,"Ġbuuro":5627,"Ġbase":5628,"Ġbany":5629,"Ġbuuli":5630,"Ġbull":5631,"ĠbalÉĽÉĽ":5632,"Ġbuuribo":5633,"Ġburibo":5634,"Ġbullo":5635,"Ġbangy":5636,"ĠbÉĶgerÉĶ":5637,"Ġbuul":5638,"ĠboÉĶrebÉĶ":5639,"Ġbimp":5640,"ĠbÉĶgerebÉĶ":5641,"Ġbicy":5642,"ĠsÉª":5643,"Ġsaare":5644,"Ġsna":5645,"Ġsky":5646,"ĠsÉĽge":5647,"Ġsold":5648,"Ġsase":5649,"Ġsanna":5650,"Ġsnu":5651,"ĠsÃ£Ã£":5652,"Åĭo":5653,"ino":5654,"lean":5655,"leÉĽre":5656,"onf":5657,"onge":5658,"Ġkar":5659,"ĠkÃł":5660,"Ġkas":5661,"Ġkut":5662,"Ġkere":5663,"Ġkora":5664,"ĠkÉĶÉĶre":5665,"Ġkanna":5666,"ĠkÅ©u":5667,"Ġkanema":5668,"ĠkoÉĶlÉĶ":5669,"Ġkonimo":5670,"Ġpit":5671,"Ġpap":5672,"ĠpÃµÉĶ":5673,"Ġpelaa":5674,"Ġpity":5675,"Ġpomp":5676,"ĠpeÉĽnÉĽ":5677,"Ġpinime":5678,"Ġpilibe":5679,"ÉĽÉĽrÉĽÉĽ":5680,"Ġdol":5681,"Ġdug":5682,"Ġdund":5683,"Ġdara":5684,"Ġdane":5685,"Ġdate":5686,"Ġdans":5687,"Ġdaareba":5688,"Ġdaana":5689,"Ġdull":5690,"ĠdaÅĭe":5691,"Ġdanna":5692,"Ġdanema":5693,"Ġdirt":5694,"ĠdaÅĭm":5695,"Ġdiibu":5696,"Ġplank":5697,"Ġplaster":5698,"Ġlara":5699,"ĠlÃłÃ¡":5700,"ĠloÉĶrÉĶ":5701,"Ġlaaraa":5702,"Ġlanna":5703,"Ġlugiro":5704,"arata":5705,"Ġwat":5706,"Ġwis":5707,"Ġware":5708,"Ġwag":5709,"Ġwish":5710,"Ġwound":5711,"ĠweÉĽlÉĽ":5712,"Ġwola":5713,"Ġwaaleba":5714,"ĠwÉĶgrÉĶ":5715,"ĠwÉĶglÉĶ":5716,"Ġocc":5717,"Ġfal":5718,"Ġfit":5719,"Ġfol":5720,"Ġfare":5721,"Ġfere":5722,"Ġfive":5723,"Ġfib":5724,"Ġferment":5725,"Ġge":5726,"Ġgan":5727,"ĠgbÉĶ":5728,"Ġgeg":5729,"Ġgaara":5730,"ĠgarÉĽÉĽ":5731,"Ġgoraa":5732,"Ġgale":5733,"Ġgang":5734,"Ġguuro":5735,"Ġgold":5736,"Ġgamb":5737,"ĠgoÉĶraa":5738,"ĠgaÅĭe":5739,"Ġgelle":5740,"Ġguulibo":5741,"Ġgelibe":5742,"Ġgathered":5743,"Ġgarden":5744,"Ġmog":5745,"Ġmage":5746,"Ġmiiree":5747,"Ġmute":5748,"Ġmashed":5749,"ancy":5750,"ripe":5751,"ridge":5752,"rifice":5753,"Ġven":5754,"Ġvuu":5755,"Ġvap":5756,"Ġvuuro":5757,"Ġvaareba":5758,"Ġvarie":5759,"Ġvomit":5760,"orab":5761,"oroto":5762,"alh":5763,"Ġcree":5764,"Ġcot":5765,"Ġcage":5766,"Ġcure":5767,"Ġcreat":5768,"Ġcroo":5769,"Ġcirc":5770,"Ġcaterpillar":5771,"road":5772,"Ġhaa":5773,"Ġhom":5774,"Ġhund":5775,"Ġhate":5776,"Ġhabit":5777,"Ġholy":5778,"Ġyaa":5779,"ĠyÉĶge":5780,"ĠyÍ»":5781,"Ġyaala":5782,"ĠyeÉĽlÉĽ":5783,"Ġyidaa":5784,"ĠlaÅĭkp":5785,"Ġlayer":5786,"omÉĽÉĽ":5787,"nemp":5788,"isi":5789,"isiri":5790,"elime":5791,"ndÉĶÉĶ":5792,"ndaare":5793,"ndÉĽÅĭ":5794,"Ġemb":5795,"Ġethnic":5796,"kpÃ¬":5797,"kpÃº":5798,"kpag":5799,"kperÉĽ":5800,"kpale":5801,"kpeÉĽne":5802,"kpÇİ":5803,"Ġzut":5804,"Ġzun":5805,"Ġzanna":5806,"ĠzÉĶÅĭe":5807,"Ġzoma":5808,"Ġzugiro":5809,"ĠzÉĶÅĭÉĶ":5810,"Ġbeak":5811,"Ġbead":5812,"bow":5813,"bolÉĶ":5814,"aÅĭmÉĽ":5815,"Ġinner":5816,"ambiri":5817,"iriÅĭ":5818,"iritual":5819,"Ġthreat":5820,"Ġbaz":5821,"Ġbaobab":5822,"ulate":5823,"uluÅĭ":5824,"pelee":5825,"usion":5826,"Ġkareba":5827,"Ġkagereba":5828,"Ġkagera":5829,"ngso":5830,"ÉĶÉĶrÉĶ":5831,"Ã©grÃŃ":5832,"Åĭmen":5833,"ĠnyÉĶÉĶ":5834,"Ġnyeg":5835,"Ġnyaale":5836,"ĠnyÉĶgreba":5837,"Ġnyiilee":5838,"adily":5839,"Ġkpo":5840,"ĠkpoÅĭ":5841,"Ġkpaare":5842,"Ġkpuli":5843,"Ġkpaana":5844,"Ġkpolee":5845,"Ġkpogilo":5846,"Ġstud":5847,"Ġstole":5848,"Ġstory":5849,"Ġstarted":5850,"otion":5851,"ĠAf":5852,"ĠAn":5853,"Ã£ay":5854,"nnoÅĭ":5855,"owards":5856,"aarebÉĽÉĽ":5857,"Ġissue":5858,"ceive":5859,"bet":5860,"biÅĭi":5861,"ents":5862,"Ġlene":5863,"Ġlegele":5864,"Ġlepro":5865,"ÉĶgle":5866,"Ìĥ,":5867,"kÉĶrÉĽÉĽ":5868,"kÉĶbÉĶ":5869,"mpu":5870,"lÉĽre":5871,"stick":5872,"stomach":5873,"lÉªÉª":5874,"lÉªrÉª":5875,"lÉªzÃ¡":5876,"ided":5877,"bÉĶre":5878,"bÉĶlÉĽÉĽ":5879,"Ġwithin":5880,"terÉĽ":5881,"terre":5882,"Ġforget":5883,"Ġseg":5884,"Ġsere":5885,"Ġseat":5886,"ĠsekÃ£a":5887,"Ġready":5888,"Ġremind":5889,"gbÃ©":5890,"gbÃ¡Åĭ":5891,"lier":5892,"lige":5893,"libo":5894,"nyÉĶ":5895,"nyuu":5896,"nyoÉĶre":5897,"nyaÅĭene":5898,"gÉªlÉª":5899,"Ġheap":5900,"Ġhealth":5901,"mbÃŃrÃŃ":5902,"ÅĭkÃ¡Ã¡":5903,"Åĭkeroo":5904,"ntÃº":5905,"ntÃ¡Ã¡":5906,"andaa":5907,"Ġsoap":5908,"Ġsobiri":5909,"ĠÅĭmare":5910,"ĠÅĭmeg":5911,"ĠÅĭmeÉĽlebÉĽ":5912,"Ġchance":5913,"Ġchallenge":5914,"Ġchaff":5915,"Ġshallow":5916,"Ġshock":5917,"anted":5918,"antamm":5919,"kyÎµ":5920,"kyiree":5921,"kyeemÉĽ":5922,"ĠgbeÉĽrÉĽ":5923,"ĠgbeÉĽrebÉĽ":5924,"Ġbonky":5925,"Ġbonso":5926,"Ġgyab":5927,"Ġgyege":5928,"ĠgyerebÉĽ":5929,"Ġgyongy":5930,"Ġboth":5931,"ĠkÉĶrÉĽÉĽ":5932,"ĠkÉĶlebÉĶ":5933,"Ġdeed":5934,"naad":5935,"naazo":5936,"Ġfoora":5937,"tore":5938,"apa":5939,"Ġpoora":5940,"Ġpocket":5941,"É²Ã¡Ã¡":5942,"É²ÃºÃº":5943,"ÉĽgraa":5944,"nÉªÉª":5945,"egree":5946,"egerÉĽ":5947,"Ġwale":5948,"Ġusing":5949,"áº½ÉĽÉĽ":5950,"nsÃº":5951,"Ġitch":5952,"llÃŃ":5953,"Ġmege":5954,"aburi":5955,"ability":5956,"tem":5957,"ending":5958,"ĠbiÅĭ":5959,"pÉĶre":5960,"pÉĶlee":5961,"ĠSouthern":5962,"Ġsafo":5963,"ĠsabÉĽlemÉĽ":5964,"anemÉĽÉĽ":5965,"bonv":5966,"bony":5967,"Ġdied":5968,"que":5969,"illow":5970,"poorÉĽÉĽ":5971,"Ġmoves":5972,"soge":5973,"ÅĭgÉĽ":5974,"lÃŃbÃŃ":5975,"ĠKyÎµ":5976,"ĠOne":5977,"aaloo":5978,"ĠnÉĶm":5979,"ĠnÉĶÉĽ":5980,"Ġyelb":5981,"Ġyelis":5982,"ĠyelmeÅĭÉĽ":5983,"ĠÉĶreba":5984,"Ġnaazo":5985,"ĠpoÉĶnÉĶ":5986,"ĉĉĠĠĠĠ":5987,"ĉĉĉčĊ":5988,"ĉĉĉĉčĊ":5989,"Ġuncle":5990,"deed":5991,"ÅĭkpÃ¡":5992,"Ġtaana":5993,"Ġpelee":5994,"Ġpeace":5995,"ooked":5996,"ĠWhere":5997,"Ġrite":5998,"Ġwaste":5999,"ific":6000,"ĠmaÅĭgo":6001,"assava":6002,"Ġsaama":6003,"bÃłÅĭ":6004,"bÃłndÃł":6005,"bÃ¬l":6006,"angular":6007,"ivated":6008,"ĠbÉĽlÉĽ":6009,"ĠbÉĽrebÉĽ":6010,"ĠbÉĽÅĭÉĽ":6011,"Ġflower":6012,"ession":6013,"weerÉĽÉĽ":6014,"Ê§ÉĶ":6015,"Ê§ÃŃ":6016,"Ġprote":6017,"Ġprodu":6018,"kuonee":6019,"Ġbulee":6020,"Ġhope":6021,"sÉªgÉª":6022,"ĠPe":6023,"ĠPÉĶge":6024,"ĠPage":6025,"ĠPerf":6026,"Ġaside":6027,"dole":6028,"nÃ¡Ã¡b":6029,"nÃ¡Ã¡rÉª":6030,"Ġ-Ìģ":6031,"ĠlegrÉĽ":6032,"ĠlegrebÉĽ":6033,"Ġobli":6034,"Ġblow":6035,"Ġtoori":6036,"Ġdogs":6037,"lÃ³Ã³":6038,"pÉĶgeba":6039,"yeli":6040,"Ġnimis":6041,"ĠmÉĶnÉĶ":6042,"ĠtÉĶnnÉĶ":6043,"Ġquite":6044,"mÃŃÃŃ":6045,"Ġswell":6046,"henware":6047,"zuree":6048,"zÉĽlÉĽ":6049,"Ġarmp":6050,"Ġbecame":6051,"dÃ£ak":6052,"baala":6053,"Ġfooreba":6054,"zÉĶnnÉĽÉĽ":6055,"ĠHab":6056,"Ġring":6057,"Ġraining":6058,"ĠbÉĶle":6059,"Ġparts":6060,"Ġpares":6061,"lÃ¡nÉª":6062,"Ġkuro":6063,"Ġkuolo":6064,"Ġdonkey":6065,"Ġtrack":6066,"Ġtravel":6067,"Ġcarnivorous":6068,"Ġearlier":6069,"Ġscoop":6070,"ĠlÉĶrÉĶ":6071,"ĠlÉĶnne":6072,"Ġgboree":6073,"Ġpuoraa":6074,"Ġheads":6075,"Ġkpeg":6076,"tÃłgÉª":6077,"Ġapart":6078,"ĠdÉĶbÉĶ":6079,"Ġdisc":6080,"Ġgave":6081,"ÇİÅĭ":6082,"Ġduoraa":6083,"Ġclosed":6084,"Ġoffer":6085,"Ġmalef":6086,"Ġmovement":6087,"ĠdÉĽlebÉĽ":6088,"ĠdÉĽllÉĽ":6089,"Ġyounger":6090,"Ġ11":6091,"Ġ15":6092,"ompany":6093,"dÃ¬Ã©":6094,"Ġrefer":6095,"kola":6096,"kollee":6097,"smith":6098,"smelling":6099,"Ġclever":6100,"anzeere":6101,"ĠLegon":6102,"Ġbackwards":6103,"ĠdÃ£Ã£":6104,"Ġfair":6105,"Ġfailed":6106,"ommu":6107,"ĠzeÅĭe":6108,"ĠtÉĽr":6109,"pÃŃlÃŃ":6110,"Ġunderstand":6111,"Ġtakes":6112,"Ġyams":6113,"Ġbrim":6114,"Ġbridge":6115,"Ġseemaa":6116,"zoÉĽ":6117,"Ġedge":6118,"gyÉĽle":6119,"Ġotherwise":6120,"ountain":6121,"zÃłgÉª":6122,"Ġrum":6123,"Ġleaving":6124,"Ġperoo":6125,"Ġdesp":6126,"baÅĭa":6127,"Ġyourself":6128,"Ġfuree":6129,"Ġbegin":6130,"Ġbeginn":6131,"bÃºlÃŃ":6132,"without":6133,"ĠdagaÅĭg":6134,"Ġcheat":6135,"Ġcheek":6136,"Ġflatten":6137,"ĠsoÉĶnÉĶ":6138,"Ġsign":6139,"Ġknowledge":6140,"Ġsharpen":6141,"ĠJn":6142,"Ġgbiire":6143,"Ġlagra":6144,"Ġlagreba":6145,"Ġcontrol":6146,"pÃłrÉª":6147,"sukyiri":6148,"Ġtied":6149,"ĠngmÎµ":6150,"Ġsenso":6151,"Ġpride":6152,"ashing":6153,"Ġintens":6154,"zÃ¹g":6155,"Ġsitting":6156,"PÍ»gda":6157,"Ġsogro":6158,"Ġsogribo":6159,"pÃ¡r":6160,"Ġgrace":6161,"kÃ©lÃ©":6162,"kÃ©rÃ©":6163,"Ġcrawl":6164,"Ġsalend":6165,"Ngme":6166,"ĠmoÉĶleba":6167,"Ġhunting":6168,"Ġhapp":6169,"fruits":6170,"Ġelse":6171,"Ġelder":6172,"Ġwuoro":6173,"Ġglutton":6174,"Ġmusic":6175,"ĠnÉĽnefÉĽ":6176,"kÉĽlÉĽ":6177,"sakÉĶre":6178,"Ġtrousers":6179,"Ġtrouble":6180,"Ġblock":6181,"ĠsellÉĽ":6182,"Ġelectric":6183,"ogilibo":6184,"Ġclearly":6185,"Ġreturned":6186,"Ġvalinv":6187,"Ġstuff":6188,"Ġgods":6189,"ĠgbÉĽregbÉĽ":6190,"Ġburning":6191,"Ġtermites":6192,"yÃ¡gÉª":6193,"Ġtigit":6194,"Ġslip":6195,"Ġsweat":6196,"Ġbuilding":6197,"yÃºÃ³nÃŃ":6198,"Ġchicken":6199,"Ġwashing":6200,"ĠsÃ£aÉĽ":6201,"Ġcrush":6202,"Ġcrying":6203,"Ġdakpal":6204,"ĠkÉĶndaz":6205,"Ġquietly":6206,"Ġlumps":6207,"birth":6208,"dankyins":6209,"Ġcastrated":6210,"Ġnegative":6211,"Ġattack":6212,"000":6213,"Ġbusiness":6214,"ĠvÉĽÅĭÉĽÉĽ":6215,"ĠzegerÉĽ":6216,"boÅĭgu":6217,"Ġsidi":6218,"Ġkotuo":6219,"Ġfloor":6220,"Ġmakes":6221,"Ġinformation":6222,"Ġsacrifice":6223,"Ġunwanted":6224,"Ġcovet":6225,"Ġkarembiiri":6226,"Ġgreetings":6227,"Ġgorg":6228,"ĠDabuo":6229,"ĠbiÅĭibiÅĭ":6230,"Ġparticular":6231,"Ġscrape":6232,"Ġcontinuously":6233,"fÃµÉĶo":6234,"Ġgrip":6235,"Ġthreshing":6236,"looking":6237,"young":6238,"Ġtyre":6239,"Ġportion":6240,"Ġdoubt":6241,"Ġanswer":6242,"Ġseverely":6243,"á¹įÄ©":6244,"Ġwinnowed":6245,"Ġugly":6246,"Ġteeth":6247,"Ġkinship":6248,"Ġkerne":6249,"Ġearthenware":6250,"Ġdemonstrative":6251,"ĠBibiiri":6252,"Ġsympath":6253,"Ġtranslation":6254,"Bowaalee":6255,"ïĥĺ":6256,"Ġulcer":6257,"Ġbicycle":6258,"ĠgbÉĶÉ¡":6259,"Ġcrooked":6260,"Ġhundred":6261,"Ġleprosy":6262,"lÉªzÃ¡ÉĽ":6263,"Ġbeginning":6264,"!âĢĻ":6265,"25":6266,"27":6267,"29":6268,"33":6269,"37":6270,"38":6271,"41":6272,"46":6273,"An":6274,"Akan":6275,"Bi":6276,"Corn":6277,"Dog":6278,"Dire":6279,"Emph":6280,"Fe":6281,"Funeral":6282,"Hand":6283,"Imp":6284,"KÍ»":6285,"KyÍ»":6286,"La":6287,"Mouth":6288,"NÃ¡Ã¡":6289,"Neg":6290,"NEG":6291,"PÉĶ":6292,"Qn":6293,"Take":6294,"Yuori":6295,"Zu":6296,"abÉĽ":6297,"aint":6298,"bl":6299,"bim":6300,"brÉĽ":6301,"bur":6302,"boore":6303,"bÃºÃº":6304,"buli":6305,"borÉĶ":6306,"benÉĽ":6307,"bÃ¹rÃ¬":6308,"binee":6309,"bÇĴ":6310,"com":6311,"col":6312,"cast":6313,"corn":6314,"city":6315,"cret":6316,"craft":6317,"cooked":6318,"dat":6319,"dÃ³":6320,"dÃłÃł":6321,"deg":6322,"domp":6323,"dÃŃrÃ©":6324,"ev":6325,"ech":6326,"emm":6327,"fer":6328,"fuu":6329,"fall":6330,"fÉªÉĽ":6331,"fÉĽge":6332,"feere":6333,"feele":6334,"gle":6335,"gri":6336,"gÃº":6337,"gam":6338,"glÉĽ":6339,"gid":6340,"gÉĶÅĭ":6341,"great":6342,"guuli":6343,"glÃ²":6344,"hun":6345,"hand":6346,"house":6347,"iff":6348,"kas":6349,"kÍ»":6350,"kur":6351,"keg":6352,"kara":6353,"koro":6354,"kind":6355,"kogi":6356,"kala":6357,"kÉĶÉĶre":6358,"koÅĭk":6359,"koÉĶraa":6360,"kaÅĭa":6361,"kuribo":6362,"lba":6363,"lim":6364,"lak":6365,"line":6366,"lme":6367,"lass":6368,"lÃ¡Åĭ":6369,"lmaa":6370,"linni":6371,"maÅĭ":6372,"mÃ²":6373,"mbe":6374,"mmÉĽ":6375,"moore":6376,"maraa":6377,"morÉĶ":6378,"muree":6379,"ning":6380,"nage":6381,"night":6382,"nlÃ¡Ã¡":6383,"nlÃ©Ã©":6384,"nwÉĽ":6385,"pre":6386,"pit":6387,"pel":6388,"pil":6389,"pÉĶÉĶ":6390,"paare":6391,"pÉĶg":6392,"pire":6393,"poore":6394,"pÃµÉĶ":6395,"pÄ©":6396,"páº½e":6397,"rin":6398,"rpÉĶ":6399,"range":6400,"sol":6401,"sÃ©":6402,"sÎµ":6403,"saale":6404,"sday":6405,"sÃ¡rÉª":6406,"sÃ¡Ã¡rÉª":6407,"sugiri":6408,"sÉĶglaa":6409,"snake":6410,"skin":6411,"specially":6412,"tÉĶÉĶ":6413,"taare":6414,"táº½":6415,"tend":6416,"tÃłÃ¡":6417,"time":6418,"tightly":6419,"umm":6420,"ude":6421,"uable":6422,"uonee":6423,"var":6424,"vul":6425,"vide":6426,"vÉªrÉª":6427,"vice":6428,"vÃ¡Ã¡rÉª":6429,"vÃłrÉª":6430,"ws":6431,"was":6432,"wÃ¡Ã¡":6433,"waare":6434,"warÉĽÉĽ":6435,"waale":6436,"weÉĽle":6437,"wáº½ÉĽ":6438,"welÉĽ":6439,"warm":6440,"wÃ¡rÉª":6441,"weep":6442,"wrest":6443,"yÃº":6444,"yie":6445,"yaare":6446,"yaarÉĽÉĽ":6447,"yaga":6448,"yori":6449,"yÃŃÃ©":6450,"yÃŃrÃŃ":6451,"yÃ¡Ã¡lÉª":6452,"yoÉĶbo":6453,"zing":6454,"zam":6455,"zÃ³":6456,"zÃ²":6457,"zeÉĽre":6458,"zelÉĽ":6459,"ÄĽ":6460,"Ġig":6461,"Ġund":6462,"Ġire":6463,"Ġiree":6464,"ĠÉĽre":6465,"Ġide":6466,"ÉĽmÉĽ":6467,"ÉĽnne":6468,"ÉĶnne":6469,"Ġtuu":6470,"Ġtug":6471,"Ġtaara":6472,"Ġtale":6473,"Ġtuuree":6474,"Ġtareba":6475,"Ġtaky":6476,"Ġtuuraa":6477,"Ġtuuribo":6478,"Ġtangy":6479,"ĠtiÅĭ":6480,"ĠtentÉĶ":6481,"Ġtasty":6482,"Ġnak":6483,"Ġnag":6484,"ĠnÍ»":6485,"Ġnug":6486,"ĠnÉĽg":6487,"Ġnoore":6488,"Ġnud":6489,"Ġnice":6490,"Ġnaked":6491,"aaÅĭk":6492,"aamÉĽÉĽ":6493,"Ġache":6494,"Ġbis":6495,"Ġbiree":6496,"Ġbene":6497,"ĠbeÉĽre":6498,"Ġbaraa":6499,"Ġbelaa":6500,"ĠborÉĶ":6501,"Ġbreat":6502,"ĠbeÉĽlÉĽ":6503,"ĠbÉĶgere":6504,"Ġbini":6505,"Ġbugo":6506,"ĠbÃŃrÃ¬":6507,"Ġsil":6508,"ĠsaarÉĽÉĽ":6509,"Ġsend":6510,"ĠsÃµÉĶ":6511,"Ġseere":6512,"Ġsown":6513,"ĠsÉĶgÉĽÉĽ":6514,"ÅĭÃ³":6515,"Åĭenaa":6516,"inky":6517,"inimo":6518,"erb":6519,"erate":6520,"lenni":6521,"onent":6522,"Ġtow":6523,"Ġtool":6524,"Ġtomb":6525,"ĠtomÉĶ":6526,"ĠkÃ¡":6527,"Ġkid":6528,"ĠkaarÉĽÉĽ":6529,"ĠkÃ£a":6530,"Ġkaraa":6531,"Ġkuuree":6532,"Ġkank":6533,"Ġkunt":6534,"Ġkitchen":6535,"Ġkandaz":6536,"Ġpon":6537,"ĠpoÅĭ":6538,"ĠperÉĽÉĽ":6539,"Ġpine":6540,"ĠperÉĽ":6541,"Ġpour":6542,"Ġpara":6543,"Ġporaa":6544,"Ġpoore":6545,"Ġpath":6546,"ĠpÉĽge":6547,"Ġpili":6548,"ĠpÃ£a":6549,"Ġpest":6550,"ĠpeÉĽle":6551,"Ġpeere":6552,"ĠpÉĽrÉĽ":6553,"Ġpink":6554,"Ġpareba":6555,"Ġpuuraa":6556,"ĠpeÉĽrÉĽÉĽ":6557,"Ġpuuribo":6558,"ĠpÉĶgrÉĶ":6559,"Ġpiiraa":6560,"Ġpampana":6561,"heart":6562,"ÉĽÉĽre":6563,"Ġden":6564,"ĠdÃł":6565,"Ġded":6566,"Ġdee":6567,"Ġdet":6568,"ĠdeÉĽrebÉĽ":6569,"ĠdoÅĭk":6570,"ĠdoÉĶraa":6571,"Ġdigi":6572,"ĠdÉĶgÉĽÉĽ":6573,"Ġduoree":6574,"Ġdeni":6575,"Ġplan":6576,"Ġplough":6577,"Ġll":6578,"Ġlon":6579,"Ġlur":6580,"ĠllÉª":6581,"ĠlaarÉĽÉĽ":6582,"ĠloÉĶre":6583,"ĠloÉĶrÉĽÉĽ":6584,"Ġlinne":6585,"Ġlisten":6586,"arrow":6587,"Ġwhe":6588,"Ġwan":6589,"ĠwÎµ":6590,"Ġwand":6591,"ĠwÉĶÅĭ":6592,"ĠwÉĽre":6593,"Ġwise":6594,"Ġwarm":6595,"Ġwrink":6596,"ĠwolÉĶ":6597,"Ġop":6598,"Ġoath":6599,"Ġopp":6600,"ĠfÉĽ":6601,"Ġflee":6602,"ĠfaarÉĽÉĽ":6603,"ĠfÉĶÅĭ":6604,"ĠfÃ£a":6605,"Ġfaaraa":6606,"ĠfoÉĶraa":6607,"Ġfuuraa":6608,"Ġfanema":6609,"Ġgul":6610,"Ġgall":6611,"Ġgad":6612,"ĠgÉĶg":6613,"Ġgaraa":6614,"Ġgala":6615,"Ġgangy":6616,"Ġgho":6617,"Ġgamm":6618,"Ġmin":6619,"ĠmÃł":6620,"Ġmom":6621,"ĠmerÉĽÉĽ":6622,"Ġmant":6623,"Ġmap":6624,"Ġmuri":6625,"Ġmeraa":6626,"ĠmorÉĽÉĽ":6627,"ĠmoÉĶrÉĶ":6628,"Ġmult":6629,"Ġmalle":6630,"Ġmould":6631,"ĠmÇİ":6632,"anee":6633,"animal":6634,"anzeerÉĽÉĽ":6635,"riend":6636,"ribut":6637,"eng":6638,"ency":6639,"ÃłbÉĽ":6640,"geon":6641,"Ġvel":6642,"Ġvol":6643,"Ġvow":6644,"Ġvaare":6645,"Ġvine":6646,"Ġveraa":6647,"Ġvile":6648,"Ġvaraa":6649,"ĠvoÉĶreba":6650,"Ġvain":6651,"ates":6652,"orom":6653,"orously":6654,"alo":6655,"aloo":6656,"also":6657,"Ġcre":6658,"Ġcal":6659,"Ġcassava":6660,"ingy":6661,"ingers":6662,"rot":6663,"Ġoften":6664,"itogo":6665,"itute":6666,"itude":6667,"Ġhare":6668,"Ġhill":6669,"Ġhum":6670,"Ġhollow":6671,"Ġhalh":6672,"Ġyof":6673,"Ġyaareba":6674,"ĠyagÉĽÉĽ":6675,"Ġyagreba":6676,"Ġyoy":6677,"Ġyagraa":6678,"Ġyellow":6679,"nem":6680,"nemÉĽÉĽ":6681,"nestly":6682,"elly":6683,"eland":6684,"eluÅĭ":6685,"bale":6686,"baga":6687,"baÅĭe":6688,"ndÉª":6689,"Ġeag":6690,"Ġespecially":6691,"oÉĶmÉĶ":6692,"ooting":6693,"kpi":6694,"kpÉĶge":6695,"kpee":6696,"kpage":6697,"kpara":6698,"kpuli":6699,"kpolo":6700,"kpenne":6701,"ĠzeÉĽ":6702,"ĠzoÅĭ":6703,"Ġzug":6704,"Ġzaara":6705,"Ġzab":6706,"Ġzáº½ÉĽ":6707,"Ġziv":6708,"Ġzamp":6709,"ĠzannÉĽÉĽ":6710,"Ġzamb":6711,"Ġzugi":6712,"Ġzanema":6713,"Ġzimaa":6714,"asa":6715,"asing":6716,"ased":6717,"asant":6718,"Ġbege":6719,"Ġbees":6720,"Ġbebiri":6721,"aÅĭena":6722,"uuno":6723,"Ġinh":6724,"raw":6725,"ract":6726,"oluu":6727,"olÉĶÅĭ":6728,"rÉªmÃ¡":6729,"Ġthres":6730,"Ġthorns":6731,"Ġthrone":6732,"bÉĽroÅĭ":6733,"iee":6734,"import":6735,"imax":6736,"Ġbap":6737,"Ġbaga":6738,"pet":6739,"through":6740,"Ã³rÃ¬":6741,"usielee":6742,"ngo":6743,"ngÉĶ":6744,"ngpi":6745,"akes":6746,"ogeraa":6747,"Åĭmam":6748,"Åĭmare":6749,"Åĭmaareba":6750,"ÅĭmÇİ":6751,"iced":6752,"ices":6753,"icky":6754,"icide":6755,"Ġnyam":6756,"Ġnyuuri":6757,"Ġnyoore":6758,"ĠnyeÉĽraa":6759,"ĠnyeÉĽrebÉĽ":6760,"eemÉĽÉĽ":6761,"ĠkpeÉĽ":6762,"Ġkperaa":6763,"ĠkpÉĽge":6764,"Ġkpolo":6765,"Ġkpaaraa":6766,"Ġkpaareba":6767,"ĠkpalÉĽÉĽ":6768,"Ġkpiire":6769,"Ġkpinne":6770,"Ġstay":6771,"Ġstation":6772,"Ġstamp":6773,"Ġstruct":6774,"Ġsticky":6775,"ĠAm":6776,"ĠTa":6777,"arebÉĽÉĽ":6778,"irr":6779,"irin":6780,"ircle":6781,"nno":6782,"agye":6783,"seg":6784,"second":6785,"beh":6786,"yÉĽrÉĽ":6787,"bire":6788,"lay":6789,"unk":6790,"Ġlen":6791,"Ġlevel":6792,"Ġlearn":6793,"ÉĶgeroÅĭ":6794,"Ìĥ.":6795,"kÉĶmp":6796,"kÉĶlaa":6797,"kÉĶmbÉĶ":6798,"mpt":6799,"Ġana":6800,"Ġans":6801,"Ġanus":6802,"Ġanaare":6803,"sting":6804,"stalk":6805,"urative":6806,"bÉĶl":6807,"bÉĶÅĭÉĶ":6808,"Ã¹rÃŃ":6809,"Ġfort":6810,"Ġfortu":6811,"Ġsea":6812,"Ġsew":6813,"ĠseÉĽÉĽ":6814,"ĠseerÉĽÉĽ":6815,"Ġsegese":6816,"Ġsecret":6817,"Ġread":6818,"Ġreject":6819,"Ġreason":6820,"Ġreduce":6821,"laaraa":6822,"libi":6823,"liquid":6824,"nyÊĬ":6825,"nyuuri":6826,"nyoge":6827,"nyaÅĭenÉĽÉĽ":6828,"ĠteerÉĽÉĽ":6829,"ĠtewÉĶ":6830,"gÉªbÊĬ":6831,"gÉªbÉª":6832,"lock":6833,"Ġheard":6834,"mbled":6835,"mbiruu":6836,"ÅĭkÃº":6837,"Åĭkam":6838,"ÅĭkÃºÃ³":6839,"ÅĭkÃµÉĶ":6840,"ntÃ³":6841,"ntÃºÃ³":6842,"Ġdabe":6843,"Ġsoon":6844,"Ġsores":6845,"Ġsoaked":6846,"ĠÅĭmant":6847,"ĠÅĭmaarÉĽÉĽ":6848,"ĠÅĭmentÉĶÅĭ":6849,"Ġchair":6850,"Ġshri":6851,"Ġshade":6852,"Ġshop":6853,"Ġshowing":6854,"Ġshift":6855,"kyeÉĽ":6856,"kyoo":6857,"kyerÉĽÉĽ":6858,"Ġgbant":6859,"Ġgbine":6860,"Ġgbaara":6861,"ĠgbeÉĽle":6862,"Ġgbala":6863,"Ġgbaala":6864,"ĠgbalÉĽÉĽ":6865,"Ġbonn":6866,"Ġbonsaa":6867,"ĠgyerÉĽÉĽ":6868,"Ġgyef":6869,"Ġorphan":6870,"Ġbob":6871,"Ġbok":6872,"Ġbored":6873,"Ġsmart":6874,"ĠkÉĶlaa":6875,"ĠkÉĶllÉĽÉĽ":6876,"ĠkÉĶnnÉĶ":6877,"ĠNe":6878,"ĠNEG":6879,"verÉĽ":6880,"veral":6881,"Ġdebri":6882,"naabo":6883,"toe":6884,"toree":6885,"apult":6886,"Ġpoe":6887,"Ġporeba":6888,"É²Ã¡Ãł":6889,"É²Ã¬Ã¬":6890,"rub":6891,"ruding":6892,"ireÅĭ":6893,"Ġlive":6894,"egi":6895,"nÉĽnÉª":6896,"ĠwaÉĽ":6897,"Ġwait":6898,"Ġroot":6899,"nsa":6900,"nsÃłÃł":6901,"Ġ]ÌĢÌĥ":6902,"Ġkore":6903,"Ġkoree":6904,"Ġkooraa":6905,"Ġkoora":6906,"llÃ¡Ã¡":6907,"llÎµ":6908,"ĠmeelÉĽ":6909,"dÃłÅĭ":6910,"Ġdove":6911,"Ġdodge":6912,"abie":6913,"teÅĭÉĽ":6914,"ĠIn":6915,"Ġbiw":6916,"pÉĶrÉĽÉĽ":6917,"ĠSa":6918,"ĠSee":6919,"Ġgoree":6920,"kolee":6921,"bondi":6922,"bondaa":6923,"Ġdip":6924,"Ġsue":6925,"Ġsuoro":6926,"poree":6927,"posed":6928,"Ġmost":6929,"ĠmoorÉĶ":6930,"sori":6931,"soree":6932,"ĠpÉĶged":6933,"gyaÅĭgb":6934,"mmÃ¡":6935,"mmÃŃ":6936,"mmÃº":6937,"mmÃŃrÃ¬":6938,"mmÃ¡Ã¡rÊĬ":6939,"ÅĭgbÉĽ":6940,"Åĭgbe":6941,"lÃŃmÃ©":6942,"Ãµi":6943,"ĠKÉĶ":6944,"ĠKow":6945,"Ġexpl":6946,"ĠnÉĶnÉĶ":6947,"ĠÅĭÃ¡Ã¡":6948,"Å©o":6949,"ĠÉĶnne":6950,"Ġbombon":6951,"ĠnaÅĭgb":6952,"zele":6953,"astered":6954,"aving":6955,"Ġfew":6956,"Ġfeed":6957,"shy":6958,"Ġspice":6959,"Ġspiritual":6960,"deme":6961,"ÅĭkpÃ²":6962,"kÃ¡mÃ¡Ã¡":6963,"kÃ¡nÊ§":6964,"Ġtaaba":6965,"Ġwearing":6966,"orted":6967,"ĠWh":6968,"ĠWill":6969,"Ġrid":6970,"Ġrise":6971,"Ġrigid":6972,"ĠyÉĽrÉĽÉĽ":6973,"Ġbieo":6974,"ÃºÃ³lÃ¬":6975,"alenv":6976,"dzÉĶ":6977,"Ġsaala":6978,"Ġsaafe":6979,"Ġnois":6980,"more":6981,"dabo":6982,"Ġbutcher":6983,"Ġcommit":6984,"ĠbÉĽrÉĽÉĽ":6985,"ĠbÉĽmp":6986,"Ġflu":6987,"Ê§ÉªÉª":6988,"Ġproduce":6989,"Ġprocess":6990,"kuoni":6991,"Ġjelly":6992,"ĠbuÅĭ":6993,"Ġbuilt":6994,"Ġpaid":6995,"Ġalone":6996,"Ġlori":6997,"Ġlock":6998,"Ä©e":6999,"mÃ¡rÃ¡Ã¡":7000,"nzÉĶre":7001,"doree":7002,"ÉĶÉĶrebÉĶ":7003,"nÃ¡Ã¡bÊĬ":7004,"nÃ¡Ã¡zÊĬ":7005,"Ġenc":7006,"Ġpiiribe":7007,"ĠdeÉĽlÉĽ":7008,"yuoni":7009,"Ġlegire":7010,"ĠFact":7011,"bombo":7012,"sÉĽrÉª":7013,"ĠpÉĽnnÉĽÉĽ":7014,"Ġblad":7015,"Ġtooreba":7016,"Ġclimax":7017,"lÃ³rÃŃ":7018,"yelf":7019,"yelw":7020,"Ġherbal":7021,"inkling":7022,"Ġcock":7023,"Ġyiraa":7024,"Ġyield":7025,"ĠtÉĶnnaa":7026,"Ġtwenty":7027,"mÃłnÃł":7028,"mÃłrÃł":7029,"mÃŃrÃ¬":7030,"ĠBon":7031,"zuzeÉĽ":7032,"lessly":7033,"tÉĽnz":7034,"Ġarri":7035,"Ġarrest":7036,"Ġarms":7037,"Ġarrange":7038,"dÃ£ad":7039,"ĠÉĽrÉĽÉĽ":7040,"ĠÉĽrebÉĽ":7041,"tÉªÅĭÉĽ":7042,"zÉĶnne":7043,"Ġrat":7044,"Ġrush":7045,"Ġrains":7046,"Ġgetting":7047,"diff":7048,"ĠbÉĶrÉĽÉĽ":7049,"ĠbÉĶbÉĶ":7050,"Ġdays":7051,"Ġplants":7052,"Ġharden":7053,"usted":7054,"unnuu":7055,"Ġkuree":7056,"ĠkyÉĶge":7057,"Ġdond":7058,"dÉĽmÉĽ":7059,"fully":7060,"saanaa":7061,"ĠgÉĶnÉĶ":7062,"maarong":7063,"Ġbreath":7064,"Ġscale":7065,"Ġgboe":7066,"ughter":7067,"bulee":7068,"kÃ³g":7069,"kpÉĽÅĭkpÉĽ":7070,"opÉĶgeraa":7071,"pÉªlÃ¡Ã¡":7072,"Ġexperi":7073,"kÃłrÉª":7074,"kÃłlÃł":7075,"ĠGal":7076,"Ġburst":7077,"Ġburrow":7078,"ĠdÉĶse":7079,"Ġdisap":7080,"Ġguolo":7081,"ĠzÉĽle":7082,"Ġimple":7083,"bÃ²rÃ²":7084,"Ġfarmer":7085,"Ġgives":7086,"ankyiri":7087,"duoraa":7088,"sÃ¡mp":7089,"ontaa":7090,"ĠdÉĽnne":7091,"ĠdÉĽnnÉĽ":7092,"nubi":7093,"Ġbroad":7094,"ĠgyÉĽl":7095,"ĠgyÉĽle":7096,"ditional":7097,"Ġgbag":7098,"Ġroundish":7099,"bbit":7100,"cover":7101,"Ġlightly":7102,"ĠYe":7103,"Ġraw":7104,"Ġrabbit":7105,"kolaa":7106,"pain":7107,"nimie":7108,"nimig":7109,"mbÉĶre":7110,"Ġlittered":7111,"tainer":7112,"Ġsurround":7113,"Ġputting":7114,"ĠdÃ£ab":7115,"Ġcutting":7116,"ĠzeÅĭ":7117,"ĠzÉĶnzÉĶre":7118,"Ġshorts":7119,"inside":7120,"ogilaa":7121,"Ġunderwear":7122,"ĠsÉĶrÉĶ":7123,"Ġfirewood":7124,"Ġmyself":7125,"Ġbonsuuri":7126,"zÃ¡g":7127,"zÃ¡gÉª":7128,"ĠboÅĭÅĭm":7129,"Ġspect":7130,"Ġspeech":7131,"Ġplayer":7132,"Ġplayers":7133,"Ġgroin":7134,"hazard":7135,"Ġune":7136,"Ġrub":7137,"Ġlogiree":7138,"Ġinsane":7139,"fÉªl":7140,"gbaÅĭg":7141,"Ġdesire":7142,"Ġsticks":7143,"Ġaccept":7144,"Ġstatement":7145,"Ġsounding":7146,"Ġthemselves":7147,"bÃºrÃŃ":7148,"bÃ¡Ã¡rÃ¡Ã¡":7149,"guoli":7150,"hole":7151,"Ġgrown":7152,"bÃ¹Ã¹":7153,"bÃ¹gÃ³":7154,"ĠbÉĶgeÅĭm":7155,"ĠtoÉĶraa":7156,"ĠkpaaroÅĭ":7157,"Ġbompaala":7158,"sÃºgÃ²":7159,"tÃ³rÃŃ":7160,"ĠZi":7161,"Ġdivide":7162,"nÊ§ÇĲ":7163,"ĠkaÅĭkaÅĭ":7164,"Ġknowing":7165,"Ġvoora":7166,"ready":7167,"Ġbugro":7168,"ĠkÉĶÉĶlÉĶ":7169,"Ġdistant":7170,"Ġdistress":7171,"Ġdistended":7172,"Ġremoved":7173,"Ġtalking":7174,"uulit":7175,"Ġthrowing":7176,"gbÃłlÉª":7177,"Ġentuo":7178,"ĠyÉĶrÉĶ":7179,"mÉªÅĭÉĽ":7180,"wÉªlÉª":7181,"Ġwalls":7182,"Ġolder":7183,"Ġmaaleng":7184,"gbÃ²rÃŃ":7185,"Ġngme":7186,"Ġdirection":7187,"Ġfishing":7188,"kpÃ¡rÃ¡":7189,"Ã¬Ã¬r":7190,"Ġmonth":7191,"hatic":7192,"nÃłÃłsÃłÃł":7193,"Ġstomachache":7194,"dzÉĽlÉª":7195,"Ġtriangular":7196,"Ġwrit":7197,"eleÅĭ":7198,"luro":7199,"lude":7200,"ÅĭÉªnÉª":7201,"pÉĽmpÉĽlÉĽÅĭ":7202,"bompiiraa":7203,"beÉĽdom":7204,"taker":7205,"Ġbandakare":7206,"Ġspoil":7207,"Ġspoilt":7208,"Ġmarker":7209,"Ġhappen":7210,"Ġdawadawa":7211,"bonseÉĽraa":7212,"dÃ²bÃł":7213,"ĠnÉĶÉĶteÉĽ":7214,"Ġburial":7215,"Ġburied":7216,"Ġtomato":7217,"Ġhelp":7218,"Ġspirits":7219,"Ġlocally":7220,"monkey":7221,"aria":7222,"Ġmilli":7223,"Ġhoneycomb":7224,"kÉĶkÉĶl":7225,"Ġrelation":7226,"Ġrelated":7227,"Ġblindness":7228,"ĠvÅ©us":7229,"ĠsensÉĽ":7230,"Ġgrinding":7231,"Ġgroundnut":7232,"traight":7233,"Ġmeeme":7234,"Ġeverything":7235,"Ġbrewing":7236,"Ġhunger":7237,"Ġhungry":7238,"grace":7239,"children":7240,"Ġwolw":7241,"Ġwuliw":7242,"Ġflying":7243,"Ġchicks":7244,"Ã¡ÅĭÉªnÉª":7245,"ĠĉĠĉĠčĊ":7246,"ĠĉĠĉĠĉĠĉĠčĊ":7247,"Ġvisible":7248,"Ġcolour":7249,"Ġescape":7250,"nyiili":7251,"Ġclimbing":7252,"Ġpregnancy":7253,"Ġduorun":7254,"Ġstretched":7255,"Ġtuno":7256,"ĠgÉĶÅĭgÉĶ":7257,"ndÃ¡Ã¡nÃ¡":7258,"Ġpoorly":7259,"Ġmelem":7260,"Ġprotruding":7261,"Ġcourtship":7262,"ĠgoÉĶrbÉĶ":7263,"Ġmessage":7264,"Ġvigorously":7265,"Ġinvad":7266,"Ġpreparing":7267,"Ġberry":7268,"Ġsplit":7269,"Ġsides":7270,"Ġperiod":7271,"ĠwoÅĭee":7272,"nteerÉĽÉĽ":7273,"Ġchoked":7274,"Ġrotten":7275,"Ġcovered":7276,"Ġrubbish":7277,"Ġfleshy":7278,"powder":7279,"Ġslave":7280,"Ġtouch":7281,"Ġknock":7282,"Ġpersist":7283,"Ġpestering":7284,"Ġflowers":7285,"gÃłÅĭgÃł":7286,"ĠChild":7287,"Ġdivorce":7288,"Ġintelligence":7289,"Ġclaims":7290,"dundul":7291,"koliÅĭk":7292,"matter":7293,"Ġnurse":7294,"Ġtotally":7295,"Ġphys":7296,"Ġflap":7297,"Ġmerc":7298,"Ġceiling":7299,"Ġweeding":7300,"Ġappend":7301,"Ġpowdered":7302,"Ġspecies":7303,"Ġindicating":7304,"á½¹":7305,"Ġashamed":7306,"Ġplease":7307,"Ġmassage":7308,"uuruu":7309,"Ġquestion":7310,"ĠsÃ£ak":7311,"Ġknown":7312,"Ġkommie":7313,"arrhoe":7314,"Ġvalley":7315,"Ġunsteadily":7316,"figurative":7317,"gument":7318,"Ġenemy":7319,"Ġirrit":7320,"Ġbundle":7321,"Ġsoldier":7322,"Ġoccas":7323,"Ġvariety":7324,"Ġcreeping":7325,"Ġcreature":7326,"Ġhomeland":7327,"Ġmegem":7328,"Ġflattened":7329,"wrestling":7330,"Ġopponent":7331,"Ġghost":7332,"Ġyoyogi":7333,"olÉĶÅĭÅĭm":7334,"Ġthreshed":7335,"Ġfortune":7336,"Ġdebris":7337,"Ġjellylike":7338,"arrhoea":7339,");":7340,"40":7341,"45":7342,"AG":7343,"Ad":7344,"Ada":7345,"Day":7346,"Eat":7347,"Fowl":7348,"God":7349,"How":7350,"House":7351,"Kpar":7352,"Lk":7353,"LÎµ":7354,"Mar":7355,"NG":7356,"Ni":7357,"Naa":7358,"Nim":7359,"Nens":7360,"Nany":7361,"Natural":7362,"One":7363,"Pe":7364,"Pu":7365,"PÉĶg":7366,"Perf":7367,"Sp":7368,"Sep":7369,"Straight":7370,"Tu":7371,"TeÉĽ":7372,"Weep":7373,"Where":7374,"Ya":7375,"YÉĶ":7376,"Yes":7377,"YÎµ":7378,"ZÉĽ":7379,"bis":7380,"boÉĶ":7381,"boo":7382,"bÎµ":7383,"belaa":7384,"bala":7385,"cour":7386,"cation":7387,"cause":7388,"deÉĽ":7389,"dis":7390,"doo":7391,"dare":7392,"dist":7393,"dÃ¡Åĭ":7394,"dÇİ":7395,"dÉĶÅĭe":7396,"dÃ¹Ã²":7397,"dÉĽgere":7398,"dÃ³rÃŃ":7399,"dons":7400,"eree":7401,"eces":7402,"eyes":7403,"fom":7404,"fÃ¡Ãł":7405,"fÃºÃº":7406,"fÉĽre":7407,"fast":7408,"fuli":7409,"felÉĽ":7410,"fÉªrÉª":7411,"foÉĶnÉĽÉĽ":7412,"finger":7413,"foÉĶne":7414,"foÉĶrebÉĶ":7415,"friend":7416,"gaÅĭ":7417,"guu":7418,"gÉĶÉĶ":7419,"got":7420,"glÉĶ":7421,"gÃºÃº":7422,"gold":7423,"gÃ¡rÉª":7424,"galle":7425,"genne":7426,"gÉĶgÉĶ":7427,"haa":7428,"har":7429,"hor":7430,"hÃ¡Ã¡":7431,"hard":7432,"hook":7433,"honey":7434,"ira":7435,"iate":7436,"ience":7437,"ieni":7438,"iiruÅĭ":7439,"ieluu":7440,"jo":7441,"jest":7442,"kÉª":7443,"koÅĭ":7444,"kot":7445,"kab":7446,"kuli":7447,"kÇİ":7448,"kont":7449,"know":7450,"komm":7451,"kÃºÃºrÃ¬":7452,"kaÅĭmÉĽ":7453,"ler":7454,"lig":7455,"log":7456,"lmÉĽ":7457,"lamp":7458,"lmÃ¡":7459,"laga":7460,"lpÉª":7461,"mar":7462,"maarÉĽÉĽ":7463,"maane":7464,"many":7465,"mÇİ":7466,"millet":7467,"making":7468,"naÅĭ":7469,"nuu":7470,"naare":7471,"nÃ¹":7472,"nii":7473,"nÃ¨":7474,"nÉĽg":7475,"neÉĽre":7476,"nÃ¡Åĭ":7477,"naÅĭk":7478,"nuuli":7479,"naÅĭkp":7480,"nimo":7481,"nÇİ":7482,"nwÉĶ":7483,"nfÃ¡Ã¡":7484,"nonno":7485,"oc":7486,"oba":7487,"obo":7488,"oko":7489,"ooma":7490,"oonÉĽÉĽ":7491,"oster":7492,"phe":7493,"por":7494,"pers":7495,"pÃłÃł":7496,"pap":7497,"puuri":7498,"peraa":7499,"pÃºÃº":7500,"peÉĽre":7501,"part":7502,"polle":7503,"pÉĽgÉĽ":7504,"pulli":7505,"puulee":7506,"pÃ³rÃŃ":7507,"pá¹įÄ©":7508,"rba":7509,"ration":7510,"rsÉĶ":7511,"san":7512,"sne":7513,"sis":7514,"sÉĶge":7515,"see":7516,"soÅĭ":7517,"sot":7518,"sag":7519,"sion":7520,"sogi":7521,"sÉĶÉĶre":7522,"sarre":7523,"snat":7524,"shes":7525,"sence":7526,"sÉĶglÉĶ":7527,"sugiree":7528,"sugree":7529,"tÃ£":7530,"tion":7531,"tuuri":7532,"turi":7533,"toÉĶre":7534,"try":7535,"teÉĽre":7536,"took":7537,"taÅĭkp":7538,"tÉĶgele":7539,"tooth":7540,"taste":7541,"tÉĽgere":7542,"times":7543,"tuÅĭi":7544,"uge":7545,"uba":7546,"ubo":7547,"uoluÅĭ":7548,"vu":7549,"voÉĶ":7550,"vÃ²":7551,"vage":7552,"vuuri":7553,"vaale":7554,"vÉĽre":7555,"veÉĽre":7556,"veÉĽle":7557,"vori":7558,"vÉĽÅĭ":7559,"wk":7560,"wÃŃ":7561,"wall":7562,"wad":7563,"wÍ»":7564,"wÃ¹":7565,"wild":7566,"waarÉĽÉĽ":7567,"wogi":7568,"weere":7569,"weli":7570,"weÉĽlÉĽÉĽ":7571,"wpa":7572,"woÅĭi":7573,"where":7574,"wÃ¬rÃŃ":7575,"yth":7576,"yÉĶge":7577,"yeÉĽle":7578,"yaaraa":7579,"yely":7580,"yÃ¹Ã²":7581,"yeni":7582,"yeele":7583,"zom":7584,"zoÉĶ":7585,"záº½":7586,"zÉĶÅĭ":7587,"zeÉĽraa":7588,"zanne":7589,"zugi":7590,"zugiri":7591,"zagera":7592,"zonna":7593,"ªÅĭ":7594,"ÃªÅĭ":7595,"ÆĨ":7596,"ÆĲ":7597,"ĉĠ":7598,"Ġ'":7599,"Ġ)":7600,"Ġaa":7601,"Ġiribe":7602,"Ġuuro":7603,"Ġuoribo":7604,"Ġunni":7605,"ĠeÉĽmÉĽ":7606,"Ġuoree":7607,"Ġunno":7608,"ĠÅĭgÊĬ":7609,"Ġ...":7610,"ĠQn":7611,"ÉĽmÉĽÉĽ":7612,"ÉĽrrÉĽÉĽ":7613,"ÌģâĢĻ":7614,"ÉĶle":7615,"ÉĶnnÉĽÉĽ":7616,"ĠtÊĬ":7617,"Ġtone":7618,"Ġtut":7619,"Ġtuuri":7620,"Ġtick":7621,"Ġtell":7622,"ĠtÉĽge":7623,"Ġtrain":7624,"Ġtue":7625,"ĠtaÅĭa":7626,"Ġtable":7627,"Ġtanna":7628,"Ġtanz":7629,"ĠtaÅĭaa":7630,"Ġtuulo":7631,"Ġtunt":7632,"ĠteÉĽnÉĽ":7633,"ĠtÉĽgÉĽ":7634,"Ġtrough":7635,"Ġtiiraa":7636,"Ġtonno":7637,"ĠtÉĶglaa":7638,"Ġtalt":7639,"ĠtÉĶglÉĽÉĽ":7640,"rease":7641,"ĠnÃ¡Ã¡":7642,"Ġnus":7643,"Ġnaare":7644,"Ġnay":7645,"Ġnaara":7646,"Ġnara":7647,"ĠnarÉĽÉĽ":7648,"Ġnane":7649,"ĠneÉĽrÉĽ":7650,"ĠneÉĽrebÉĽ":7651,"Ġnuulee":7652,"ĠniÅĭ":7653,"Ġnooreba":7654,"Ġnagreba":7655,"Ġnagraa":7656,"aan":7657,"aase":7658,"Ġaf":7659,"Ġage":7660,"Ġaim":7661,"Ġareba":7662,"Ġabil":7663,"Ġago":7664,"Ġavo":7665,"ĠbÃł":7666,"Ġbant":7667,"Ġbru":7668,"Ġboraa":7669,"Ġboro":7670,"ĠbÃµÉĶ":7671,"Ġbuli":7672,"Ġbora":7673,"Ġbama":7674,"Ġbulo":7675,"Ġbille":7676,"ĠbaÅĭa":7677,"Ġbugi":7678,"Ġbiiree":7679,"ĠboÉĶle":7680,"Ġbaaleba":7681,"ĠbÉĶgerÉĽÉĽ":7682,"Ġbooreba":7683,"ĠbeÉĽlebÉĽ":7684,"Ġbulibo":7685,"Ġbuulibo":7686,"Ġbilii":7687,"Ġbellow":7688,"Ġsle":7689,"ĠsÃ¡":7690,"ĠsÉĶÉĶ":7691,"ĠsoÅĭ":7692,"ĠsÍ»":7693,"Ġsni":7694,"Ġsight":7695,"ĠsarÉĽÉĽ":7696,"Ġsort":7697,"Ġsip":7698,"ĠsannÉĽÉĽ":7699,"ĠsoÉĶraa":7700,"ĠsoÉĶreba":7701,"ĠsÉĶgeraa":7702,"ĠsoÅĭe":7703,"Ġsilent":7704,"ÅĭÃŃ":7705,"Åĭene":7706,"ÅĭenÉĶ":7707,"ining":7708,"ines":7709,"inent":7710,"into":7711,"erve":7712,"ergy":7713,"leÉĽ":7714,"lere":7715,"lege":7716,"lema":7717,"legere":7718,"lefÉĽ":7719,"lezaÉĽ":7720,"onist":7721,"Ġtore":7722,"Ġtoro":7723,"Ġtoraa":7724,"ĠtoÉĶre":7725,"ĠtoorÉĶ":7726,"ÉªlÉª":7727,"Éªnf":7728,"Ġkom":7729,"Ġkaare":7730,"Ġkug":7731,"Ġkant":7732,"ĠkarÉĽÉĽ":7733,"Ġkoraa":7734,"Ġkuori":7735,"Ġkolo":7736,"Ġkuuro":7737,"Ġkarre":7738,"Ġkaala":7739,"ĠkalÉĽÉĽ":7740,"ĠkoÉĶrÉĽÉĽ":7741,"ĠkarrÉĽÉĽ":7742,"Ġkola":7743,"Ġkuribo":7744,"Ġkaaleba":7745,"Ġkalla":7746,"Ġkeribe":7747,"ĠkÃ£Ã£":7748,"Ã¡gÉª":7749,"Ġped":7750,"ĠpÎµ":7751,"Ġpiree":7752,"Ġporo":7753,"Ġpuli":7754,"Ġpamp":7755,"Ġpaaraa":7756,"Ġpulo":7757,"Ġpaana":7758,"ĠpÃŃÃ©":7759,"ĠpeÉĽlÉĽ":7760,"Ġpana":7761,"Ġpono":7762,"Ġpagra":7763,"Ġpuoribo":7764,"Ġpullo":7765,"Ġpaalaa":7766,"Ġpooreba":7767,"Ġpulibo":7768,"Ġpugiro":7769,"Ġpinne":7770,"ĠpÉĶgreba":7771,"Ġpimp":7772,"Ġpillow":7773,"Ġpyth":7774,"hearted":7775,"ĠdÃ¡Ã¡":7776,"Ġdus":7777,"ĠdÉĶge":7778,"Ġdad":7779,"Ġdare":7780,"ĠdÍ»":7781,"Ġdii":7782,"Ġdoore":7783,"Ġderi":7784,"Ġdye":7785,"Ġdrain":7786,"Ġdaaraa":7787,"Ġdany":7788,"ĠdÉĶgele":7789,"ĠdoÉĶlÉĶ":7790,"ĠdaÅĭgb":7791,"ĠdÉĶglÉĶ":7792,"ĠdeÉĽlebÉĽ":7793,"ĠdÉĶgereba":7794,"ĠdÉĶgerebÉĶ":7795,"Ġdusk":7796,"ĠlÃł":7797,"Ġlid":7798,"Ġluuri":7799,"ĠlarÉĽÉĽ":7800,"Ġlies":7801,"Ġluuro":7802,"Ġliire":7803,"Ġluribo":7804,"Ġlinnee":7805,"Ġleribe":7806,"Ġligire":7807,"Ġlugiribo":7808,"arf":7809,"arÉª":7810,"arba":7811,"arans":7812,"Ġwie":7813,"Ġwire":7814,"ĠwerÉĽ":7815,"Ġwaara":7816,"ĠwaarÉĽÉĽ":7817,"ĠweÉĽraa":7818,"ĠweÉĽrebÉĽ":7819,"ĠwelÉĽÉĽ":7820,"ĠweÉĽlÉĽÉĽ":7821,"Ġwonaa":7822,"ĠwÉĽgrÉĽ":7823,"Ġwogiro":7824,"Ġod":7825,"Ġoper":7826,"ĠfoÅĭ":7827,"Ġfuuri":7828,"ĠfarÉĽÉĽ":7829,"Ġfaraa":7830,"Ġfue":7831,"Ġfuuree":7832,"Ġfold":7833,"Ġfaana":7834,"ĠfeÉĽlÉĽ":7835,"Ġfanna":7836,"Ġfuulo":7837,"ĠfoÉĶreba":7838,"ĠfoÉĶlÉĶ":7839,"Ġfuoribo":7840,"Ġfence":7841,"Ġferoo":7842,"ĠfoÉĶlaa":7843,"Ġfigire":7844,"Ġfugiro":7845,"Ġfogiro":7846,"Ġfought":7847,"Ġfuulibo":7848,"Ġfugiribo":7849,"Ġfáº½áº½":7850,"Ġfogiribo":7851,"Ġfertile":7852,"Ġfingers":7853,"Ġger":7854,"Ġgen":7855,"ĠgÊĬ":7856,"Ġgas":7857,"Ġgand":7858,"Ġgru":7859,"Ġgab":7860,"Ġgoro":7861,"Ġgora":7862,"Ġgbog":7863,"Ġgama":7864,"Ġgalle":7865,"Ġgeli":7866,"Ġgbogi":7867,"Ġgalla":7868,"Ġgunno":7869,"Ġgaleba":7870,"Ġmm":7871,"Ġmoo":7872,"Ġmol":7873,"ĠmÃ¡Ã¡":7874,"ĠmÍ»":7875,"Ġmun":7876,"Ġmur":7877,"Ġmup":7878,"Ġmile":7879,"Ġmens":7880,"Ġmareba":7881,"Ġmice":7882,"Ġmaala":7883,"Ġmuulo":7884,"Ġmalla":7885,"ĠmoÉĶlÉĽÉĽ":7886,"Ġmeele":7887,"Ġmuni":7888,"anc":7889,"anlee":7890,"anso":7891,"rict":7892,"river":7893,"riminate":7894,"Ġ21":7895,"enye":7896,"geÅĭ":7897,"gelÉĽ":7898,"gest":7899,"gelÉĽÉĽ":7900,"gelaa":7901,"ĠvoÉĶ":7902,"Ġvak":7903,"ĠverÉĽÉĽ":7904,"ĠvaarÉĽÉĽ":7905,"ĠveÉĽrÉĽ":7906,"Ġvoro":7907,"ĠvorÉĽÉĽ":7908,"ĠvÉĽrÉĽ":7909,"ĠvorÉĶ":7910,"ĠvoÉĶraa":7911,"ĠvÉĶgrÉĶ":7912,"Ġvac":7913,"atitude":7914,"oring":7915,"aling":7916,"alaarÉĽÉĽ":7917,"alcohol":7918,"Ġcy":7919,"Ġced":7920,"Ġcam":7921,"Ġcake":7922,"Ġcity":7923,"Ġthese":7924,"rope":7925,"itiri":7926,"itÉĶÉĶre":7927,"itegi":7928,"Ġhut":7929,"Ġhire":7930,"Ġhour":7931,"ĠhÉĽge":7932,"Ġhorn":7933,"Ġhang":7934,"Ġhaareba":7935,"Ġhunt":7936,"Ġhurri":7937,"ĠhÉĽgerÉĽ":7938,"Ġhoot":7939,"ĠhÉĽgerebÉĽ":7940,"eÉĽbaa":7941,"eÉĽmaa":7942,"Ġyes":7943,"ĠyeÉĽrÉĽ":7944,"Ġyoro":7945,"ĠyÉĶre":7946,"ĠyeÉĽle":7947,"ĠyoÉĶrÉĶ":7948,"Ġyoree":7949,"Ġyagere":7950,"ĠyagerÉĽÉĽ":7951,"Ġyoe":7952,"Ġlaw":7953,"ĠlaÉĽ":7954,"Ġlareba":7955,"ĠlaÅĭgb":7956,"Ġlaziness":7957,"ombie":7958,"ommine":7959,"edible":7960,"new":7961,"neÅĭkp":7962,"ism":7963,"ÃŃrÃ¡Ã¡":7964,"ÃŃnÃŃ":7965,"ndarÉĽÉĽ":7966,"iluu":7967,"iloÅĭ":7968,"ĠeÅĭg":7969,"Ġeast":7970,"Ġeyel":7971,"kperÉĽÉĽ":7972,"kpant":7973,"kpaarÉĽÉĽ":7974,"kperaa":7975,"kpÉĽre":7976,"kpeÉĽre":7977,"kpÃ£a":7978,"kpeÉĽraa":7979,"kpore":7980,"kparre":7981,"kpulo":7982,"kpÃ¡Ã¡rÉª":7983,"kpennÉĽÉĽ":7984,"kpolee":7985,"kpoÅĭkp":7986,"Ġzel":7987,"Ġzus":7988,"Ġzoore":7989,"Ġzareba":7990,"ĠzonnÉĽÉĽ":7991,"ĠziÅĭ":7992,"Ġzirii":7993,"ĠzÃ£Ã£":7994,"ĠzonnÉĶ":7995,"asama":7996,"Ġbebe":7997,"Ġbest":7998,"ĠbeelÉĽ":7999,"boÅĭi":8000,"Ġintere":8001,"Ġiniti":8002,"ray":8003,"olla":8004,"rÉªÅĭ":8005,"amus":8006,"ammine":8007,"amaria":8008,"Ġthirty":8009,"Ġthieves":8010,"bÉĽraa":8011,"bÉĽmb":8012,"bÉĽrÊĬ":8013,"ieve":8014,"imbo":8015,"Ġbak":8016,"ĠbaÉĽ":8017,"Ġbagy":8018,"Ġbagere":8019,"Ġbaleba":8020,"ĠbagbÉĽÉĽ":8021,"peat":8022,"peerÉĽÉĽ":8023,"pegele":8024,"usu":8025,"Ġkagb":8026,"Ġkaky":8027,"Ġkaleba":8028,"ngÃ¡Ã¡":8029,"aku":8030,"igre":8031,"igoo":8032,"igili":8033,"igbÉĽre":8034,"ogoo":8035,"ÅĭmÉªÉª":8036,"ÅĭmÃ¡rÉª":8037,"ĠnyÉĽÉĽ":8038,"Ġnyuu":8039,"Ġnyora":8040,"Ġnyaane":8041,"Ġnyuuree":8042,"ĠnyÃŃÃ©":8043,"Ġnyuuribo":8044,"ĠnyoÉĶlÉĶ":8045,"Ġnyagra":8046,"ĠnyÉĶgÉĽÉĽ":8047,"ĠnyegrÉĽ":8048,"Ġnyonna":8049,"Ġnyigiribe":8050,"ading":8051,"ĠkpÉª":8052,"Ġkpal":8053,"Ġkpog":8054,"ĠkpÉĶge":8055,"Ġkpag":8056,"ĠkpaarÉĽÉĽ":8057,"Ġkpara":8058,"ĠkpeÉĽrÉĽ":8059,"ĠkpÃ£a":8060,"Ġkpale":8061,"Ġkpoli":8062,"ĠkpelÉĽ":8063,"ĠkpÉĽrÉĽ":8064,"Ġkponnee":8065,"Ġkpalla":8066,"Ġkponno":8067,"Ġkpaanema":8068,"Ġkpogilee":8069,"Ġstir":8070,"Ġstrain":8071,"Ġstoop":8072,"Ġstiff":8073,"ĠAy":8074,"ĠTake":8075,"mabie":8076,"maize":8077,"nny":8078,"veene":8079,"vered":8080,"seÅĭkÃ£a":8081,"cean":8082,"bean":8083,"beenÉĽÉĽ":8084,"yÉĽÅĭ":8085,"yÉĽrÉª":8086,"yÉĽnw":8087,"entoloÅĭ":8088,"unw":8089,"unch":8090,"unimo":8091,"Ġlenne":8092,"ĠleÅĭee":8093,"ĠlezaÉĽ":8094,"ÉĶgyÉĶ":8095,"Ġadvance":8096,"kÉĶl":8097,"kÉĶnd":8098,"kÉĶnt":8099,"kÉĶmm":8100,"kÉĶlle":8101,"mpÃ¡Ã¡":8102,"mpÉĽge":8103,"mpÉĶgrÉĽÉĽ":8104,"lÉĽntÉĽ":8105,"Ġanuu":8106,"stu":8107,"struct":8108,"urch":8109,"urally":8110,"lÉªfÃł":8111,"lÉªzÃ¡rÉª":8112,"ĠThese":8113,"Ġnet":8114,"ĠneÅĭ":8115,"Ã¹rÃ¡Ãł":8116,"Ġforo":8117,"Ġforge":8118,"Ġforbo":8119,"ssible":8120,"sscross":8121,"Ġseen":8122,"Ġseated":8123,"Ġseveral":8124,"lÉĶÅĭ":8125,"lÉĶlÉĶ":8126,"Ġreplace":8127,"Ġrelease":8128,"erebÉĽÉĽ":8129,"gborree":8130,"liÅĭe":8131,"nyuo":8132,"nyaane":8133,"nyuuree":8134,"nyigiri":8135,"nyogra":8136,"chair":8137,"Ġnaw":8138,"rÉĶÅĭ":8139,"Ġtele":8140,"Ġtear":8141,"Ġtether":8142,"ĠteenÉĽ":8143,"ĠtekoliÅĭk":8144,"agele":8145,"gÉªsÉª":8146,"Ġheat":8147,"Ġhell":8148,"mbÉª":8149,"mbÃ¬":8150,"mbÃº":8151,"mbÉªÉĽ":8152,"mbÃłÃł":8153,"mbles":8154,"ÅĭkÃ©":8155,"ÅĭkÃ²":8156,"ÅĭkoÉĶnÉĽÉĽ":8157,"ÅĭkeleÅĭ":8158,"mÉĽrÉĽ":8159,"nail":8160,"nteÉĽ":8161,"Ġdabo":8162,"Ġdabil":8163,"Ġdawn":8164,"andaana":8165,"ĠsokyÉĽ":8166,"ĠÅĭmara":8167,"ĠÅĭmarÉĽÉĽ":8168,"ĠÅĭmora":8169,"ĠÅĭmareba":8170,"ĠÅĭmeÉĽlÉĽÉĽ":8171,"ĠÅĭmeÉĽnÉĽ":8172,"ĠÅĭmÉĽgrÉĽ":8173,"ĠÅĭmegrÉĽ":8174,"ĠÅĭmentÉĶ":8175,"Ġchin":8176,"Ġcharm":8177,"Ġshame":8178,"Ġshrink":8179,"Ġshiny":8180,"Ġshared":8181,"Ġshiver":8182,"Ġshoes":8183,"Ġshooting":8184,"antere":8185,"kya":8186,"kyÉĶÉĶ":8187,"kyap":8188,"kyara":8189,"kyoori":8190,"kyooree":8191,"Ġgbat":8192,"Ġgbie":8193,"ĠgbarÉĽÉĽ":8194,"ĠgbannÉĽÉĽ":8195,"Ġgbanne":8196,"ĠgbaalÉĽÉĽ":8197,"Ġgbinime":8198,"Ġgbonimo":8199,"Ġgbannaa":8200,"Ġgbonno":8201,"ĠgbÉĶgelÉĶ":8202,"Ġgbigire":8203,"Ġgbigiribe":8204,"Ġgbarba":8205,"Ġbong":8206,"ĠbonyÉĽ":8207,"Ġbonfe":8208,"ĠbonsÉĶ":8209,"Ġbonzaa":8210,"Ã¨rÃ¬":8211,"Ġgyer":8212,"Ġgyiri":8213,"Ġgyild":8214,"Ġgyile":8215,"Ġgyerre":8216,"ĠgyenemÉĽ":8217,"ĠgyennÉĽÉĽ":8218,"ĠgyennÉĽ":8219,"Ġgyampe":8220,"ĠgyÉĶgyÉĶ":8221,"Ġbov":8222,"Ġbori":8223,"nÉĶÉĽ":8224,"ĠkÉĶr":8225,"ĠkÉĶÉĽ":8226,"ĠkÉĶle":8227,"ĠkÉĶlÉĶ":8228,"ĠkÉĶrÉĶ":8229,"ĠkÉĶmm":8230,"ĠkÉĶnema":8231,"ĠkÉĶllaa":8232,"ĠkÉĶÅĭkÉĶ":8233,"ĠkÉĶnky":8234,"ĠNaa":8235,"veraa":8236,"verty":8237,"Ġdef":8238,"Ġdefe":8239,"Ġdeeds":8240,"Ġfogele":8241,"undaa":8242,"undant":8243,"rÃŃÃ¬":8244,"apole":8245,"aphor":8246,"Ġporee":8247,"Ġpooraa":8248,"rubb":8249,"Ġmaleba":8250,"things":8251,"Ġligee":8252,"nÉªn":8253,"nÉªnsÉª":8254,"egene":8255,"Ġhaste":8256,"nÉĽmÉĽ":8257,"áº¡":8258,"Ġrock":8259,"Ġroast":8260,"Ġrooster":8261,"nsÃ¡":8262,"nsÃ²":8263,"nsÃ¹":8264,"ĠkoÉĽ":8265,"Ġkoreba":8266,"ĠkoorÉĶ":8267,"llÃ¡Ãł":8268,"ĠmeÅĭÉĽ":8269,"dÃłpÉĽ":8270,"dÃłkÊĬ":8271,"Ġdoe":8272,"Ġdoled":8273,"ĠdolebÉĶ":8274,"ĠmannÉĽÉĽ":8275,"Ġmanna":8276,"abilii":8277,"abbath":8278,"endaare":8279,"ĠIs":8280,"ĠDo":8281,"ĠDon":8282,"ĠlÉĽrÉĽ":8283,"pÉĶllÉĽÉĽ":8284,"ĠSe":8285,"ĠSome":8286,"ĠSáº½ÉĽ":8287,"Ġsack":8288,"ĠsawÉĶ":8289,"pÉĽre":8290,"pÉĽlÉĽ":8291,"pÉĽnne":8292,"pÉĽÅĭe":8293,"pÉĽgere":8294,"koora":8295,"bonky":8296,"Ġdiarrhoea":8297,"quaint":8298,"Ġhaleba":8299,"Ġhawk":8300,"Ġsuicide":8301,"Ġconvers":8302,"popot":8303,"ĠkyÉĽÅĭe":8304,"rying":8305,"soil":8306,"sobÉĶ":8307,"gyÉĶ":8308,"gyil":8309,"gyiri":8310,"eller":8311,"ellation":8312,"ÅĭgÉĶ":8313,"ÅĭgÃł":8314,"ÅĭgoÉĶ":8315,"lÃŃÅĭÃ©":8316,"ĠKusielee":8317,"ĠOo":8318,"Ġexit":8319,"Ġexam":8320,"Ġexha":8321,"Ġexamine":8322,"Ġexchange":8323,"ĠnÉĶw":8324,"ĠnÉĶdaa":8325,"ĠnÉĶnema":8326,"Ġyeld":8327,"Ġyelfa":8328,"Ġyelbieri":8329,"ĠÉĶrÉĽÉĽ":8330,"ĠÉĶraa":8331,"Ġbombilii":8332,"Ġbompiiri":8333,"ĠnaÅĭkoÉĶ":8334,"ĠnaakyeemÉĽ":8335,"zege":8336,"zeenÉĽÉĽ":8337,"bÃŃÃ¨":8338,"umine":8339,"imeÅĭÉĽ":8340,"ĠpoÉĶraa":8341,"ĠpoÉĶlÉĶ":8342,"ĠpoÉĶreba":8343,"aven":8344,"Ġfeeds":8345,"short":8346,"Ġspill":8347,"Ġsprain":8348,"Ġunple":8349,"Ġunint":8350,"ÉĽgelÉĽÅĭ":8351,"demee":8352,"debt":8353,"ÅĭkpÉĶ":8354,"Åĭkpaa":8355,"kÃ¡nÃ¡":8356,"kÃ¡ÅĭkÃ¡":8357,"Ġtaant":8358,"ĠwelebÉĽ":8359,"Ġweave":8360,"Ġweaving":8361,"ÌĥÌģ-":8362,"Ġpele":8363,"Ġpear":8364,"Ġpepper":8365,"yige":8366,"yiraa":8367,"Ġouter":8368,"iless":8369,"ĠWell":8370,"ĠWho":8371,"Ġrim":8372,"Ġrising":8373,"ĠyÉĽraa":8374,"Ġwasege":8375,"ilik":8376,"Ã£abo":8377,"ÃºÃ³rÃ¡Ã¡":8378,"ÃºÃ³rÃ³":8379,"Ġzaang":8380,"dzÉªÉĽ":8381,"Ġsaalaa":8382,"Ġsaamaarong":8383,"ĠnyÉĽrebÉĽ":8384,"ĠnoorÉĽÉĽ":8385,"Ġnoora":8386,"bÃłrÉª":8387,"bÃłgÉªbÊĬ":8388,"move":8389,"ives":8390,"Ġcomm":8391,"ĠtahÉĽ":8392,"ĠbÉĽmb":8393,"ĠbÉĽÅĭk":8394,"ĠbÉĽnnÉĽ":8395,"Ġflood":8396,"Ġflame":8397,"Ġflies":8398,"Ġflute":8399,"ured":8400,"Ê§ÉªÉĽ":8401,"Ġproud":8402,"Ġprovide":8403,"ĠgbÉĽrÉĽÉĽ":8404,"ĠgbÉĽnemÉĽ":8405,"ĠgbÉĽnnÉĽ":8406,"ected":8407,"Ġbaabo":8408,"Ġbaalaa":8409,"kuro":8410,"kubo":8411,"ĠdÉĶÉĶt":8412,"ĠdÉĶÉĶnÉĶ":8413,"ĠdÉĶÉĶnema":8414,"ĠdÉĶÉĶbilii":8415,"Ã¡ÅĭÃłÃ¡":8416,"Ġpack":8417,"Ġpawpa":8418,"Ġshed":8419,"ĠzuiÅĭ":8420,"Ġalready":8421,"Ä©áº½":8422,"Ġyeast":8423,"nzÃŃÃ©":8424,"nzÉĽÅĭ":8425,"sÉªÅĭ":8426,"sÉªnsÉĶ":8427,"sÉªnsÉĽ":8428,"sÉªÅĭkÃ£":8429,"ĠPa":8430,"ĠPay":8431,"ĠPampana":8432,"ĠPrep":8433,"dÉĶnd":8434,"dÉĶlÉĶ":8435,"Ġashes":8436,"Ġgratitude":8437,"dori":8438,"doba":8439,"ÉĽrÉĽÅĭ":8440,"Ġ-ÌĥÌģ":8441,"Ġenlarge":8442,"Ġenergy":8443,"Ġpigeon":8444,"ĠdeÉĽlÉĽÉĽ":8445,"Ġlegeraa":8446,"boma":8447,"ĠpÉĽmp":8448,"ĠpÉĽnne":8449,"ĠpÉĽnnaa":8450,"Ġblue":8451,"Ġblink":8452,"ĠkpÉĽlebÉĽ":8453,"ĠdogerÉĶ":8454,"pÉĶgeseÉĽ":8455,"yelm":8456,"Ġnimig":8457,"Ġnimif":8458,"ĠmÉĶÉĽ":8459,"ĠmÉĶnemÉĶ":8460,"ĠtÉĶrÉĶ":8461,"ĠtÉĶnÉĶ":8462,"amber":8463,"ĠMay":8464,"Ġtwig":8465,"ĠnÉĽku":8466,"Ġpotter":8467,"Ġpotato":8468,"mÃłÅĭ":8469,"mÃłkÊĬ":8470,"ĠBoÅĭ":8471,"ĠBut":8472,"Ġtuoro":8473,"Ġswarm":8474,"Ġswollen":8475,"Ġmiine":8476,"arker":8477,"gÃŃrÃ¬":8478,"tÉĽrÉĽÉĽ":8479,"Ġart":8480,"anyini":8481,"intment":8482,"dÃ£Ã£":8483,"baalÉĽÉĽ":8484,"bÃ¡lÃ¡":8485,"ĠsÉĽrÉĽÉĽ":8486,"ĠsÉĽllÉĽ":8487,"owner":8488,"ĠHis":8489,"Ġrhy":8490,"Ġrained":8491,"daanÉĽÉĽ":8492,"pige":8493,"piime":8494,"Ġnubiri":8495,"ĠbÉĶl":8496,"ĠbÉĶÉĽ":8497,"ĠpÉĶrÉĶ":8498,"Ġhardheaded":8499,"ustom":8500,"Ġdonne":8501,"dÉĽÅĭ":8502,"dÉĽndÉĽ":8503,"ĠgÉĶnnÉĶ":8504,"Ġgbele":8505,"ĠgbeÅĭgb":8506,"Ġcaring":8507,"Ġhandle":8508,"ÃŃÃ©lÃŃ":8509,"ÃŃÃ©lÃ¬":8510,"ÃŃÃ©lÃºÃº":8511,"Ġearnestly":8512,"ĠDagbÉĽ":8513,"yÉĶp":8514,"Ġscat":8515,"Ġscor":8516,"Ġscab":8517,"ĠlÉĶÉĽ":8518,"ĠlÉĶnema":8519,"Ġlonger":8520,"Ġgbol":8521,"Ġgbolo":8522,"build":8523,"kÃ³rÃŃ":8524,"Ġpump":8525,"kpÉĽle":8526,"kpÉĽlÉĽ":8527,"kpÉĽlÉª":8528,"Ġbigger":8529,"Ġkpeere":8530,"ĠkpeelÉĽ":8531,"opard":8532,"ÉĶgerebÉĽÉĽ":8533,"gÃ¡l":8534,"gÃ¡ne":8535,"gÃ¡lÉª":8536,"ĠGye":8537,"Ġbury":8538,"Ġburri":8539,"ÅĭgbÃ²":8540,"Ġcave":8541,"Ġcaught":8542,"Ġappro":8543,"ĠdÉĶndÉĶ":8544,"Ġgain":8545,"Ġgaba":8546,"Ġguolibo":8547,"ĠzÉĽlebÉĽ":8548,"ĠzÉĽllÉĽ":8549,"wÉĽgÉª":8550,"Ġimit":8551,"Ġimpro":8552,"Ġimpat":8553,"Ġoffering":8554,"bÃ²g":8555,"kÃºl":8556,"kÃºs":8557,"Ġabdom":8558,"Ġabundant":8559,"Ġfarmers":8560,"Ġmalem":8561,"Ġmales":8562,"rÃ³Åĭ":8563,"mpÉĽgÉª":8564,"sÃ¡mÃ¡":8565,"sÃ¡rÃłÃł":8566,"ontal":8567,"Ġbrought":8568,"ĠgyÉĽrÉĽ":8569,"ĠgyÉĽlÉĽ":8570,"Ġbagup":8571,"Ġgbareba":8572,"Ġsuppose":8573,"ĠdaaroÅĭ":8574,"Ġforms":8575,"Ġformer":8576,"ĠYuoni":8577,"Ġrag":8578,"Ġmuzzle":8579,"Ġrefuses":8580,"Ġrefusing":8581,"Ġexpressed":8582,"kolli":8583,"pact":8584,"smooth":8585,"nimip":8586,"mÃ¡Ã¡ro":8587,"they":8588,"Ġliterature":8589,"ĠEnglish":8590,"ĠdÃ£at":8591,"gÃ³lÃŃ":8592,"Ġsaku":8593,"Ġfaeces":8594,"Ġcutlass":8595,"ĠzÉĶlÉĶ":8596,"Ġstrongly":8597,"ĠtÉĽne":8598,"ĠtÉĽrebÉĽ":8599,"Ġends":8600,"Ġendless":8601,"ĠsÉĶÉĽ":8602,"ĠsÉĶrÉĽÉĽ":8603,"ÉĶgelebÉĶ":8604,"giraa":8605,"gilee":8606,"gboÅĭg":8607,"gboÅĭi":8608,"Ġlooks":8609,"Ġholes":8610,"Ġcatapult":8611,"nvÉĶ":8612,"nvÊĬ":8613,"zoorÉĽÉĽ":8614,"Ġspeed":8615,"Ġplaying":8616,"ĠeÅĭÉĽÉĽ":8617,"gyÉĽÅĭe":8618,"ÌĢ::":8619,"kÉĶÉĶlÉĽÉĽ":8620,"zÃ¬Ã©":8621,"zÃ¬mÃ¡Ã¡":8622,"Ġuro":8623,"Ġumb":8624,"Ġtamm":8625,"Ġlogoko":8626,"gelens":8627,"bÉªlÉª":8628,"fÉªntÉª":8629,"grey":8630,"green":8631,"gbare":8632,"Ġblacksmith":8633,"Ġdesert":8634,"baÅĭene":8635,"kpÃ³lÃŃ":8636,"eÅĭÉĽÉĽ":8637,"Ġacquaint":8638,"Ġfuom":8639,"Ġfuraa":8640,"Ġfuoro":8641,"annyug":8642,"Ġcorner":8643,"Ġfirstfruits":8644,"gÃ²Ã²":8645,"miiri":8646,"natal":8647,"tiis":8648,"tiiri":8649,"Ġbeggar":8650,"bÃºgÃŃ":8651,"guolo":8652,"mÃ©Ã©":8653,"vÉĽnÉĽ":8654,"Ġkolaa":8655,"Ġdriver":8656,"Ġcarelessness":8657,"bÃ¹gÃ¬":8658,"nÃºbÃ¬":8659,"sÃłÃłlÉª":8660,"sÃłÃłlÊĬ":8661,"yoe":8662,"ĠbÉĶgeboge":8663,"ĠtoÉĶrÉĶ":8664,"ĠtoÉĶnÉĶ":8665,"ĠwÉĶÉĶÉĽ":8666,"ĠwÉĶÉĶraa":8667,"ĠwÉĶÉĶreba":8668,"Ġempath":8669,"Ġkpaaky":8670,"Ġkpaakpaa":8671,"Ġextreme":8672,"sÃºgÃ³":8673,"tÃ³g":8674,"Ġmeng":8675,"ĠmennÉĽ":8676,"Ġcheap":8677,"Ġbombulo":8678,"sÃ¡Ã¡nÃł":8679,"ĠsoÉĶÅĭaa":8680,"Ġsigili":8681,"ĠkaÅĭkans":8682,"Ġvoreba":8683,"Ġvoice":8684,"reads":8685,"Ġsapare":8686,"ĠkÉĶÉĶrÉĶ":8687,"Ġwoven":8688,"Ġyuoni":8689,"Ġyuomo":8690,"taaÅĭk":8691,"ĠJira":8692,"kpaakpaa":8693,"gbÃłÅĭgb":8694,"kyeerÉĽÉĽ":8695,"kyeenÉĽ":8696,"meele":8697,"produ":8698,"pÃ¬llÃ¬":8699,"zÉªlÉª":8700,"Ġentang":8701,"Ġagra":8702,"Ġagreba":8703,"ĠboÅĭkoÉĶre":8704,"Ġbushy":8705,"ĠlÉĶÉĶrÉĶ":8706,"ĠlagÉĽÉĽ":8707,"Ġlagraa":8708,"ĠbeelebÉĽ":8709,"Ġbeating":8710,"Ġgoats":8711,"Ġbabysit":8712,"rÃ¨Ã¨":8713,"ĠkurigbÉĽÉĽ":8714,"Ġpigre":8715,"Ġolden":8716,"kpÉªlÉª":8717,"Ġdabáº½ÉĽ":8718,"awra":8719,"sucking":8720,"Ġtiiribe":8721,"ĠsennÉĽ":8722,"ĠkaaÉĽ":8723,"Ġcalabashes":8724,"imming":8725,"Ġnecklace":8726,"Ġconfusion":8727,"Ġjoy":8728,"Ġwalking":8729,"Ġwalked":8730,"Ġmetaphor":8731,"Ġclaw":8732,"ogoko":8733,"É²ÉªnÉª":8734,"yaaroÅĭ":8735,"Ġdrama":8736,"Ġbeautifully":8737,"bÃ³gÃŃ":8738,"Ġnarrated":8739,"Ġnarrate":8740,"Ġsugar":8741,"Ġsugro":8742,"Ġloop":8743,"Ġloosen":8744,"Ġwrite":8745,"Ġgrave":8746,"Ġgravel":8747,"Ġinstance":8748,"ĠbonteÉĽre":8749,"Ġarrows":8750,"warema":8751,"zagele":8752,"zagelaa":8753,"ĠRom":8754,"ĠRev":8755,"ĠÉªÅĭ":8756,"Ġsollo":8757,"Ġfatty":8758,"Ġhitting":8759,"Ġincess":8760,"ÃºlÃŃmÃ³":8761,"Ġfootball":8762,"Ġsupporting":8763,"puro":8764,"pÃ¡Ã¡lÊĬ":8765,"vÃ¡rÃłÃł":8766,"vÅ©ud":8767,"yÃŃrÃ¡Ã¡":8768,"Ġbandaa":8769,"Ġspokes":8770,"Ġdankyins":8771,"Ġgirls":8772,"Ġhuni":8773,"Ġhaphazard":8774,"ÅĭmÉªnÉª":8775,"ÅĭmÉªntÉĶ":8776,"Beans":8777,"DagbÉĽ":8778,"kanwaa":8779,"kanneÉĽ":8780,"sensogÉĶ":8781,"yÃ©lÃŃ":8782,"Ġuunaa":8783,"Ġburibu":8784,"Ġsurprised":8785,"dÉªndÉĶ":8786,"kÃ£aburi":8787,"Ġbrush":8788,"Ġkanga":8789,"ĠdendÉĶre":8790,"Ġnyoreba":8791,"ĠnyoorÉĽÉĽ":8792,"Ġnyoora":8793,"Ġstrips":8794,"Ġstalks":8795,"Ġrelative":8796,"Ġgyegire":8797,"ĠgyegerÉĽ":8798,"Ġgyegiribe":8799,"dapare":8800,"dÃ£azu":8801,"pped":8802,"pÃºlÃ³":8803,"sakuuri":8804,"Ġannoun":8805,"ĠboÉĶnÉĶ":8806,"Ġbaalon":8807,"ĠsÉĶrebÉĶ":8808,"ĠsÉĶresÉĶre":8809,"Ġcurse":8810,"Ġcourse":8811,"Ġeleven":8812,"Ġkpiiribe":8813,"Ġnensaala":8814,"Ġsimple":8815,"Ġplump":8816,"Ġvalue":8817,"Ġcord":8818,"ĠkpaÉĽ":8819,"Ġstumble":8820,"Ġgrindstone":8821,"bitter":8822,"fÃºÃ¹":8823,"fÃºlÃ³":8824,"kÃºÃ³ngÃ¡Ã¡":8825,"traditional":8826,"Ġpulling":8827,"Ġdelicious":8828,"Ġwalpi":8829,"Ġwalpie":8830,"Ġhusk":8831,"ÃŃÃŃrÃ¡Ã¡":8832,"ĠnyemÉĽ":8833,"ĠnyeÅĭg":8834,"Ġteaching":8835,"ÅĭkÃ¡rÃ¡Ã¡":8836,"ĠpÉĶgesare":8837,"tÃ²Ã²rÃŃ":8838,"***":8839,"*****":8840,"someone":8841,"tÃ¬gÃ¬":8842,"Ġswear":8843,"Ġpupil":8844,"ĠdonemÉĶ":8845,"ĠfelpÉĽmpÉĽ":8846,"Ġfigiribe":8847,"Ġfeeling":8848,"ĠfeelbÉĽ":8849,"Death":8850,"ccess":8851,"nÉ²ÃºÃº":8852,"peÉĽloÅĭ":8853,"ĠbanaÅĭ":8854,"Ġkogree":8855,"Ġkuurii":8856,"ĠdoÉĶÉĽ":8857,"ĠdoÉĶkp":8858,"Ġgotten":8859,"ÉĽgelÉĽgÉĽ":8860,"Ġrituals":8861,"Ġlucky":8862,"Ġspeaker":8863,"container":8864,"wÃ²Åĭ":8865,"ĠÃ¡yÃ¬":8866,"Ġleere":8867,"plessness":8868,"ĠpellÉĽ":8869,"Ġdomestic":8870,"ĠwofeÉĽmaa":8871,"Ġvuolo":8872,"Ġvisit":8873,"Ġcrash":8874,"bageboge":8875,"ĠnyogrÉĶ":8876,"nyieli":8877,"ĠÅĭmoreba":8878,"ĠĠĠĠĠĠĠĠĠĠĠĠĠĠĠĠ":8879,"Ġalcoholic":8880,"fÃ³m":8881,"sÃ²gÃ¬":8882,"salens":8883,"ĠâĢľ":8884,"Ġtunimo":8885,"Ġpalamp":8886,"Ġinfertile":8887,"dÃ¹nd":8888,"lamation":8889,"Ġporra":8890,"Ġwidow":8891,"Ġooze":8892,"ĠgaÅĭgad":8893,"mpÉĶgeba":8894,"Ġneedle":8895,"Ġsexual":8896,"oÅĭkommuulit":8897,"Ġdiviner":8898,"Ġvegetables":8899,"bugili":8900,"Ġwelcome":8901,"ĠfoÉĶÉĽ":8902,"Ġfloat":8903,"Ġcultivated":8904,"Ġzannoo":8905,"ÅĭmÃ¡Ã¡rÃ¡":8906,"Ġnyiilibe":8907,"Ġnyiilaa":8908,"Ġnyagla":8909,"biyaale":8910,"Ġregard":8911,"mbÃ¡lÃ¡Ã¡":8912,"mbÃŃlÃ©":8913,"ĠgyaÅĭgbonni":8914,"pÉĶlbile":8915,"Ġtakpale":8916,"Ġrubber":8917,"katakye":8918,"Ġutterance":8919,"ĠnÉĶgbÉĽ":8920,"Ġsatis":8921,"Ġtouched":8922,"ĠgaliÅĭk":8923,"ĠgeÅĭine":8924,"gelaÅĭ":8925,"ĠeÅĭkpoÅĭkp":8926,"Ġneatly":8927,"agesaga":8928,"ĠgyeerÉĽ":8929,"Ġdegile":8930,"Ġdegilibe":8931,"Ġconsider":8932,"Ġscarce":8933,"Ġscarcity":8934,"ĠChrist":8935,"Ġdivorced":8936,"Ġintelligent":8937,"ĠkaleÅĭkal":8938,"âĢ¦âĢ¦âĢ¦âĢ¦âĢ¦âĢ¦âĢ¦âĢ¦âĢ¦âĢ¦âĢ¦âĢ¦âĢ¦âĢ¦âĢ¦":8939,"âĢ¦âĢ¦âĢ¦âĢ¦âĢ¦âĢ¦âĢ¦âĢ¦âĢ¦âĢ¦âĢ¦âĢ¦âĢ¦âĢ¦âĢ¦.":8940,"Ġcontinuous":8941,"tÃºÃºrÃ³":8942,"taÅĭema":8943,"vÃ¹Ã³":8944,"Ġident":8945,"Ġtreas":8946,"Ġtrue":8947,"Ġtruth":8948,"Ġassorted":8949,"Ġknees":8950,"ĠpÉĶgeny":8951,"Ġogro":8952,"ĠfegrebÉĽ":8953,"Ġbolebo":8954,"dÃłÊ§ÉªÉĽ":8955,"Ġpierced":8956,"Ġpowdery":8957,"Ġfrightened":8958,"Ġannoyed":8959,"Ġvarevara":8960,"nentage":8961,"Ġtasoga":8962,"Ġseller":8963,"ĠsansaÅĭg":8964,"Ġsnatch":8965,"ĠkÉĽk":8966,"Ġdwarf":8967,"Ġligre":8968,"Ġfulonf":8969,"Ġmorba":8970,"Ġcrisscross":8971,"Ġhurt":8972,"oultry":8973,"Ġinwardly":8974,"Ġnyonnema":8975,"Ġnyonono":8976,"kÉĶntÉĶn":8977,"Ġhearth":8978,"ĠNgme":8979,"Ġpopular":8980,"Ġrobbed":8981,"grandfather":8982,"Ġpractice":8983,"Ġimmediate":8984,"Ġimmediately":8985,"Ġwitchcraft":8986,"believed":8987,"Ã®Åĭ":8988,"ĠfeÉĽlbÉĽ":8989,"Ġfanfane":8990,"Ġmaggot":8991,"Ġhonour":8992,"Ġhippopot":8993,"Ġeasily":8994,"ĠkÉĶnnim":8995,"Ġpebble":8996,"ĠgboÅĭgbo":8997,"fogeloo":8998,"Ġbelongs":8999,"Northern":9000,"medic":9001,"Ġsasepil":9002,"Ġsnuff":9003,"ĠdollÉĶ":9004,"Ġfibre":9005,"ĠgaleÅĭg":9006,"Ġcircular":9007,"Ġhaali":9008,"ĠAfric":9009,"ĠgyegerebÉĽ":9010,"Ġitchy":9011,"ification":9012,"ĠPeter":9013,"Ġoblique":9014,"Ġarmpit":9015,"Ġfairy":9016,"ĠtÉĽrrÉĽ":9017,"Ġrummage":9018,"Ġintensely":9019,"Ġhappiness":9020,"pÉĶgeny":9021,"Ġwanw":9022,"Ġoppos":9023,"Ġmoment":9024,"Ġmallet":9025,"ributed":9026,"Ġhumans":9027,"kpeebÉĽ":9028,"Ġstructure":9029,"ÅĭkÃºÃ³ÅĭÃ¡Ã¡":9030,"É²Ã¬Ã¬lÃ¬":9031,"Ġexplain":9032,"Ġnoisy":9033,"Ġfluid":9034,"Ä©eu":9035,"Ġarrested":9036,"ĠgÉĶnÉĶtÉĽrÉĽ":9037,"Ġexperience":9038,"ĠdÉĶsemp":9039,"Ġimplement":9040,"nÃłÃłsÃłÃłl":9041,"ĠChildren":9042,"Ġmerciless":9043,"Ġappendages":9044,"dÇİnÊ§ÇĲ":9045,"jestically":9046,"kontapÉĶge":9047,"Ġability":9048,"Ġpython":9049,"enyege":9050,"Ġinteresting":9051,"Ġconversation":9052,"Ġunpleasant":9053,"Ġpawpaw":9054,"ĠJirapa":9055,"Ġhippopotamus":9056,").":9057,".+":9058,".âĢĿ":9059,"23":9060,"26":9061,"28":9062,"31":9063,"32":9064,"34":9065,"35":9066,"36":9067,"39":9068,"58":9069,"?âĢĿ":9070,"Al":9071,"Ar":9072,"BÉĽ":9073,"BÃ¬":9074,"But":9075,"Bag":9076,"BÃ¨":9077,"Bile":9078,"Bush":9079,"Bayuo":9080,"Blind":9081,"Car":9082,"Comp":9083,"Coming":9084,"DE":9085,"DÉĶ":9086,"DÎµ":9087,"Daga":9088,"Danky":9089,"Eng":9090,"Fa":9091,"Fall":9092,"Fact":9093,"GyÎµ":9094,"GbeÉĽdom":9095,"Hi":9096,"Hot":9097,"II":9098,"If":9099,"Iron":9100,"Kp":9101,"Kuree":9102,"KÃºrÃŃ":9103,"Le":9104,"Lit":9105,"LÉĶÉĶ":9106,"Mon":9107,"Man":9108,"Mare":9109,"Maale":9110,"Ny":9111,"Not":9112,"Noun":9113,"Naturalness":9114,"On":9115,"Oo":9116,"PoÉĶ":9117,"Puori":9118,"Res":9119,"Sh":9120,"Si":9121,"Sw":9122,"Sis":9123,"Spe":9124,"SÎµ":9125,"SÉĶglaa":9126,"Sub":9127,"Samaria":9128,"TÍ»":9129,"Tuo":9130,"Tori":9131,"Turn":9132,"Vaa":9133,"Wh":9134,"Wi":9135,"WÉĶÉĶ":9136,"Zo":9137,"ZenÉĽ":9138,"aus":9139,"alee":9140,"aver":9141,"aple":9142,"away":9143,"aces":9144,"axe":9145,"bat":9146,"bes":9147,"braa":9148,"bic":9149,"bers":9150,"bend":9151,"bÃºÃ³":9152,"baraa":9153,"bÃµÉĶ":9154,"beere":9155,"baane":9156,"bannÉĽÉĽ":9157,"barre":9158,"banne":9159,"bush":9160,"beÉĽlÉĽ":9161,"balaa":9162,"bÃ¡Ã¡rÉª":9163,"bugo":9164,"buulo":9165,"biny":9166,"bangy":9167,"bullee":9168,"bimp":9169,"bÃ¡ÅĭÉª":9170,"boÉĶbo":9171,"buuluÅĭ":9172,"cu":9173,"cus":9174,"cers":9175,"cap":9176,"card":9177,"cest":9178,"cely":9179,"caterpillar":9180,"company":9181,"des":9182,"doore":9183,"dÉĽre":9184,"dogi":9185,"daane":9186,"dies":9187,"doÅĭk":9188,"deÉĽne":9189,"dany":9190,"drink":9191,"dÉĶÉĶrÉĽÉĽ":9192,"donne":9193,"donnÉĽÉĽ":9194,"dÉĶgerÉĶ":9195,"dirt":9196,"dorree":9197,"dogo":9198,"drum":9199,"daÅĭm":9200,"dÃŃÃŃ":9201,"dÃ©Ã©":9202,"dict":9203,"dÉĶgeroÅĭ":9204,"ec":9205,"een":9206,"ebo":9207,"ema":9208,"emp":9209,"eÅĭkp":9210,"eyel":9211,"eared":9212,"fin":9213,"fÉĽÉĽ":9214,"feÉĽ":9215,"fÃ¬":9216,"fto":9217,"fuuri":9218,"ferÉĽ":9219,"farÉĽÉĽ":9220,"fogi":9221,"fuori":9222,"fale":9223,"fty":9224,"feÉĽle":9225,"fáº½ÉĽ":9226,"fanne":9227,"fÃ¡Ã¡rÉª":9228,"funeral":9229,"foÉĶle":9230,"ferre":9231,"fulee":9232,"foÉĶlaa":9233,"fÃłÃłrÉª":9234,"gin":9235,"gro":9236,"gak":9237,"gad":9238,"gun":9239,"gane":9240,"grain":9241,"gÃºÃ³":9242,"gÃµÉĶ":9243,"gÃ¡Åĭ":9244,"glÊĬ":9245,"gue":9246,"gbog":9247,"gama":9248,"gsa":9249,"gaÅĭa":9250,"glÃ©Ã©":9251,"gaÅĭe":9252,"gÇİ":9253,"gÉĶÅĭe":9254,"gaÅĭene":9255,"grown":9256,"has":9257,"hiri":9258,"him":9259,"how":9260,"hÃ²":9261,"hood":9262,"hive":9263,"hÃ¬rÃ¬":9264,"horse":9265,"husk":9266,"iple":9267,"ized":9268,"jour":9269,"jured":9270,"ker":9271,"kle":9272,"kÃ¬":9273,"kay":9274,"kage":9275,"kÃłÃł":9276,"kÃ¡Ãł":9277,"kÃµ":9278,"kÃºÃº":9279,"keri":9280,"kuuree":9281,"kÉªrÉª":9282,"kalle":9283,"kalÉĽÉĽ":9284,"kono":9285,"kalaa":9286,"kanz":9287,"kaanÉĽÉĽ":9288,"koÉĶrÉĽÉĽ":9289,"kalm":9290,"kangy":9291,"korree":9292,"kÃłÃłlÉª":9293,"kerek":9294,"kankyiri":9295,"lk":9296,"lom":9297,"lerÉĽÉĽ":9298,"luuri":9299,"luri":9300,"laareba":9301,"loÅĭk":9302,"lÃ¡rÉª":9303,"lugi":9304,"lÇİ":9305,"lugiri":9306,"lÇĶÅĭ":9307,"miri":9308,"make":9309,"marÉĽÉĽ":9310,"mÃºÃº":9311,"mÃłÃ¡":9312,"meri":9313,"mÉĶre":9314,"mue":9315,"mple":9316,"meÉĽrebÉĽ":9317,"mark":9318,"miire":9319,"menne":9320,"moÉĶle":9321,"maaleba":9322,"mbaÅĭ":9323,"molÉĶ":9324,"muni":9325,"miss":9326,"moÉĶreÅĭ":9327,"nak":9328,"nag":9329,"nug":9330,"nup":9331,"nment":9332,"npi":9333,"nuulee":9334,"nwÊĬ":9335,"nuts":9336,"nterÉĽÉĽ":9337,"nÃ©Ã©":9338,"normally":9339,"nlÃ³rÃŃ":9340,"os":9341,"open":9342,"ogele":9343,"ober":9344,"pan":9345,"pal":9346,"pul":9347,"pig":9348,"pad":9349,"pent":9350,"perÉĽ":9351,"para":9352,"peri":9353,"pili":9354,"poli":9355,"pip":9356,"pelÉĽ":9357,"puuli":9358,"pull":9359,"paala":9360,"poÅĭi":9361,"poÉĶnÉĽÉĽ":9362,"ponne":9363,"poÉĶle":9364,"pÉĶgrÉĽÉĽ":9365,"pÃ³lÃŃ":9366,"pollÉĽÉĽ":9367,"pret":9368,"pÃºÃ³rÃ¬":9369,"rug":9370,"rÃ¡Åĭ":9371,"rrÊĬ":9372,"rpi":9373,"rince":9374,"sk":9375,"som":9376,"sou":9377,"siri":9378,"ses":9379,"sur":9380,"say":9381,"sÃ¨":9382,"sap":9383,"serÉĽ":9384,"sane":9385,"sÃµÉĶ":9386,"saana":9387,"saÅĭg":9388,"sugi":9389,"size":9390,"sogÉĶ":9391,"sÉĶgelÉĶ":9392,"sugri":9393,"susu":9394,"tw":9395,"tas":9396,"tig":9397,"tÉĶge":9398,"ters":9399,"tap":9400,"taarÉĽÉĽ":9401,"toore":9402,"tÉĽge":9403,"togi":9404,"tuuree":9405,"tont":9406,"tÉĶÅĭe":9407,"tola":9408,"tulli":9409,"tiness":9410,"toori":9411,"tamm":9412,"tÉĽgÉĽÉĽ":9413,"tÃŃÃŃ":9414,"towards":9415,"tÃ¬Ã¬r":9416,"ule":9417,"ukp":9418,"ung":9419,"uÅĭk":9420,"uÅĭkp":9421,"uish":9422,"uary":9423,"uomo":9424,"vuu":9425,"vut":9426,"vÃ£":9427,"vuo":9428,"vap":9429,"vive":9430,"vÉªÉª":9431,"vely":9432,"vaala":9433,"volÉĶ":9434,"vÃ¡Ã¡lÉª":9435,"vuunee":9436,"viron":9437,"vuuluÅĭ":9438,"vÃºÃºrÃ¬":9439,"wu":9440,"whe":9441,"wal":9442,"woo":9443,"wol":9444,"wÎµ":9445,"wuo":9446,"wara":9447,"will":9448,"wÃłÃ¡":9449,"woli":9450,"wÉĽrÉĽ":9451,"when":9452,"weÉĽne":9453,"wolle":9454,"weÉĽnÉĽÉĽ":9455,"wÉĶgele":9456,"wola":9457,"waste":9458,"waÅĭm":9459,"wÃŃrÃ©":9460,"wÃ¡Ã¡lÉª":9461,"xible":9462,"yag":9463,"yuuri":9464,"yerÉĽ":9465,"yaara":9466,"yaale":9467,"yof":9468,"yogi":9469,"yÉĶÉĶre":9470,"yond":9471,"yonaa":9472,"yenaa":9473,"yoÉĶrÉĽÉĽ":9474,"yÉĶÉĶrÉĽÉĽ":9475,"yidaa":9476,"ygam":9477,"yopÉĶgeraa":9478,"ziri":9479,"zus":9480,"zone":9481,"zÎµ":9482,"zÉĽg":9483,"zeg":9484,"zip":9485,"zagere":9486,"zaÅĭaa":9487,"zÉĽgere":9488,"zugiree":9489,"zagerÉĽÉĽ":9490,"zagre":9491,"zÉĶÅĭÉĶ":9492,"ËĲ":9493,"ïĢ":9494,"ĉĠĠĠĠ":9495,"ĉĠĠĠ":9496,"ĠÃł":9497,"Ġut":9498,"ĠÃ£":9499,"ĠâĢ¦":9500,"Ġuri":9501,"ĠeÉĽre":9502,"Ġáº½ÉĽ":9503,"ĠeÉĽraa":9504,"ĠÉĶÉĶre":9505,"ĠeÉĽne":9506,"ĠeÉĽrÉĽÉĽ":9507,"ĠeÉĽnÉĽÉĽ":9508,"Ġulli":9509,"ĠÉ²Éª":9510,"Ġ000":9511,"ÉĽl":9512,"ÉĽrÉª":9513,"ÉĽlle":9514,"ÌģâĨĵ":9515,"ÉĶrÉĶ":9516,"ÉĶnÉĶ":9517,"ĠtÉĽÉĽ":9518,"Ġtel":9519,"ĠtÎµ":9520,"Ġtay":9521,"ĠterÉĽ":9522,"Ġteraa":9523,"ĠtÃ£a":9524,"Ġtuori":9525,"Ġtaraa":9526,"ĠtÉĽrÉĽ":9527,"Ġtiiree":9528,"ĠtÉĶÅĭe":9529,"ĠtÉĶgele":9530,"Ġtagra":9531,"Ġtulli":9532,"Ġtuoribo":9533,"Ġtona":9534,"ĠteÉĽnemÉĽ":9535,"ĠtÉĶÅĭÉĽÉĽ":9536,"Ġtáº½áº½":9537,"Ġtrunk":9538,"ĠtÅıÉĶ":9539,"Ġtilent":9540,"ref":9541,"rella":9542,"repeat":9543,"Ġnin":9544,"Ġnon":9545,"ĠnÉĽÉĽ":9546,"Ġnan":9547,"Ġnone":9548,"Ġnant":9549,"ĠnaarÉĽÉĽ":9550,"ĠnÉĽge":9551,"Ġnaraa":9552,"Ġnamb":9553,"Ġnany":9554,"ĠnaaloÅĭ":9555,"ĠneÉĽnÉĽ":9556,"Ġnature":9557,"play":9558,"aamine":9559,"aayiri":9560,"ĠarÉĽÉĽ":9561,"Ġaraa":9562,"Ġawa":9563,"Ġaroo":9564,"Ġaunt":9565,"Ġastri":9566,"ĠayoÉĶ":9567,"ĠayÉĶp":9568,"ĠbÃ¡":9569,"Ġbim":9570,"Ġberaa":9571,"Ġbill":9572,"ĠboÉĶre":9573,"ĠborÉĽÉĽ":9574,"Ġbast":9575,"Ġbuori":9576,"ĠbeÉĽle":9577,"Ġbound":9578,"ĠbelÉĽ":9579,"ĠbaÅĭk":9580,"ĠbaÅĭg":9581,"Ġbenne":9582,"Ġbool":9583,"Ġbuuraa":9584,"Ġbank":9585,"ĠbeÉĽrÉĽÉĽ":9586,"ĠboÉĶrÉĽÉĽ":9587,"ĠboÉĶlÉĶ":9588,"Ġbola":9589,"ĠbenemÉĽ":9590,"ĠbÉĶgÉĽÉĽ":9591,"ĠbÉĶgeraa":9592,"Ġbugiro":9593,"ĠbÃłrÉª":9594,"ĠbeÉĽlaa":9595,"Ġbought":9596,"Ġbuulaa":9597,"Ġbanks":9598,"Ġsar":9599,"ĠsÊĬ":9600,"Ġsne":9601,"Ġsis":9602,"Ġslo":9603,"ĠserÉĽÉĽ":9604,"Ġsoore":9605,"Ġsuuro":9606,"Ġsamb":9607,"Ġsany":9608,"Ġseet":9609,"Ġsanema":9610,"ĠseÉĽnÉĽÉĽ":9611,"Ġsooth":9612,"Ġsinger":9613,"ĠsÉĶgelaa":9614,"ĠsÉĶgelÉĶ":9615,"ĠsagÉĽÉĽ":9616,"ĠsÃºÃºrÃŃ":9617,"ĠsÉĽgrÉĽ":9618,"ĠsÉĽgerÉĽÉĽ":9619,"ĠsÉĽgerÉĽ":9620,"Ġsnare":9621,"ÅĭÃł":9622,"ÅĭÃ²":9623,"ÅĭÃłÃł":9624,"ÅĭÃ¡Ãł":9625,"ÅĭenemÉĽ":9626,"ina":9627,"inc":9628,"inf":9629,"inim":9630,"inic":9631,"inct":9632,"inous":9633,"incloth":9634,"ern":9635,"erree":9636,"eric":9637,"erse":9638,"erly":9639,"erness":9640,"erved":9641,"ertain":9642,"erted":9643,"lene":9644,"leree":9645,"leav":9646,"lenne":9647,"lemÉĽÉĽ":9648,"lezare":9649,"lennee":9650,"onwuluu":9651,"Ġtoree":9652,"Ġtobo":9653,"Ġtoad":9654,"Ġtoko":9655,"Ġtooraa":9656,"Ġtold":9657,"ĠtoÅĭe":9658,"Ġtoora":9659,"Ġtoward":9660,"Ġtoribo":9661,"Éªmm":9662,"ÉªÅĭÉĽ":9663,"ĠkÉª":9664,"Ġkuu":9665,"ĠkÉĶge":9666,"ĠkÃ£":9667,"Ġkun":9668,"Ġkaale":9669,"Ġknee":9670,"ĠkoÉĶre":9671,"ĠkorÉĽÉĽ":9672,"Ġkogi":9673,"Ġkuli":9674,"Ġkonni":9675,"ĠkÉĶÉĶrÉĽÉĽ":9676,"Ġkorri":9677,"Ġkullo":9678,"ĠkonÉĽÉĽ":9679,"Ġkanny":9680,"ĠkoÉĶlÉĽÉĽ":9681,"Ġkaring":9682,"Ġkannaa":9683,"Ġkonno":9684,"Ġkilled":9685,"ĠkÅ©Å©":9686,"Ã¡ns":9687,"Ã¡Åĭg":9688,"Ã¡nÃ¡":9689,"Ã¡rÃł":9690,"Ġpin":9691,"Ġpan":9692,"Ġpes":9693,"Ġpee":9694,"Ġpent":9695,"Ġpage":9696,"Ġpant":9697,"Ġpuuri":9698,"Ġperaa":9699,"ĠporÉĽÉĽ":9700,"ĠpÉĶre":9701,"ĠpÄ©":9702,"Ġpiribe":9703,"Ġpuuree":9704,"Ġpiiree":9705,"Ġpool":9706,"ĠpÉĶgÉĽÉĽ":9707,"Ġponimo":9708,"Ġpimb":9709,"ĠpeÉĽlebÉĽ":9710,"Ġpurri":9711,"ĠpeÉĽnemÉĽ":9712,"Ġpurree":9713,"Ġperek":9714,"ĠporrÉĽÉĽ":9715,"Ġpillee":9716,"ĠpeerebÉĽ":9717,"Ġpoured":9718,"Ġpict":9719,"Ġpollen":9720,"Ġpáº½ÉĽÉĽ":9721,"Ġprince":9722,"hest":9723,"ĠdÊĬ":9724,"Ġdil":9725,"Ġdoo":9726,"ĠderÉĽ":9727,"Ġdoro":9728,"ĠdÉĶre":9729,"Ġduori":9730,"Ġdang":9731,"ĠdeÉĽraa":9732,"Ġdaane":9733,"Ġdiribe":9734,"Ġdaga":9735,"Ġdite":9736,"Ġdred":9737,"Ġdeli":9738,"ĠdÉĶgerÉĶ":9739,"Ġdough":9740,"ĠdoÉĶlÉĽÉĽ":9741,"Ġdannaa":9742,"Ġdash":9743,"Ġdeny":9744,"Ġdaanema":9745,"ĠdoÅĭkomm":9746,"Ġdream":9747,"Ġplain":9748,"Ġplanks":9749,"Ġplastered":9750,"Ġlar":9751,"Ġlal":9752,"ĠlÍ»":9753,"ĠlÃłÃł":9754,"ĠlÃ¡Ãł":9755,"Ġlick":9756,"Ġlater":9757,"Ġlogi":9758,"Ġluori":9759,"Ġlaraa":9760,"Ġlaane":9761,"ĠlannÉĽÉĽ":9762,"Ġlance":9763,"ĠloÅĭk":9764,"ĠloÉĶraa":9765,"Ġligi":9766,"ĠloÉĶreba":9767,"ĠlÉĶgerÉĽÉĽ":9768,"Ġlinime":9769,"Ġlimb":9770,"ĠlÉĶÅĭÉĽÉĽ":9771,"Ġlower":9772,"ĠlÃ©Ã©":9773,"Ġlugiraa":9774,"Ġlinnaa":9775,"arma":9776,"aries":9777,"arable":9778,"arapa":9779,"ĠwÉª":9780,"Ġwar":9781,"Ġwed":9782,"Ġwul":9783,"Ġwad":9784,"Ġwine":9785,"Ġwake":9786,"Ġwoore":9787,"Ġwast":9788,"ĠwÉĽge":9789,"Ġwogi":9790,"Ġwáº½ÉĽ":9791,"Ġwelaa":9792,"ĠwÉĶÉĶre":9793,"Ġwink":9794,"Ġwuoribo":9795,"Ġwogiri":9796,"ĠwÉĶglaa":9797,"ĠwÉĶgreba":9798,"ĠwÉĽgÉĽÉĽ":9799,"ĠwÉĶgraa":9800,"ĠwÉĶglÉĽÉĽ":9801,"Ġwings":9802,"ĠwÉĶgleba":9803,"ĠwÉĽgrebÉĽ":9804,"Ġwives":9805,"Ġox":9806,"Ġoval":9807,"Ġocean":9808,"ĠfÉª":9809,"Ġfan":9810,"Ġfen":9811,"Ġfro":9812,"Ġfog":9813,"ĠferÉĽ":9814,"ĠfelÉĽ":9815,"ĠfannÉĽÉĽ":9816,"ĠfaÅĭa":9817,"Ġfáº½e":9818,"Ġfonaa":9819,"ĠfoÉĶlÉĽÉĽ":9820,"Ġfoll":9821,"ĠfÃ£Ã£":9822,"Ġfogilo":9823,"ĠfoÉĶne":9824,"Ġfert":9825,"ĠfegrÉĽ":9826,"Ġfoul":9827,"Ġgom":9828,"ĠgrÉª":9829,"Ġgam":9830,"Ġgak":9831,"Ġgent":9832,"ĠglÉª":9833,"Ġgap":9834,"Ġgans":9835,"ĠgannÉĽÉĽ":9836,"Ġgaareba":9837,"Ġgarre":9838,"Ġgana":9839,"Ġgond":9840,"Ġguuraa":9841,"ĠgoÉĶrÉĽÉĽ":9842,"ĠgÉĶÉĶrÉĽÉĽ":9843,"ĠgoÉĶreba":9844,"Ġguribo":9845,"Ġguulee":9846,"ĠgÉĶgÉĶ":9847,"ĠgallÉĽÉĽ":9848,"ĠgaÅĭene":9849,"Ġgogo":9850,"Ġguulaa":9851,"Ġguolee":9852,"Ġgift":9853,"Ġglean":9854,"ĠmÉĽÉĽ":9855,"Ġmou":9856,"ĠmbÊĬ":9857,"Ġmoraa":9858,"Ġmold":9859,"Ġmarre":9860,"Ġmaana":9861,"ĠmoÉĶraa":9862,"Ġmalaa":9863,"ĠmaanÉĽÉĽ":9864,"ĠmarrÉĽÉĽ":9865,"ĠmoÉĶle":9866,"ĠmonÉĽÉĽ":9867,"Ġmooreba":9868,"Ġmiiraa":9869,"ĠmoÉĶlaa":9870,"Ġmamine":9871,"Ġmaster":9872,"ĠmeÉĽbo":9873,"Ġmountain":9874,"Ġmilik":9875,"anaare":9876,"ries":9877,"ening":9878,"ened":9879,"enoo":9880,"ense":9881,"enger":9882,"gela":9883,"geli":9884,"Ġver":9885,"Ġvam":9886,"Ġvag":9887,"ĠvarÉĽÉĽ":9888,"Ġvoraa":9889,"Ġvoore":9890,"Ġvue":9891,"ĠveÉĽraa":9892,"Ġvuuree":9893,"Ġvuuraa":9894,"Ġvuuribo":9895,"ĠvoÉĶrÉĽÉĽ":9896,"ĠvÉĽrÉĽÉĽ":9897,"Ġvooreba":9898,"ĠvaÉĽ":9899,"Ġvalenv":9900,"atic":9901,"atable":9902,"ataky":9903,"attan":9904,"orne":9905,"orny":9906,"order":9907,"ording":9908,"aly":9909,"alÉĽ":9910,"alan":9911,"alaare":9912,"Ġcamp":9913,"Ġcud":9914,"Ġcalle":9915,"Ġcunn":9916,"Ġcoun":9917,"Ġcough":9918,"Ġcorre":9919,"Ġcele":9920,"Ġcoop":9921,"Ġcircle":9922,"Ġcertain":9923,"âĢľ":9924,"rous":9925,"root":9926,"roÅĭkp":9927,"ited":9928,"itiree":9929,"itori":9930,"itaÅĭkp":9931,"Ġham":9932,"ĠhÉĶÉĶ":9933,"Ġhag":9934,"Ġhiree":9935,"Ġhind":9936,"Ġhaaraa":9937,"Ġharm":9938,"Ġhareba":9939,"Ġhint":9940,"eÉĽroÅĭ":9941,"Ġyom":9942,"ĠyÃ©":9943,"Ġyuo":9944,"ĠyaarÉĽÉĽ":9945,"Ġyens":9946,"Ġyide":9947,"Ġyeere":9948,"Ġyaaraa":9949,"Ġyaane":9950,"ĠyaanÉĽÉĽ":9951,"ĠyÉĶÉĶrÉĽÉĽ":9952,"Ġyuulo":9953,"ĠyaalÉĽÉĽ":9954,"Ġyaaleba":9955,"Ġyinni":9956,"ĠyÉĶgÉĶ":9957,"ĠyÉĶgerÉĽÉĽ":9958,"Ġyaalaa":9959,"Ġyeni":9960,"ĠyeÉĽloo":9961,"Ġlay":9962,"Ġlack":9963,"Ġlame":9964,"ĠlaÅĭe":9965,"Ġlament":9966,"Ġlady":9967,"omes":9968,"ombiiree":9969,"omorrow":9970,"eda":9971,"neg":9972,"neck":9973,"isper":9974,"elbÉĽ":9975,"ellee":9976,"elbe":9977,"ouf":9978,"ouri":9979,"bak":9980,"bareba":9981,"baky":9982,"ndz":9983,"nder":9984,"ndPers":9985,"ndzÃŃ":9986,"iloo":9987,"ilaarÉĽÉĽ":9988,"ilty":9989,"ilogoo":9990,"Ġet":9991,"Ġew":9992,"ĠeÉĽÉĽ":9993,"ĠeelÉĽ":9994,"Ġebony":9995,"oÉĶse":9996,"oÉĶnoo":9997,"oole":9998,"oose":9999,"kpat":10000,"kpare":10001,"kpÃ¹":10002,"kpÃłÃł":10003,"kpeg":10004,"kparÉĽÉĽ":10005,"kpeÉĽrÉĽ":10006,"kperi":10007,"kpelÉĽ":10008,"kpaane":10009,"kpori":10010,"kpÉĶgere":10011,"kpinni":10012,"kpÉĶgÉĶ":10013,"kparoo":10014,"kpÉĶgerÉĽÉĽ":10015,"kpaw":10016,"kpogilo":10017,"kpÃºlÃŃ":10018,"kpogili":10019,"Ġzor":10020,"Ġzim":10021,"Ġzaale":10022,"ĠzÃ£a":10023,"Ġzeere":10024,"Ġzama":10025,"ĠzaÅĭkp":10026,"Ġzalle":10027,"Ġzigi":10028,"Ġziiree":10029,"Ġzáº½e":10030,"ĠzeÉĽnÉĽÉĽ":10031,"Ġziny":10032,"Ġzomb":10033,"Ġzonnaa":10034,"ĠzagerÉĽÉĽ":10035,"Ġzons":10036,"ĠzomÉĶ":10037,"Ġzugiribo":10038,"Ġzugiraa":10039,"Ġzoribo":10040,"aseÉĽ":10041,"Ġbever":10042,"ĠbeerÉĽ":10043,"ĠberebÉĽ":10044,"Ġbeach":10045,"ĠbeenÉĽÉĽ":10046,"Ġbeber":10047,"Ġbebele":10048,"Ġbehave":10049,"Ġbeyond":10050,"Ã¬bÃŃ":10051,"Ã¬rÃ©":10052,"boy":10053,"boll":10054,"board":10055,"boorÉĽÉĽ":10056,"bogere":10057,"bodaa":10058,"bowl":10059,"aÅĭyi":10060,"aÅĭkuÅĭk":10061,"uue":10062,"Ġadul":10063,"Ġaddress":10064,"Ġinno":10065,"Ġinact":10066,"Ġindeed":10067,"Ġinjured":10068,"rap":10069,"ololo":10070,"olomm":10071,"oluoree":10072,"ÃºlÃ¬":10073,"rÉªpÉª":10074,"Ġthir":10075,"Ġthread":10076,"Ġthigh":10077,"Ġthrew":10078,"Ã¡Ã¡rÃ¡":10079,"bÉĽnd":10080,"bÉĽrÉĽ":10081,"bÉĽlÉª":10082,"bÉĽrÃ¡Ã¡":10083,"bÉĽrrÉĽÉĽ":10084,"bÉĽmbÉĽ":10085,"bÉĽndaa":10086,"ieme":10087,"imas":10088,"imine":10089,"imaale":10090,"Ġbalee":10091,"Ġbabilii":10092,"uly":10093,"peere":10094,"peck":10095,"pete":10096,"thm":10097,"thless":10098,"Ã³Ã³":10099,"Ã³Ã²":10100,"Ã³lÃ³Åĭ":10101,"ushed":10102,"Ġkaku":10103,"Ġkageraa":10104,"Ġkakad":10105,"ngwo":10106,"ngdÎµ":10107,"esday":10108,"especially":10109,"aken":10110,"ÉĶÉĶloÅĭ":10111,"allowing":10112,"oglee":10113,"oglÉĽÉĽ":10114,"Åĭma":10115,"ÅĭmaarÉĽÉĽ":10116,"Åĭmene":10117,"ÅĭmeÉĽrÉĽ":10118,"ÅĭmÃłÃ¡":10119,"Åĭmamb":10120,"Åĭmenaa":10121,"ÅĭmentÉĶÅĭ":10122,"ÅĭmolÉĶÅĭÅĭm":10123,"icle":10124,"Ġnyare":10125,"ĠnyÍ»":10126,"ĠnyÉĽre":10127,"Ġnyue":10128,"Ġnyud":10129,"Ġnyaana":10130,"Ġnyege":10131,"Ġnyuuraa":10132,"ĠnyÉĶgraa":10133,"adow":10134,"ĠkpÉĽÉĽ":10135,"ĠkpaÅĭ":10136,"Ġkpam":10137,"Ġkpie":10138,"Ġkpim":10139,"Ġkpage":10140,"ĠkperÉĽÉĽ":10141,"Ġkpant":10142,"ĠkparÉĽÉĽ":10143,"ĠkporÉĽÉĽ":10144,"Ġkpala":10145,"Ġkpareba":10146,"ĠkpeÉĽne":10147,"Ġkpaky":10148,"Ġkpary":10149,"Ġkpullo":10150,"ĠkpÉĶgÉĽÉĽ":10151,"Ġkpinnee":10152,"ĠkpÉĶgeraa":10153,"Ġkpelle":10154,"Ġkpagela":10155,"Ġstro":10156,"Ġstorm":10157,"Ġstool":10158,"Ġstony":10159,"Ġstones":10160,"Ġstack":10161,"ĠAl":10162,"ĠAne":10163,"ĠAfter":10164,"ĠAcc":10165,"utaa":10166,"utch":10167,"ĠTi":10168,"ĠTÉĶ":10169,"ĠTim":10170,"maid":10171,"arer":10172,"aremÉĽÉĽ":10173,"iriny":10174,"aging":10175,"agoo":10176,"ague":10177,"agger":10178,"agreement":10179,"agonist":10180,"veÅĭ":10181,"veget":10182,"leep":10183,"seb":10184,"sele":10185,"sege":10186,"section":10187,"semble":10188,"sepÉĶÉĶ":10189,"Ġissu":10190,"ceed":10191,"bege":10192,"bebe":10193,"bearing":10194,"yÉĽl":10195,"yÉĽlÉĽÉĽ":10196,"yÉĽrebÉĽ":10197,"yÉĽrre":10198,"cting":10199,"ctober":10200,"biraa":10201,"bieli":10202,"bikyÉĽ":10203,"bipeÉĽ":10204,"entaa":10205,"entuo":10206,"entant":10207,"entral":10208,"laÉĽ":10209,"unse":10210,"Ġleast":10211,"ĠleÅĭi":10212,"ĠlegerebÉĽ":10213,"Ġleopard":10214,"Ġlefto":10215,"ÉĶgoo":10216,"kÉĶÉĽ":10217,"kÉĶÅĭ":10218,"kÉĶlÉĶ":10219,"kÉĶnÉĶ":10220,"kÉĶÅĭe":10221,"kÉĶÅĭkÉĶ":10222,"kÉĶnky":10223,"mps":10224,"mpÃł":10225,"mpÃº":10226,"mpÃ³":10227,"mpÃ¹":10228,"mpÃ¡rÉª":10229,"mpÃ¡Ã¡rÉª":10230,"lÉĽnne":10231,"Ġananso":10232,"Ġancest":10233,"Ġankle":10234,"stru":10235,"state":10236,"storm":10237,"string":10238,"stache":10239,"stones":10240,"ither":10241,"omeÅĭÉĽ":10242,"urr":10243,"uruu":10244,"urant":10245,"ursday":10246,"erself":10247,"lÉªmÉĽ":10248,"Ġneigh":10249,"idy":10250,"idual":10251,"terrÉĽÉĽ":10252,"Ġforth":10253,"Ġforty":10254,"ssom":10255,"Ġseal":10256,"Ġseeraa":10257,"Ġseven":10258,"ĠseÅĭkÃ£a":10259,"lÉĶÅĭg":10260,"lÉĶnnÉĶ":10261,"Ġreach":10262,"Ġreprodu":10263,"erence":10264,"gbÃ¬":10265,"gbaale":10266,"gbeÉĽre":10267,"gbeÉĽle":10268,"gbulo":10269,"gbÃ¡rÉª":10270,"gbÃ³lÃŃ":10271,"laane":10272,"lii":10273,"liiri":10274,"uobo":10275,"nyoÉĶ":10276,"nyam":10277,"nyÎµ":10278,"nyeraa":10279,"nyene":10280,"nyaal":10281,"nyoore":10282,"nyeÉĽre":10283,"nyud":10284,"nyuuro":10285,"nyore":10286,"nyaÅĭe":10287,"nyaanÉĽÉĽ":10288,"nyele":10289,"nyiele":10290,"cho":10291,"chine":10292,"chief":10293,"Ġnail":10294,"Ġnavel":10295,"Ġnaught":10296,"ĠteÉĽÉĽ":10297,"ĠteerÉĽ":10298,"ĠteÅĭg":10299,"Ġtease":10300,"ĠteenÉĽÉĽ":10301,"Ġtethe":10302,"Ġteenaa":10303,"Ġtempe":10304,"âĢĻ)":10305,"gÉªrÃ¡Ã¡":10306,"gÉªsÊĬ":10307,"gÉªsÃ¡":10308,"gÉªdÉª":10309,"Ġwhit":10310,"Ġwhist":10311,"Ġwhisper":10312,"loree":10313,"Ġhearing":10314,"mbÃ¹":10315,"mbÉªÉª":10316,"mbunt":10317,"mbilii":10318,"rebare":10319,"Åĭkaare":10320,"ÅĭkÃłÃł":10321,"ÅĭkÃ£Ã£":10322,"Åĭkerri":10323,"mÉĽrÉĽÉĽ":10324,"ntÉĶÅĭ":10325,"ntÉĽre":10326,"ntÉĽrÉĽÉĽ":10327,"ntÃ³lÃŃ":10328,"Ġdapare":10329,"ĠdabÉĶl":10330,"Ġdaughter":10331,"andon":10332,"Ġsole":10333,"ĠsobÉĶ":10334,"Ġsokon":10335,"Ġsoiled":10336,"Ġsojour":10337,"ĠonaÅĭ":10338,"ĠÅĭmand":10339,"ĠÅĭmend":10340,"ĠÅĭmane":10341,"ĠÅĭmeÉĽrÉĽ":10342,"ĠÅĭmeÉĽle":10343,"ĠÅĭmama":10344,"ĠÅĭmeÉĽlaa":10345,"Ġchar":10346,"Ġcharge":10347,"Ġchase":10348,"Ġchunk":10349,"Ġchamber":10350,"Ġshut":10351,"Ġshook":10352,"Ġshaky":10353,"Ġshrub":10354,"Ġshaven":10355,"Ġshrug":10356,"etry":10357,"ants":10358,"kyere":10359,"kyarÉĽÉĽ":10360,"kyeere":10361,"kyaane":10362,"kyarre":10363,"Ġgbon":10364,"Ġgband":10365,"Ġgbaale":10366,"Ġgbate":10367,"ĠgbeÉĽre":10368,"ĠgbelÉĽ":10369,"ĠgbeÉĽraa":10370,"Ġgbulo":10371,"ĠgbeÉĽlÉĽ":10372,"Ġgbulli":10373,"Ġgbaalaa":10374,"Ġgbonnaa":10375,"Ġgbelli":10376,"ĠbontÉĶ":10377,"Ġbondaa":10378,"ĠgyÉĶ":10379,"Ġgyage":10380,"Ġgyaara":10381,"Ġgyeraa":10382,"Ġgyili":10383,"ĠgyeÉĽnÉĽ":10384,"Ġgyangy":10385,"Ġgyoge":10386,"ĠgyeerebÉĽ":10387,"ĠgyaaÅĭk":10388,"Ġord":10389,"Ġorgan":10390,"Ġboat":10391,"Ġboreba":10392,"Ġboard":10393,"Ġbother":10394,"Ġbooraa":10395,"ĠboorÉĽÉĽ":10396,"upid":10397,"nÉĶrÉĽÉĽ":10398,"ĠkÉĶl":10399,"ĠkÉĶre":10400,"ĠkÉĶraa":10401,"ĠkÉĶbÉĶ":10402,"ĠkÉĶnz":10403,"ĠkÉĶtÉĶ":10404,"ĠkÉĶrre":10405,"ĠkÉĶnso":10406,"ĠkÉĶroÅĭkp":10407,"ĠkÉĶntÉĶÅĭ":10408,"ĠNba":10409,"ĠNyÉĽ":10410,"ĠNyÉĶ":10411,"Ġdeer":10412,"Ġdeal":10413,"Ġdemee":10414,"Ġdefl":10415,"Ġdepression":10416,"Ġdeceive":10417,"naane":10418,"naabil":10419,"naameÉĽ":10420,"Ġfox":10421,"Ġfori":10422,"Ġfoam":10423,"Ġfooraa":10424,"ĠfogelÉĶ":10425,"top":10426,"toise":10427,"rÃŃkÃ²":10428,"Ġpod":10429,"Ġpolee":10430,"Ġporibo":10431,"ĠpoonÉĶ":10432,"É²ÃŃ":10433,"É²Ã¬":10434,"irect":10435,"ÉĽgrÃ¡Ã¡":10436,"urity":10437,"Ġmajestically":10438,"Ġmachine":10439,"Ġlip":10440,"Ġliiri":10441,"Ġlibiri":10442,"egre":10443,"nÉĽn":10444,"nÉĽÅĭk":10445,"nÉĽmm":10446,"nÉĽget":10447,"Ġwail":10448,"Ġwave":10449,"Ġwavy":10450,"áº½d":10451,"áº½u":10452,"nsÃ³":10453,"nsÃ£":10454,"nsÎµ":10455,"Ġkob":10456,"Ġkod":10457,"ĠkoorÉĽÉĽ":10458,"Ġkokolli":10459,"llÃ³":10460,"ĠmeelÉĽÉĽ":10461,"nia":10462,"nif":10463,"dÃłkÉĶ":10464,"dÃłlÉª":10465,"dÃłbÉĶ":10466,"dÃłnÉª":10467,"dÃłmÃł":10468,"dÃłgÃł":10469,"dÃłkÃ²":10470,"dÃłÅĭmÉªÉĽ":10471,"dÃłmbÃ³":10472,"dÃłbÃ¬l":10473,"dÃłpÃłrÉª":10474,"dÃłgÃ³lÃŃ":10475,"dÃłvÃ¡rÃłÃł":10476,"Ġdoree":10477,"Ġdobaare":10478,"tege":10479,"teree":10480,"teene":10481,"ickly":10482,"endation":10483,"ĠDaa":10484,"ĠDialogue":10485,"ĠDuba":10486,"ĠlÉĽrÉĽÉĽ":10487,"Ġbiraa":10488,"Ġbibil":10489,"pÉĶlÉĽÉĽ":10490,"pÉĶloo":10491,"pÉĶpÉĶrÉĽÉĽ":10492,"ĠSo":10493,"ĠSabbath":10494,"ĠSaseÉĽ":10495,"Ġgoe":10496,"Ġgori":10497,"Ġgover":10498,"ĠsaÉĽ":10499,"Ġsave":10500,"Ġsabogi":10501,"kei":10502,"kewarm":10503,"kempt":10504,"keÅĭkeleÅĭ":10505,"pÉĽmp":10506,"pÉĽlÉĽÉĽ":10507,"pÉĽlaa":10508,"pÉĽnz":10509,"mekelee":10510,"anegere":10511,"bonÉĶ":10512,"bonyÉĽ":10513,"bonny":10514,"bonto":10515,"bonso":10516,"bonvere":10517,"bonveraa":10518,"Ġdiver":10519,"Ġdiiribe":10520,"quer":10521,"quart":10522,"Ġhazy":10523,"aalebÉĽÉĽ":10524,"aternal":10525,"illing":10526,"Ġsugee":10527,"Ġsuccess":10528,"Ġconquer":10529,"pole":10530,"poone":10531,"ĠkyÉĽnÉĽ":10532,"Ġmooraa":10533,"Ġmogere":10534,"Ġmoved":10535,"Ġmokanz":10536,"soe":10537,"sogere":10538,"ĠpÉĶgeb":10539,"ĠpÉĶgebilii":10540,"ĠpÉĶgebeÉĽ":10541,"gyab":10542,"gyeri":10543,"gyeÉĽne":10544,"gyangy":10545,"gyuuni":10546,"tale":10547,"tact":10548,"takpala":10549,"ÅĭgÃ¡":10550,"lÃŃgÃŃ":10551,"lÃŃmbÃ²":10552,"ÃµÃµ":10553,"ĠKaane":10554,"Ġexh":10555,"Ġexist":10556,"Ġexact":10557,"ĠnÉĶbilii":10558,"ĠnÉĶzage":10559,"ĠnÉĶzoo":10560,"ĠnÉĶyaaroÅĭ":10561,"ĠÅĭaa":10562,"ĠÅĭÉª":10563,"Ġyelin":10564,"Ġyelbiri":10565,"ĠÉĶnema":10566,"ĠÉĶnnaa":10567,"Ġbombie":10568,"Ġnaabo":10569,"Ġnaabil":10570,"ĠnaapÉĶge":10571,"ÃºÃºrÃ²":10572,"ÃºÃºlÃºÅĭ":10573,"ÃłÃ¡rÉª":10574,"lÃ©nnÃŃ":10575,"uming":10576,"umee":10577,"umcis":10578,"uminous":10579,"Ġaction":10580,"ĠpoÉĶnaa":10581,"ĠpoÉĶnema":10582,"astrated":10583,"eria":10584,"Ġfele":10585,"Ġfeelaa":10586,"ĠfeelÉĽÉĽ":10587,"Ġfeature":10588,"shot":10589,"shirt":10590,"Ġspent":10591,"Ġspider":10592,"Ġsponge":10593,"Ġunco":10594,"Ġunshe":10595,"Ġunripe":10596,"Ġunimport":10597,"Ġunkempt":10598,"degere":10599,"ÅĭkpÉª":10600,"Åĭkpaare":10601,"ÅĭkpÉĽrÉĽÅĭ":10602,"ishness":10603,"kÃ¡l":10604,"kÃ¡Åĭk":10605,"kÃ¡mÃ¡":10606,"kÃ¡rÃ¡":10607,"kÃ¡nw":10608,"ÉĶrekpÉĶ":10609,"Ġtaamb":10610,"Ġtaanaa":10611,"Ġtaanema":10612,"Ġweather":10613,"Ġweaver":10614,"Ġarezie":10615,"Ġpean":10616,"ĠpeerÉĽÉĽ":10617,"ĠpeerÉĽ":10618,"Ġpecking":10619,"Ġgaane":10620,"Ġgaaraa":10621,"yieluÅĭ":10622,"ouses":10623,"ousness":10624,"ilenv":10625,"ĠWater":10626,"ĠWhy":10627,"Ġrib":10628,"ĠyÉĽn":10629,"ĠyÉĽÅĭe":10630,"Ġwashed":10631,"iliar":10632,"Ġupon":10633,"Ġupwards":10634,"Ġupset":10635,"ĠbieÅĭ":10636,"ibly":10637,"gbÉĽle":10638,"gbÉĽgere":10639,"ÃºÃ³nÃŃ":10640,"dzÃ³":10641,"dzÃ²":10642,"dzÃ¡Åĭ":10643,"dzÉĽÅĭ":10644,"ĠsaalÉĽÉĽ":10645,"lÃ¬bÃŃ":10646,"lÃ¬gÃ¬":10647,"lÃ¬mÃ©":10648,"ĠnyÉĽraa":10649,"ĠnyÉĽllÉĽÉĽ":10650,"ĠnyÉĽllaa":10651,"tyre":10652,"Ġnoon":10653,"áº½ÉĽpÉĶge":10654,"bÃłlÉª":10655,"bÃ¬Ã©":10656,"bÃ¬pÉĶ":10657,"bÃ¬kÊĬ":10658,"bÃ¬lÃ¨":10659,"moving":10660,"angaa":10661,"iva":10662,"ivities":10663,"ivided":10664,"ividual":10665,"Ġcomple":10666,"Ġcompact":10667,"Ġtaw":10668,"Ġtax":10669,"ĠbÉĽraa":10670,"ĠbÉĽnz":10671,"ĠbÉĽlle":10672,"ĠbÉĽllÉĽÉĽ":10673,"ĠbÉĽnemÉĽ":10674,"ĠbÉĽllaa":10675,"ĠbÉĽlbÉĽ":10676,"Ġflash":10677,"Ġflowing":10678,"Ġworry":10679,"Ġworsen":10680,"welee":10681,"Ê§ÃŃrÃŃ":10682,"Ġprofit":10683,"ĠgbÉĽlÉĽ":10684,"ĠgbÉĽlÉĽÉĽ":10685,"ĠbaalÉĽÉĽ":10686,"Ġbaasaa":10687,"ĠbaapÉĽmpÉĽ":10688,"ounding":10689,"kue":10690,"kukuri":10691,"ĠdÉĶÉĶne":10692,"Ġbue":10693,"Ġburee":10694,"Ġburaa":10695,"Ġbugee":10696,"Ġbucket":10697,"ĠpaÉĽ":10698,"elÉĽÅĭ":10699,"ampuori":10700,"amporri":10701,"Ġzue":10702,"Ġzuk":10703,"Ġzuky":10704,"Ġaloo":10705,"Ġalbin":10706,"gÉĶmb":10707,"Ġloh":10708,"Ġloss":10709,"Ġloincloth":10710,"Ġwaalaa":10711,"ĠyeerÉĽ":10712,"Ġyeme":10713,"ĠyeÅĭe":10714,"mÃ¡rÉª":10715,"mÃ¡gÉª":10716,"mÃ¡lÉªfÃł":10717,"Ġhop":10718,"nzÉªÉª":10719,"sÉªnsÊĬ":10720,"nÃŃÃ¬":10721,"ĠPl":10722,"ĠPol":10723,"pleen":10724,"Ġovertake":10725,"bogigbÉĽre":10726,"Ġasked":10727,"Ġascend":10728,"udder":10729,"lÃ¡Ã¡rÉª":10730,"lÃ¡Ã¡mÃ¡":10731,"dogere":10732,"jected":10733,"fele":10734,"feerÉĽÉĽ":10735,"feeloo":10736,"uÅĭkÉĶns":10737,"Ġenne":10738,"ĠennÉĽÉĽ":10739,"Ġenfuom":10740,"Ġenviron":10741,"Ġpiraa":10742,"ĠlegÉĽÉĽ":10743,"Ġlegraa":10744,"ĠFall":10745,"bompe":10746,"bompore":10747,"sÉĽle":10748,"sÉĽng":10749,"sÉĽlÉª":10750,"ĠpÉĽrÉĽÉĽ":10751,"ĠpÉĽÅĭÉĽÉĽ":10752,"Ġblame":10753,"Ġblister":10754,"Ġclub":10755,"Ġclinic":10756,"Ġclitori":10757,"Ġclutch":10758,"ĠkpÉĽne":10759,"Ġhiss":10760,"aÅĭkaÅĭkp":10761,"lÃ³gÃŃ":10762,"lÃ³gÃ¬":10763,"yeld":10764,"yelt":10765,"Ġhernia":10766,"Ġnimim":10767,"sÉĶraa":10768,"ĠmÉĶrÉĽÉĽ":10769,"ĠmÉĶrÉĶ":10770,"ĠtÉĶÉĽ":10771,"ĠtÉĶbÉĶ":10772,"ĠtÉĶte":10773,"ambaraÅĭ":10774,"peny":10775,"sÃłfÊĬ":10776,"ĠMarker":10777,"Ġqual":10778,"Ġtwin":10779,"Ġtwinkling":10780,"ĠnÉĽÅĭ":10781,"ĠnÉĽnz":10782,"Ġpotuo":10783,"mÃŃÃ¬":10784,"orite":10785,"ĠBaa":10786,"ĠBad":10787,"Ġtubers":10788,"Ġsweep":10789,"Ġsword":10790,"pert":10791,"zunni":10792,"zuÅĭmane":10793,"Ġmiie":10794,"Ġmiiribe":10795,"Ġmiinime":10796,"saÉĽ":10797,"sawÉĶ":10798,"Ġprecis":10799,"Ġpretend":10800,"Ġpresence":10801,"Ġinterrogative":10802,"Ġinterrup":10803,"Ġintercour":10804,"gÃŃlÃ³":10805,"gÃłlÉª":10806,"gÃłnÃłÃł":10807,"gÃłnÃłÃ¡":10808,"gÃłÅĭÉªnÉª":10809,"tÉĽne":10810,"tÉĽrÉª":10811,"tÉĽrre":10812,"tÉĽnnÉĽ":10813,"Ġarch":10814,"Ġargument":10815,"Ġargue":10816,"anyene":10817,"Ġbecoming":10818,"Ġbecomes":10819,"intany":10820,"dÃ£at":10821,"dÃ£as":10822,"dÃ£ap":10823,"ĠÉĽraa":10824,"aÅĭgalaÅĭ":10825,"âĢ¦âĢ¦âĢ¦âĢ¦âĢ¦âĢ¦âĢ¦âĢ¦âĢ¦âĢ¦":10826,"bÃ¡lÉª":10827,"gÃ¬rÃ¬":10828,"ĠsÉĽÅĭ":10829,"ĠsÉĽle":10830,"ĠsÉĽma":10831,"ĠsÉĽmp":10832,"ĠsÉĽnemÉĽ":10833,"ĠsÉĽnsÉĽ":10834,"ĠsÉĽnlÉĽ":10835,"tÉªrÉĽ":10836,"tÉªntÉĶ":10837,"tÉªgrÊĬ":10838,"yÃ¨ly":10839,"yÃ¨ld":10840,"zÉĶlÉĶ":10841,"zÉĶnz":10842,"ĠHmm":10843,"Ġrashes":10844,"Ġrainstorm":10845,"aÅĭkpoli":10846,"piimee":10847,"ÌĤ)":10848,"ĠbÉĶraa":10849,"ĠpÉĶloo":10850,"Ġparty":10851,"Ġpartridge":10852,"Ġmedi":10853,"allen":10854,"zakpiri":10855,"ĠparekyÉĽ":10856,"Ġplantain":10857,"Ġhardly":10858,"Ġkuraa":10859,"Ġkulee":10860,"ĠkyeÉĽ":10861,"Ġkyaane":10862,"Ġdonation":10863,"dÉĽrÉĽÉĽ":10864,"dÉĽlle":10865,"dÉĽmmo":10866,"saaÅĭ":10867,"Ġtrail":10868,"ĠgÉĶnne":10869,"ĠgÉĶnnÉĽÉĽ":10870,"Ġcarve":10871,"ĠDagaa":10872,"ĠDagbaane":10873,"kÃ²Åĭ":10874,"kÃ²kÃ²":10875,"maama":10876,"maalaa":10877,"yÉĶÉĽ":10878,"Ġbread":10879,"Ġbreaking":10880,"ĠlÉĶrÉĽÉĽ":10881,"ĠlÉĶraa":10882,"ĠlÉĶnnaa":10883,"Ġgbolee":10884,"Ġgbolibo":10885,"kÃ³lÃ³":10886,"kÃ³nÃ³":10887,"tÃ¡lÉª":10888,"tÃ¡gÉª":10889,"tÃ¡Ê§":10890,"tÃ¡rÃ¡":10891,"tÃ¡Ê§Éª":10892,"Ġpuro":10893,"Ġpulee":10894,"Ġpuff":10895,"Ġpuono":10896,"Ġpuoruu":10897,"Ġpubic":10898,"kpÉĽrÉª":10899,"Ġheadquart":10900,"Ġkpele":10901,"ĠkpeerÉĽÉĽ":10902,"ĠkperebÉĽ":10903,"akyeÉĽrÉĽ":10904,"akyeri":10905,"Ġworker":10906,"Ġworking":10907,"zÃºzÉªÉĽ":10908,"zÃºÅĭmÃ¡nÉª":10909,"nÃłgÉª":10910,"nÃłÅĭkÊĬ":10911,"nÃłÊ§ÃŃ":10912,"opper":10913,"rÃ¡tÃ¡":10914,"Ġexpensive":10915,"kÃłrÃłÃł":10916,"ĠGa":10917,"Ġburro":10918,"Ġburree":10919,"Ġcausing":10920,"Ġdisg":10921,"Ġdismant":10922,"Ġdisgrace":10923,"Ġguess":10924,"Ġguilty":10925,"ĠzÉĽlÉĽÉĽ":10926,"ĠzÉĽmbÉĽ":10927,"ĠzÉĽvaare":10928,"wÉĽrÉĽÉĽ":10929,"wÉĽlÉĽ":10930,"Ġimpl":10931,"bÃ²lÃŃ":10932,"kÃºlÃŃ":10933,"kÃºÅĭkÃº":10934,"nÃ¡nnÃ¡":10935,"parent":10936,"Ġabsc":10937,"Ġabandon":10938,"ankye":10939,"Ġyeliw":10940,"rÃ³Ã²":10941,"rÃ³tÃ³":10942,"Ġluree":10943,"Ġluraa":10944,"ĠluÅĭg":10945,"mpÉĽlÉª":10946,"yÃ¨lbÊĬ":10947,"ĠdÉĽrÉĽÉĽ":10948,"ĠdÉĽnemÉĽ":10949,"ĠdÉĽllaa":10950,"ĠgyÉĽnnÉĽÉĽ":10951,"ĠgyÉĽngy":10952,"Ġbaguo":10953,"Ġseedling":10954,"Ġ19":10955,"Ġyaws":10956,"Ġrounded":10957,"bby":10958,"bble":10959,"bbed":10960,"cob":10961,"Ġsupposed":10962,"Ġlightbul":10963,"ompoore":10964,"omparable":10965,"ĠYÎµ":10966,"ĠYour":10967,"Ġrape":10968,"Ġrace":10969,"Ġmuro":10970,"Ġanyone":10971,"Ġrefrain":10972,"Ġcomplain":10973,"nimis":10974,"nimif":10975,"ĠComp":10976,"Ġmatch":10977,"Ġmaturity":10978,"fole":10979,"mÃ¡Ã¡lÃ¡":10980,"pher":10981,"ĠLÉĽ":10982,"ĠLet":10983,"ĠLÉĶÉĶre":10984,"ĠLawra":10985,"Ġliter":10986,"Ġbackward":10987,"ĠEach":10988,"ĠEuro":10989,"Ġskim":10990,"Ġskull":10991,"Ġskirt":10992,"Ġbondaare":10993,"Ġcomplete":10994,"gÃ³r":10995,"gÃ³rÃŃ":10996,"gÃ³kÃ³":10997,"Ġsakuuree":10998,"ĠzÉĶng":10999,"goe":11000,"ĠtÉĽmp":11001,"ĠtÉĽnÉĽ":11002,"ĠtÉĽrrÉĽÉĽ":11003,"Ġzoe":11004,"nÃŃmÃŃsÊĬ":11005,"nÃŃmÃŃpÉªÉĽ":11006,"pÃŃrÃ©":11007,"Ġending":11008,"Ġended":11009,"Ġundertaker":11010,"ĠtakÉĶ":11011,"Ġtakori":11012,"Ġfalls":11013,"gbore":11014,"Ġlooked":11015,"Ġwilderness":11016,"Ġheaven":11017,"Ġbrick":11018,"Ġbrideg":11019,"Ġseek":11020,"ĠbonsoÅĭ":11021,"ĠbonseÉĽre":11022,"ĠbonseÉĽrÉĽÉĽ":11023,"Ġexpressions":11024,"loose":11025,"lÃ²Ã²":11026,"Ġpatch":11027,"Ġgroan":11028,"Ġgreatly":11029,"gyÉĽl":11030,"gyÉĽlÉĽ":11031,"portion":11032,"velled":11033,"ĠmaaÅĭ":11034,"kÉĶÉĶlÉĶ":11035,"Ġulee":11036,"Ġuoraa":11037,"Ġwooden":11038,"Ġwoodpeck":11039,"Ġfier":11040,"Ġcoward":11041,"Ġsetting":11042,"bÉªnÉĽ":11043,"bÉªrÊĬ":11044,"fÉªlÉĽ":11045,"fÉªgÉª":11046,"fÉªrÊĬ":11047,"fÉªgÉĽ":11048,"gbaÅĭgb":11049,"tense":11050,"ĠdieÅĭ":11051,"Ġdescend":11052,"Ġtherefore":11053,"baÅĭenaa":11054,"Ġsticking":11055,"Ġcontainers":11056,"eÅĭene":11057,"Ġacid":11058,"ĠkÉĶkÉĶlaa":11059,"faction":11060,"gÃ²kÃ²":11061,"mizoo":11062,"tiiruÅĭ":11063,"kpeme":11064,"ĠzaÉĽ":11065,"Ġbegged":11066,"ÅĭmaaÅĭa":11067,"Åĭmaakpant":11068,"Ã¹Ã²lÃ¬":11069,"Thorn":11070,"Though":11071,"lÃłÃłrÉª":11072,"Ġkolkolo":11073,"Ġdrizzle":11074,"Ġgrows":11075,"Ġcareless":11076,"kpÃłlÉª":11077,"sÃłÃłlÃłÃł":11078,"yokpe":11079,"ĠwÉĶÉĶbo":11080,"ĠyÉĶÉĶpÉĶge":11081,"Ġemphatic":11082,"Ġemptiness":11083,"Ġkpaanaa":11084,"Ġextensive":11085,"Ġbompuuree":11086,"ĠbompÉĽÉĽrÉĽÉĽ":11087,"grind":11088,"granary":11089,"pride":11090,"sÃºnnÃ¬":11091,"lÉĽÅĭÅĭÉĽ":11092,"lÃ¨Åĭ":11093,"lÃ¨Ã©":11094,"scene":11095,"sÃ¡Ã¡bÊĬ":11096,"sÃ¡Ã¡nÃ¡Ã¡":11097,"sÃ¡Ã¡nÃ¡":11098,"Ġbiriky":11099,"Ġbiribiri":11100,"ĠsoÉĶnaa":11101,"ĠsoÉĶnema":11102,"Ġsignif":11103,"ĠkaÅĭkaÅĭgb":11104,"Ġknows":11105,"Ġpoll":11106,"Ġpolygam":11107,"ĠvooroÅĭ":11108,"fÃłnÉª":11109,"Ġmarry":11110,"Ġmarried":11111,"Ġmarshy":11112,"anfuuri":11113,"anfane":11114,"anfaraÅĭ":11115,"Ġyuoro":11116,"ĠnyÉĶÉĽ":11117,"ĠnyÉĶrÉĽÉĽ":11118,"Ġremoving":11119,"taant":11120,"Ġtighten":11121,"Ġthrown":11122,"ĠleÉĽrebÉĽ":11123,"alabash":11124,"Ġgroups":11125,"pÃ¬lÃ¬":11126,"voÉĽ":11127,"ĠVÉĽÅĭ":11128,"ĠVersion":11129,"Ġentukp":11130,"Ġsalins":11131,"Ġsaluoni":11132,"ĠlÉĶÉĶl":11133,"Ġgbiiraa":11134,"Ġmissing":11135,"Ġmisfort":11136,"ĠyÉĶrÉĽÉĽ":11137,"ĠyÉĶlÉĶ":11138,"Ġeyeball":11139,"Ġbeaten":11140,"ÅĭmÉĽle":11141,"Ġsmoothly":11142,"pÃłnÃł":11143,"pÃłrÃ¨":11144,"rÃ¨Ã©":11145,"wÉªlÉĽ":11146,"Ġkuriwiri":11147,"Ġpigribe":11148,"Ġpassing":11149,"Ġpassage":11150,"ĠmaaleÅĭ":11151,"kpÉªrÉĽ":11152,"gbÃ²r":11153,"gbÃ²Åĭ":11154,"ĠdabeÉĽ":11155,"ĠdabÉĶge":11156,"Ġdabili":11157,"ĠdabeÉĽmÉĽ":11158,"bandaa":11159,"bandaz":11160,"sized":11161,"sÃ¹gÃ¬":11162,"vilime":11163,"Ġseng":11164,"Ġsense":11165,"ÅĭkÉĶnny":11166,"Ġprior":11167,"Ġdakogi":11168,"Ġdakye":11169,"Ġfishhook":11170,"ndÉĶbÉĶ":11171,"kpÃ¡lÃł":11172,"kpÃ¡lÃ¡":11173,"Ġintru":11174,"Ġintest":11175,"Ġconfer":11176,"Ġconfuse":11177,"Ġjob":11178,"zÃ¹gÃ¬":11179,"ĠangyoÉĶ":11180,"Ġsinglet":11181,"interpret":11182,"ammer":11183,"É²ÉªgrÉª":11184,"Ġdoesn":11185,"nÃłÃłmÉªÉĽ":11186,"Ġsograa":11187,"Ġsogya":11188,"Ġsquat":11189,"Ġsquare":11190,"Ġkinds":11191,"Ġkindly":11192,"Ġdarkness":11193,"Ġhairy":11194,"Ġcovering":11195,"Ġimmerse":11196,"azeg":11197,"bÃ³Åĭ":11198,"manlee":11199,"Ġtried":11200,"Ġwriter":11201,"Ġwrigg":11202,"Ġmudfish":11203,"Ġziiri":11204,"Ġkalekale":11205,"uggle":11206,"ĠbonteÉĽrÉĽÉĽ":11207,"Ġitself":11208,"dakÉĶÉĶre":11209,"konta":11210,"luck":11211,"nyÉĽlmaa":11212,"pÃ²rÃ²":11213,"pÃ²tÃºÃ³":11214,"ĠneÉĽzaa":11215,"Ġsolution":11216,"Ġdáº½ÉĽd":11217,"Ġdáº½ÉĽdáº½ÉĽ":11218,"Ġcrab":11219,"Ġcraft":11220,"kpÉĶlÉĽÉĽ":11221,"Ġincrease":11222,"Ġincriminate":11223,"ĉĉĉĠĠĠ":11224,"bompaare":11225,"Ġsupports":11226,"Ngm":11227,"Ngma":11228,"Ngmaa":11229,"acles":11230,"dÉĶÉĶne":11231,"puoraa":11232,"takÉĶraa":11233,"wÃłl":11234,"ĠUoni":11235,"Ġbandaz":11236,"Ġspoon":11237,"Ġspoke":11238,"Ġdankyimm":11239,"arsiri":11240,"Ġfingernail":11241,"ĠgaÅĭga":11242,"ombugo":11243,"omboÉĶlaa":11244,"ÅĭmÉªn":11245,"Ġleading":11246,"Dagaaba":11247,"kÃ¹kÃº":11248,"kaÅĭkand":11249,"kaÅĭkany":11250,"sensÉĽ":11251,"vÉªrÉĽ":11252,"yÃ©nÃ¬":11253,"Ġburies":11254,"Ġsource":11255,"ĠzÉĶÉĶrÉĶ":11256,"ĠzÉĶÉĶze":11257,"beremÉĽ":11258,"ĠseÅĭgelÉĽ":11259,"Ġrestive":11260,"Ġrestless":11261,"Ġbilembile":11262,"Ġspiritually":11263,"gÃ©lÃ¬":11264,"wirizoore":11265,"yÃ³lÃºÅĭ":11266,"ĠÉĶÉĶraa":11267,"ĠÉĶÉĶreba":11268,"Ġbalance":11269,"Ġbalamb":11270,"Ġkanat":11271,"Ġkanwaa":11272,"Ġwuoraa":11273,"Ġwitness":11274,"Ġwirik":11275,"ĠwirizoÉĽ":11276,"Ġglance":11277,"Ġgrey":11278,"Ġmiloo":11279,"ÃŃrÃ©Åĭ":11280,"boÅĭÅĭmaa":11281,"ĠbaleÅĭkp":11282,"Ġexcre":11283,"Ġexcessive":11284,"Ġexclude":11285,"Ġexclamation":11286,"dapÉĽ":11287,"dabÉĶge":11288,"dabilii":11289,"gbeÅĭkeroo":11290,"swine":11291,"sweet":11292,"Ġtroub":11293,"Ġballs":11294,"Ġblossom":11295,"ĠsellÉĽÉĽ":11296,"Ġsellaa":11297,"Ġfellow":11298,"ĠvÅ©ug":11299,"Ġhatch":11300,"pected":11301,"Ġnyeresalens":11302,"Ġspots":11303,"Ġuntidy":11304,"Ġfriendship":11305,"Ġsubstances":11306,"Ġreturning":11307,"gnant":11308,"varevare":11309,"Ġbulib":11310,"Ġplucking":11311,"Ġvaluable":11312,"Ġcorral":11313,"ĠkpaÅĭkpannyug":11314,"Ġsteal":11315,"Ġsteam":11316,"Ġstuck":11317,"Ġstillbirth":11318,"Ġnembaal":11319,"bonteÉĽraa":11320,"Ġstruggling":11321,"gÃ¨nÃ¨":11322,"Ġterm":11323,"ĠtapolÉĽÉĽ":11324,"Ġbarka":11325,"Ġdelib":11326,"Ġeveryone":11327,"Ġeverywhere":11328,"ĠbebidÉĽ":11329,"Ġnyegere":11330,"Ġshellfish":11331,"Ġruns":11332,"Ġbrewer":11333,"doÅĭa":11334,"kaase":11335,"wÃ¡Éª":11336,"wÃ³lÃ³":11337,"Ġbamboo":11338,"Ġbambara":11339,"Ġselfishness":11340,"Ġpupils":11341,"Ġfelmaara":11342,"Ġmourning":11343,"Ġvarema":11344,"Ġcolleague":11345,"Ġyiele":11346,"Ã¹Ã¹lÃ¬":11347,"Ã¹Ã¹rÃ¡Ãł":11348,"Ġmeasuring":11349,"Ġjumbled":11350,"dagoli":11351,"nÉ²Ã¡Ãł":11352,"wÃ¬rÃ¬zÊĬ":11353,"ĠtensogÉĶ":11354,"Ġtensoga":11355,"ĠtontoÅĭ":11356,"ĠbidÉĽ":11357,"Ġkogri":11358,"ĠpeÉĽnaa":11359,"Ġwolla":11360,"Ġowl":11361,"Ġflexible":11362,"Ġgreet":11363,"Ġgolg":11364,"ĠvÉĶlÉĶ":11365,"kpÃ©rÃŃ":11366,"Ġzuoe":11367,"ĠzanzaÅĭkp":11368,"ampered":11369,"Ġstinginess":11370,"yÉĽrebÉĽÉĽ":11371,"ĠkÉĶntÉĶn":11372,"Ġbiiridale":11373,"ÉĽgelÉĽkÉĽlÉĽ":11374,"dogelee":11375,"Ġearthworm":11376,"dÃºÃ³rÃ¹":11377,"hÃ¡lÉª":11378,"kolokolo":11379,"mÃ¬nÃ¬":11380,"makas":11381,"makÃµÉĶ":11382,"tÃ©g":11383,"tÃ©rÃ©":11384,"weÉĽloo":11385,"ĠÃ¡tÃł":11386,"Ġtuobu":11387,"Ġsentence":11388,"legged":11389,"Ġpushed":11390,"Ġdancing":11391,"Ġdancers":11392,"Ġwofuoraa":11393,"Ġwindow":11394,"Ġvuoli":11395,"Ġvisitor":11396,"Ġcolla":11397,"Ġhiding":11398,"ntÃ¡gÉª":11399,"ĠÅĭmeene":11400,"ĠÅĭmoonema":11401,"ĠÅĭmoona":11402,"Ġtoothless":11403,"ĠduoruÅĭkÉĶns":11404,"NÃŃmÃŃri":11405,"NÃŃmÃŃrÃ¬":11406,"dankyiÅĭk":11407,"ĠsÉĽremaal":11408,"Ġkeeping":11409,"Ġpenis":11410,"Ġpalace":11411,"Ġpalatable":11412,"Ġdrought":11413,"Ġlotion":11414,"Ġinfant":11415,"Ġinfected":11416,"ograph":11417,"ĠboreÅĭmaakpant":11418,"ĠbikÅ©u":11419,"Ġattach":11420,"Ġattached":11421,"Ġattempted":11422,"Ġprotest":11423,"Ġnarrowly":11424,"bÃ©bÃ©":11425,"dambo":11426,"lÃ¹gÃ¬":11427,"lÃ¹Ã¹rÃ¬":11428,"ĠsaseÉĽ":11429,"Ġporraa":11430,"Ġpayment":11431,"ĠwÉĶÅĭkam":11432,"Ġweevil":11433,"Ġwidely":11434,"Ġwidower":11435,"Ġoozing":11436,"ĠgoÉĶÉĽ":11437,"Ġmessenger":11438,"kpÃ²lÃ¬":11439,"Ġzegeraa":11440,"Ġinvite":11441,"oÅĭgoloÅĭ":11442,"Ġstored":11443,"Ġletter":11444,"Ġneedy":11445,"ĠÅĭmampor":11446,"Ġgborgbo":11447,"Ġbonnyuuri":11448,"Ġdevelopment":11449,"Ġporisi":11450,"Ġporitiis":11451,"gyeree":11452,"gyemÉĽ":11453,"Ġaccompany":11454,"Ġcrossed":11455,"breast":11456,"donkey":11457,"dogs":11458,"dakyeere":11459,"gÃ¹Ãº":11460,"kÃ¡Ã¡mÃ¡":11461,"zzled":11462,"ĠberoÅĭk":11463,"Ġbathing":11464,"ĠkoÉĶleba":11465,"Ġperipere":11466,"Ġwiáº½u":11467,"Ġokay":11468,"Ġgarment":11469,"ĠvuloÅĭkp":11470,"Ġvulva":11471,"ĠvÅ©uz":11472,"Ġbebis":11473,"Ġinformed":11474,"pegelaa":11475,"Ġsearching":11476,"Ġregion":11477,"Ġregular":11478,"ĠtegÉĽÉĽ":11479,"Ġtegitegi":11480,"mbÃŃlÃ©Åĭ":11481,"mbÃ²gÃŃ":11482,"Ġchoice":11483,"Ġsacred":11484,"Ġkaremamine":11485,"ĠniÅĭeÅĭ":11486,"Child":11487,"farmer":11488,"kusi":11489,"vÃŃlÃ©":11490,"vÃŃlÃŃmÃ©":11491,"wÃºlÃºÃº":11492,"yÃłgÉª":11493,"zÉĶÉĶreba":11494,"Ġutterly":11495,"Ġsaalomp":11496,"onyonne":11497,"Ġtogilogoo":11498,"Ġpimple":11499,"Ġolive":11500,"Ġowners":11501,"Ġfentel":11502,"Ġfifire":11503,"Ġfifty":11504,"Ġyogro":11505,"ndeteroo":11506,"ĠzombÉĽ":11507,"ĠzÉĶÅĭa":11508,"ĠkpoÅĭkpont":11509,"ĠkpoÅĭkpolee":11510,"melekala":11511,"Ġuncastrated":11512,"dzÃ¬l":11513,"bÃ¬rÃŃÊ§Ã¬":11514,"ĠnimibaaloÅĭ":11515,"Ġcobra":11516,"Ġscrap":11517,"Ġmatured":11518,"sÃ£akont":11519,"Ġcarefully":11520,"Ġdecorate":11521,"Ġdecoration":11522,"Ġdestroy":11523,"Ġdestroyed":11524,"Ġpunishment":11525,"pulopulo":11526,"taÅĭemÉĽÉĽ":11527,"ĠtuÅĭee":11528,"Ġtotal":11529,"Ġkey":11530,"Ġkeree":11531,"ĠpÉĽglÉĽÅĭ":11532,"Ġdanday":11533,"Ġflabby":11534,"Ġmistake":11535,"edeme":11536,"etebaa":11537,"Ġgbellee":11538,"Ġpossessive":11539,"nÉªmbÉª":11540,"Ġroams":11541,"Ġpierce":11542,"yelboÉĶraa":11543,"ĠpÉĶlese":11544,"Ġappellation":11545,"Ġluroluro":11546,"Ġmisses":11547,"Ġdirectly":11548,"Ġappearance":11549,"Ġannoyance":11550,"Ġjumped":11551,"Ġcrowded":11552,"Ġaffects":11553,"Ġaffection":11554,"expression":11555,"work":11556,"zanzaÅĭaa":11557,"á½¸":11558,"Ġtreatment":11559,"Ġkoringy":11560,"Ġkurku":11561,"ĠpÉĽÉĽtÉĽ":11562,"Ġpillaa":11563,"Ġpursue":11564,"Ġlimit":11565,"Ġwrestling":11566,"Ġwrongdo":11567,"Ġfully":11568,"Ġgiant":11569,"Ġgogori":11570,"ĠvaaÉĽ":11571,"Ġvarious":11572,"Ġhurry":11573,"Ġladder":11574,"baÅĭkoroÅĭ":11575,"Ġemotion":11576,"Ġeighty":11577,"local":11578,"locate":11579,"nsÃ¡Ã¡nÃł":11580,"duorun":11581,"duoruÅĭ":11582,"zÃ¡nzÃ¡":11583,"Ġpractices":11584,"Ġdragged":11585,"Ġengaged":11586,"Ġmosquitoes":11587,"clothes":11588,"dÃŃndÃŃ":11589,"salins":11590,"ziberaa":11591,"Ġerr":11592,"Ġtumak":11593,"ĠbÉĶÅĭene":11594,"Ġtortoise":11595,"Ġmalicious":11596,"Ġvanish":11597,"Ġvanity":11598,"Ġeasy":11599,"ĠzegerebÉĽ":11600,"ÅĭmemÉĽ":11601,"ĠneÅĭkponni":11602,"Ġresemble":11603,"Ġresembles":11604,"Ġheels":11605,"Ġbodaasens":11606,"Ġbodaanonno":11607,"Ġsafeky":11608,"Ġspiky":11609,"Ġspikes":11610,"Ġpebbles":11611,"esticated":11612,"ĠgbÉĽgrÉĽ":11613,"Ġtumpanne":11614,"ĠpÉĶlbile":11615,"Ġscrat":11616,"Ġscratch":11617,"Ġapplying":11618,"Ġapplied":11619,"serekulo":11620,"bran":11621,"centrated":11622,"footed":11623,"haps":11624,"mÃºnÃŃ":11625,"metal":11626,"pÃ¹Ã²rÃŃ":11627,"pÃ¹Ã²rÃłÃ¡":11628,"samasama":11629,"tegeroÅĭ":11630,"Ġturtle":11631,"Ġnakyigree":11632,"Ġnakyigri":11633,"Ġbravery":11634,"Ġbuulunw":11635,"ĠsaareÅĭ":11636,"Ġsnap":11637,"ĠdanseÉĽ":11638,"Ġwishes":11639,"Ġwounded":11640,"Ġgelee":11641,"Ġvenom":11642,"orabin":11643,"Ġcotton":11644,"ĠyÉĶgevaare":11645,"nempÉĶgere":11646,"kpÃºlÃ©Ã©":11647,"Ġbeads":11648,"between":11649,"Ġshocked":11650,"ĉĉĠĠĠĠĠĠĠ":11651,"Ġpeaceful":11652,"ĠbÉĽlÉĽmbÉĽ":11653,"Ġprotect":11654,"Ġprotection":11655,"Ġproduces":11656,"Ġparesun":11657,"Ġreferred":11658,"Ġcleverness":11659,"Ġdespise":11660,"Ġdespite":11661,"Ġsensogelens":11662,"Ġsalendoge":11663,"Ġelderly":11664,"ĠnÉĽnefÉĽnÉĽ":11665,"ĠvalinvuuluÅĭ":11666,"ĠbiÅĭibiÅĭine":11667,"Ġkernel":11668,"Ġkernels":11669,"Ġsympathy":11670,"Ġsympathise":11671,"kegireÅĭ":11672,"lakala":11673,"mmÉĽlÉĽÅĭ":11674,"ringe":11675,"ummu":11676,"yÃºÃ²":11677,"Ġignore":11678,"Ġideas":11679,"Ġbreathe":11680,"Ġsilky":11681,"Ġtowel":11682,"Ġdedee":11683,"Ġlonely":11684,"Ġwhether":11685,"Ġwrinkle":11686,"Ġgulps":11687,"Ġgangyinn":11688,"Ġvoluminous":11689,"Ġzamparem":11690,"Ġinhabit":11691,"Ġbagao":11692,"petition":11693,"Ġnyamena":11694,"Ġstampede":11695,"ĠAmong":11696,"irror":11697,"irinÉĶbÉĶ":11698,"behav":11699,"Ġlenime":11700,"Ġfortify":11701,"Ġshrill":11702,"ĠSafe":11703,"mmÃŃrÃºÃº":11704,"ĠKÉĶkÉĶlaa":11705,"ĠWhich":11706,"Ġriddle":11707,"Ġbladder":11708,"ĠBonso":11709,"Ġarrive":11710,"Ġarrangement":11711,"sÃ¡mpÃ¡nÉª":11712,"Ġbroadcast":11713,"zÃ¡grÃ¡":11714,"Ġuneven":11715,"ĠbÉĶgeÅĭmampe":11716,"ĠkaÅĭkaÅĭkye":11717,"Ġmonths":11718,"Ġwritten":11719,"Ġtomatoes":11720,"Ġrelationship":11721,"Ġinvaded":11722,"Ġphysical":11723,"Ġoccasions":11724,"Ġmegemeg":11725,"Adverbs":11726,"gÃºÃºlÃ¬":11727,"joint":11728,"pÃºÃºlÃ©Ã©":11729,"snatch":11730,"tookuri":11731,"ĠtutÉĶ":11732,"ĠtanzuÅĭ":11733,"Ġtuntund":11734,"Ġavoid":11735,"Ġbellows":11736,"Ġsniff":11737,"Ġpulopulo":11738,"heartedness":11739,"Ġodour":11740,"Ġgenegene":11741,"gested":11742,"Ġcedis":11743,"Ġcamouf":11744,"Ġhurried":11745,"mabiekontapÉĶge":11746,"Ġtethering":11747,"ÅĭkÃ©rÃ³Ã³":11748,"ĠkÉĶleÅĭkÉĶ":11749,"Ġdefec":11750,"rubber":11751,"ĠnÉĶdaakomm":11752,"Ġcommendation":11753,"dÉĶndÉĶre":11754,"Ġrhythm":11755,"builders":11756,"Ġapproach":11757,"Ġabdomen":11758,"Ġfuomii":11759,"Ġentangled":11760,"Ġspokesman":11761,"Ġhunihun":11762,"Ġwalpieluu":11763,"ĠdoÉĶkpangy":11764,"dÃ¹ndÃ¹":11765,"oÅĭkommuulitoori":11766,"mbÃ¡lÃ¡Ã¡rÃ¡Ã¡":11767,"ĠkÉĽkÉĽrÉĽÉĽ":11768,"ĠAfrican":11769,"Ġopposite":11770,"Ġmercilessly":11771,"BÃ¨bÃŃ":11772,"Compound":11773,"DEF":11774,"Dankyini":11775,"Spew":11776,"White":11777,"ausa":11778,"diction":11779,"kalmany":11780,"soup":11781,"vutaÅĭkp":11782,"whel":11783,"ïĢł":11784,"ĠnÉĽgetÉĽgÉĽÉĽ":11785,"Ġastride":11786,"ĠayoÉĶp":11787,"Ġbastard":11788,"Ġsneak":11789,"Ġsoothsay":11790,"leaves":11791,"Ġkaringy":11792,"Ġpicture":11793,"Ġdredge":11794,"Ġgentle":11795,"Ġmoustache":11796,"Ġvagina":11797,"Ġcalled":11798,"Ġhaggle":11799,"ÅĭmolÉĶÅĭÅĭmooraa":11800,"aggeration":11801,"vegetable":11802,"Ġissues":11803,"Ġleftover":11804,"Ġneighbour":11805,"Ġnaughty":11806,"Ġtethered":11807,"Ġtempered":11808,"Ġwhistle":11809,"Ġsojourner":11810,"nÉĽgetÉĽgÉĽÉĽ":11811,"ĠDubai":11812,"umcision":11813,"Ġuncovered":11814,"Ġunimportant":11815,"ÉĶrekpÉĶrÉĶ":11816,"Ġalbino":11817,"Ġenvironment":11818,"Ġclitoris":11819,"Ġprecisely":11820,"Ġintercourse":11821,"Ġheadquarters":11822,"nÃłÊ§ÃŃgÃ©":11823,"Ġdismantle":11824,"Ġabscess":11825,"Ġlightbulb":11826,"ĠEurope":11827,"Ġbridegroom":11828,"Ġwoodpecker":11829,"Ġmisfortune":11830,"interpretation":11831,"',":11832,"'s":11833,"+-":11834,"-,":11835,"--":11836,"-/":11837,"60":11838,"70":11839,"80":11840,"90":11841,"Ai":11842,"Aug":11843,"AÅĭk":11844,"All":11845,"Apri":11846,"Afere":11847,"By":11848,"Ban":11849,"BÃł":11850,"Bus":11851,"Bee":11852,"Bay":11853,"Bong":11854,"Breat":11855,"Bond":11856,"Can":11857,"Cat":11858,"Cow":11859,"Clo":11860,"Cold":11861,"Cond":11862,"Central":11863,"DI":11864,"Di":11865,"Du":11866,"Don":11867,"DÃł":11868,"Doo":11869,"Das":11870,"DÃ²":11871,"Dant":11872,"Dend":11873,"Dry":11874,"DÉĽre":11875,"Dav":11876,"DÃºÃ³":11877,"Daky":11878,"Doge":11879,"Dialog":11880,"Dagao":11881,"Degree":11882,"DaÅĭyi":11883,"Ex":11884,"Even":11885,"ENG":11886,"Fri":11887,"Fut":11888,"Finger":11889,"Fresh":11890,"Gal":11891,"Gyu":11892,"Gaana":11893,"Gyo":11894,"Gyer":11895,"GÃ¡n":11896,"Hat":11897,"Horse":11898,"Holy":11899,"Hausa":11900,"Is":11901,"Idi":11902,"Jn":11903,"Jer":11904,"Jan":11905,"June":11906,"July":11907,"Kaa":11908,"KÃ¡":11909,"KoÉĶ":11910,"Kus":11911,"Kow":11912,"KÃ²":11913,"Kur":11914,"Kap":11915,"Kuri":11916,"Koro":11917,"KÃ¹rÃ¬":11918,"Kya":11919,"Lo":11920,"LÉĽ":11921,"Laa":11922,"LeÉĽ":11923,"LÃŃ":11924,"Long":11925,"Leg":11926,"LÃ¬bÃŃ":11927,"Mk":11928,"Mo":11929,"May":11930,"Met":11931,"Meet":11932,"MÃŃrÃ¬":11933,"Mother":11934,"March":11935,"NÃł":11936,"NeÉĽ":11937,"NÃłÃł":11938,"Num":11939,"Near":11940,"Ob":11941,"Oto":11942,"October":11943,"Pa":11944,"Pre":11945,"Pen":11946,"Pie":11947,"Pot":11948,"Put":11949,"Pare":11950,"Paare":11951,"Pane":11952,"Poore":11953,"Pass":11954,"Pelaa":11955,"Pull":11956,"Pito":11957,"Pres":11958,"Pampana":11959,"Prep":11960,"Place":11961,"PÉĽle":11962,"Please":11963,"Pillow":11964,"Qu":11965,"RL":11966,"Ro":11967,"Red":11968,"Right":11969,"Roll":11970,"Raw":11971,"River":11972,"Su":11973,"SÉĽ":11974,"Son":11975,"Sat":11976,"Sal":11977,"SeÉĽ":11978,"SoÉĶ":11979,"SaÅĭ":11980,"Sak":11981,"SÉĶÉĶ":11982,"SÃ£":11983,"Sere":11984,"Sund":11985,"Ste":11986,"Saana":11987,"School":11988,"SÉĽgre":11989,"Spec":11990,"Salt":11991,"SÃ¡n":11992,"SÉĶgle":11993,"Sieve":11994,"Ti":11995,"Tra":11996,"Tak":11997,"Type":11998,"Train":11999,"Tuuro":12000,"Town":12001,"Towards":12002,"Tomorrow":12003,"Tutaa":12004,"Uo":12005,"Vuu":12006,"VeÉĽlÉĽ":12007,"Veget":12008,"Voc":12009,"WR":12010,"Wed":12011,"Wogi":12012,"West":12013,"Ye":12014,"Yiri":12015,"YoÉĶre":12016,"Yaga":12017,"YoÉĶraa":12018,"Yeli":12019,"Yuoni":12020,"Yesterday":12021,"Ze":12022,"Zaa":12023,"Záº½ÉĽpÉĶge":12024,"aba":12025,"akp":12026,"abo":12027,"aud":12028,"aft":12029,"after":12030,"action":12031,"azaa":12032,"bro":12033,"bra":12034,"brÉĽÉĽ":12035,"bent":12036,"bly":12037,"berÉĽÉĽ":12038,"bant":12039,"bru":12040,"berÉĽ":12041,"brebÉĽ":12042,"bÃ¡Ãł":12043,"bte":12044,"bard":12045,"baale":12046,"brow":12047,"bime":12048,"bye":12049,"bili":12050,"buori":12051,"báº½ÉĽ":12052,"bÃ¡Åĭ":12053,"bull":12054,"bÉĶgere":12055,"benÉĽÉĽ":12056,"bÇİ":12057,"bank":12058,"banz":12059,"bÉĶgele":12060,"bigiri":12061,"buribo":12062,"bulli":12063,"bÉĶgÉĶ":12064,"bring":12065,"bÉĶgerÉĽÉĽ":12066,"bted":12067,"bimm":12068,"broom":12069,"buulaa":12070,"bimee":12071,"buÅĭi":12072,"bÃ¡ÅĭÃ¡":12073,"bÉĶga":12074,"boroto":12075,"bending":12076,"bÄĽ":12077,"bÃ£abo":12078,"ci":12079,"cro":12080,"cas":12081,"cage":12082,"cane":12083,"came":12084,"cise":12085,"cult":12086,"culo":12087,"cular":12088,"count":12089,"cence":12090,"ccy":12091,"cribe":12092,"cious":12093,"circ":12094,"coming":12095,"cify":12096,"cakes":12097,"clay":12098,"calabash":12099,"dd":12100,"ded":12101,"daÅĭ":12102,"dig":12103,"dad":12104,"dir":12105,"dÍ»":12106,"duo":12107,"dii":12108,"dÃ¡Ãł":12109,"dind":12110,"dish":12111,"dÉĶre":12112,"duori":12113,"dans":12114,"deÉĽle":12115,"dise":12116,"due":12117,"deÉĽraa":12118,"dud":12119,"daana":12120,"daÅĭg":12121,"deep":12122,"deÉĽlÉĽÉĽ":12123,"dled":12124,"dÃ¡Ã¡rÉª":12125,"daÅĭaa":12126,"doÉĶle":12127,"dÉĶgele":12128,"dorri":12129,"doma":12130,"dÃºÅĭ":12131,"daÅĭgb":12132,"dles":12133,"dunnee":12134,"dirty":12135,"dogerÉĽÉĽ":12136,"dÃłÃłrÉª":12137,"doÅĭkomm":12138,"diibu":12139,"deÉĽnaa":12140,"dÉĽgrÉª":12141,"eat":12142,"ever":12143,"eue":12144,"ext":12145,"eyed":12146,"eousness":12147,"eorite":12148,"fy":12149,"far":12150,"fat":12151,"fal":12152,"free":12153,"fas":12154,"fam":12155,"firi":12156,"fÃ©":12157,"fly":12158,"fage":12159,"flo":12160,"fÉĽg":12161,"fáº½":12162,"find":12163,"fum":12164,"five":12165,"found":12166,"forÉĶ":12167,"farre":12168,"fulo":12169,"fori":12170,"fuuli":12171,"figi":12172,"fugi":12173,"fáº½e":12174,"fenne":12175,"fool":12176,"fÉĶÅĭe":12177,"fowl":12178,"faroo":12179,"fÃ¹Ã²":12180,"fresh":12181,"feroo":12182,"furree":12183,"foot":12184,"fÉĶÅĭÉĶ":12185,"fegÉĽ":12186,"fÃłÃłlÊĬ":12187,"fogiluu":12188,"ferment":12189,"gen":12190,"gal":12191,"gom":12192,"gil":12193,"gree":12194,"gall":12195,"gli":12196,"guri":12197,"gÃ¡Ãł":12198,"gaale":12199,"goÉĶre":12200,"grow":12201,"goore":12202,"game":12203,"gÉĶre":12204,"gili":12205,"gans":12206,"gwe":12207,"gore":12208,"gaÅĭk":12209,"gamb":12210,"glÃł":12211,"grÃ©":12212,"glÃ¡":12213,"ginal":12214,"ganema":12215,"garrÉĽÉĽ":12216,"gunni":12217,"glÃłÃł":12218,"goloÅĭ":12219,"golÉĶ":12220,"gogo":12221,"glÃºÃº":12222,"gennaa":12223,"groom":12224,"gzÃŃÃ©":12225,"glÃ©Åĭ":12226,"gbogiri":12227,"glÃ³Åĭ":12228,"genime":12229,"glÃłÅĭ":12230,"gandaa":12231,"gency":12232,"gÃªÅĭ":12233,"hÉĽÉĽ":12234,"hÊĬ":12235,"haÅĭ":12236,"hÃº":12237,"ham":12238,"hog":12239,"hÃ©":12240,"hare":12241,"hara":12242,"hale":12243,"hÃ¡Åĭ":12244,"hold":12245,"high":12246,"half":12247,"hÄ©Ä©":12248,"haped":12249,"hanging":12250,"huuni":12251,"huni":12252,"herself":12253,"ian":12254,"ior":12255,"iom":12256,"iel":12257,"ilee":12258,"ieri":12259,"iÅĭe":12260,"ieli":12261,"iply":12262,"ienee":12263,"ieloo":12264,"ju":12265,"jac":12266,"ki":12267,"kar":12268,"kiri":12269,"kug":12270,"kun":12271,"kane":12272,"kaale":12273,"knee":12274,"koraa":12275,"korÉĽÉĽ":12276,"kÉĽre":12277,"kuori":12278,"kans":12279,"kang":12280,"korÉĶ":12281,"kanne":12282,"kult":12283,"kulo":12284,"kana":12285,"kank":12286,"karrÉĽÉĽ":12287,"kogil":12288,"kunt":12289,"koÉĶle":12290,"koÉĶlÉĶ":12291,"konnÉĽÉĽ":12292,"kona":12293,"kallÉĽÉĽ":12294,"kanaa":12295,"kogo":12296,"kurri":12297,"kaama":12298,"kogiro":12299,"kurree":12300,"knife":12301,"kuni":12302,"koroo":12303,"kumo":12304,"keloo":12305,"kakye":12306,"kogiluu":12307,"kitchen":12308,"kieree":12309,"kandaz":12310,"kÃŃÃ©lÃºÃº":12311,"kagesaga":12312,"kÃ¹Ã²lÃ¬":12313,"lon":12314,"loÉĶ":12315,"laÅĭ":12316,"lie":12317,"lÉĶge":12318,"lad":12319,"low":12320,"lag":12321,"lers":12322,"lerÉĽ":12323,"leraa":12324,"larÉĽÉĽ":12325,"lane":12326,"loÉĶre":12327,"lime":12328,"lkÃ¡":12329,"lbÃł":12330,"lÉĶÉĶre":12331,"lareba":12332,"loÉĶraa":12333,"laÅĭkp":12334,"lice":12335,"lanna":12336,"lzÉªÉĽ":12337,"lÉĶgÉĶ":12338,"linnee":12339,"limb":12340,"lerrÉĽÉĽ":12341,"lÇĴ":12342,"lomÉĶ":12343,"lightly":12344,"lbÃŃlÃ©":12345,"lÃ¢":12346,"lbÃŃrÃŃ":12347,"lÃ¡ÅĭÃ¡":12348,"lÃ»Åĭ":12349,"loroto":12350,"lá¹įÄ©":12351,"mer":12352,"mor":12353,"mal":12354,"mas":12355,"mbo":12356,"mie":12357,"mone":12358,"mur":12359,"mii":12360,"mup":12361,"moÉĶre":12362,"mate":12363,"mene":12364,"meÉĽrÉĽ":12365,"mile":12366,"mans":12367,"melaa":12368,"mud":12369,"mannÉĽÉĽ":12370,"mouse":12371,"meÉĽne":12372,"mana":12373,"mbiiri":12374,"mÉĶÅĭe":12375,"meÉĽnÉĽÉĽ":12376,"moÉĶnÉĽÉĽ":12377,"monÉĽÉĽ":12378,"mature":12379,"mbogi":12380,"mannaa":12381,"mpere":12382,"mogra":12383,"mbeene":12384,"mbaÅĭena":12385,"melime":12386,"molla":12387,"máº¡":12388,"nin":12389,"non":12390,"nan":12391,"nor":12392,"nus":12393,"nlÉĶ":12394,"nant":12395,"nuuri":12396,"name":12397,"nku":12398,"nud":12399,"nuuree":12400,"nity":12401,"nanna":12402,"nka":12403,"noun":12404,"nÉĶgeraa":12405,"nagÉĽÉĽ":12406,"nwÉªÉĽ":12407,"nÉ²ÉĶ":12408,"nomÉĶ":12409,"nÉ²Ã¡ÅĭÃ¡Ã¡":12410,"nfÃłrÃł":12411,"nandaa":12412,"nandaana":12413,"nendaare":12414,"oil":12415,"ode":12416,"oorÉĶ":12417,"oved":12418,"others":12419,"pr":12420,"pin":12421,"pon":12422,"pÉĽÉĽ":12423,"pim":12424,"pog":12425,"pay":12426,"pion":12427,"page":12428,"pong":12429,"pour":12430,"paara":12431,"paarÉĽÉĽ":12432,"paale":12433,"pÅ©":12434,"porÉĽÉĽ":12435,"pÃºÃ³":12436,"paraa":12437,"paane":12438,"pÉĶÉĶre":12439,"palle":12440,"pigi":12441,"pugi":12442,"paÅĭe":12443,"peli":12444,"paaloÅĭ":12445,"pomp":12446,"pÃ¡Ã¡rÉª":12447,"pigiri":12448,"porri":12449,"pinni":12450,"pnot":12451,"pÃ¡nÉª":12452,"piiraa":12453,"pimb":12454,"pÃºÃºrÃŃ":12455,"poÉĶne":12456,"porre":12457,"pÃºlÃŃ":12458,"pical":12459,"pÉĽgre":12460,"power":12461,"pÉĽgrÉĽÉĽ":12462,"pÃłÃłrÉª":12463,"pÃ´Åĭ":12464,"pÅ©o":12465,"rk":12466,"rri":12467,"rus":12468,"rma":12469,"rine":12470,"rte":12471,"rta":12472,"rass":12473,"rance":12474,"rwa":12475,"rank":12476,"rÃ»":12477,"rÇĶÅĭ":12478,"rusion":12479,"rusted":12480,"sÉĶÉĶ":12481,"sÍ»":12482,"sla":12483,"sun":12484,"sage":12485,"sand":12486,"sup":12487,"song":12488,"siree":12489,"send":12490,"sÃºÃº":12491,"sum":12492,"sans":12493,"sáº½ÉĽ":12494,"smo":12495,"sÃ¡Åĭ":12496,"selÉĽ":12497,"sud":12498,"saÅĭe":12499,"saky":12500,"saaloÅĭ":12501,"sÉĶÉĶrÉĽÉĽ":12502,"sarrÉĽÉĽ":12503,"sÉĶgele":12504,"soma":12505,"sangy":12506,"sunni":12507,"sÉĽgere":12508,"selle":12509,"simm":12510,"seny":12511,"soga":12512,"spect":12513,"sÉĶgelÉĽÉĽ":12514,"sÃ¡ÅĭÉª":12515,"sory":12516,"sÉĶglÉĽÉĽ":12517,"solli":12518,"sogre":12519,"sibling":12520,"seller":12521,"sdiction":12522,"slightly":12523,"tal":12524,"tul":12525,"tare":12526,"tÍ»":12527,"tent":12528,"tly":12529,"tand":12530,"tÃ¨":12531,"toro":12532,"tast":12533,"tannÉĽÉĽ":12534,"tuuro":12535,"tanne":12536,"tamb":12537,"teÉĽne":12538,"tuuli":12539,"tigi":12540,"tonni":12541,"taky":12542,"tÇİ":12543,"tuuribo":12544,"tÃ¡Ã¡rÉª":12545,"togil":12546,"toÉĶle":12547,"turn":12548,"tÃ¹Ã²":12549,"tomach":12550,"taking":12551,"tallÉĽÉĽ":12552,"toll":12553,"tÉĽgerÉĽÉĽ":12554,"tÉĽgerÉĽ":12555,"tÃŃrÃ©":12556,"tollÉĽÉĽ":12557,"tired":12558,"tata":12559,"tÃ¢":12560,"tasty":12561,"tÉĶgle":12562,"treads":12563,"tÃºlÃŃmÃ³":12564,"ura":12565,"umb":12566,"uck":12567,"uade":12568,"uolo":12569,"uroÅĭ":12570,"ucation":12571,"ukewarm":12572,"vre":12573,"vin":12574,"vÃ¬":12575,"vie":12576,"vak":12577,"vÉĶge":12578,"vid":12579,"vire":12580,"vine":12581,"veÉĽrÉĽ":12582,"voraa":12583,"voro":12584,"voore":12585,"vaane":12586,"vud":12587,"vama":12588,"vigi":12589,"vable":12590,"veÉĽlÉĽ":12591,"voree":12592,"vunni":12593,"varoo":12594,"venty":12595,"veÉĽlaa":12596,"valenv":12597,"vitaÅĭkp":12598,"vÃºÃºlÃºÅĭ":12599,"vilenv":12600,"wi":12601,"win":12602,"wri":12603,"wing":12604,"wit":12605,"wÃ¬":12606,"wÉĶge":12607,"woÅĭ":12608,"werÉĽÉĽ":12609,"wet":12610,"wire":12611,"wuri":12612,"wof":12613,"wÉĽre":12614,"wore":12615,"wonaa":12616,"wÉĽgÉĽ":12617,"wullo":12618,"woloÅĭ":12619,"wogiri":12620,"wolaa":12621,"werrÉĽÉĽ":12622,"wicked":12623,"wife":12624,"wÃłÃłlÉª":12625,"watch":12626,"wuoraa":12627,"wals":12628,"wogri":12629,"wrist":12630,"winkling":12631,"wontaa":12632,"wÃºÃ³rÃ¡Ã¡":12633,"wiriny":12634,"xter":12635,"yle":12636,"yÉª":12637,"yor":12638,"yeÉĽ":12639,"yare":12640,"yire":12641,"yÃ¡Ãł":12642,"yard":12643,"yarÉĽÉĽ":12644,"yoraa":12645,"yoro":12646,"yoore":12647,"yeÉĽre":12648,"yaane":12649,"yiribe":12650,"yorÉĶ":12651,"yoÉĶraa":12652,"yuuli":12653,"yÉĶgere":12654,"yagere":12655,"yÉĶgÉĽÉĽ":12656,"yaÅĭene":12657,"yirri":12658,"yoruu":12659,"yoluÅĭ":12660,"yÄ©áº½":12661,"yÉĶgoo":12662,"zer":12663,"zen":12664,"zor":12665,"zel":12666,"zuu":12667,"zÃ¡Ã¡":12668,"zut":12669,"zÃ£":12670,"zÍ»":12671,"zun":12672,"zerÉĽÉĽ":12673,"zii":12674,"zÃ¨":12675,"zab":12676,"zane":12677,"zÃºÃº":12678,"zÉĽre":12679,"zime":12680,"zÃ£a":12681,"ziv":12682,"zÃ¡Åĭ":12683,"zud":12684,"zaga":12685,"zÉĶÉĶre":12686,"zama":12687,"zori":12688,"zoÅĭk":12689,"zigi":12690,"zomp":12691,"zugo":12692,"zonne":12693,"zonema":12694,"zzard":12695,"zolaa":12696,"zamm":12697,"zagrÉĽÉĽ":12698,"zÃ»":12699,"zogera":12700,"zimaa":12701,"zÉĽgrÉª":12702,"zuluÅĭ":12703,"zontal":12704,"Ç¹":12705,"ÉŁ":12706,"ĉĠĉ":12707,"Ġ+":12708,"Ġ,":12709,"Ġ.":12710,"Ġ4":12711,"ĠÉĶge":12712,"ĠÎµ":12713,"ĠÃ¹":12714,"ĠÅĭk":12715,"Ġaara":12716,"Ġeraa":12717,"ĠÃµ":12718,"ĠÅ©":12719,"ĠÌĥÌģ":12720,"Ġuli":12721,"ĠÄ©":12722,"Ġuuree":12723,"Ġaareba":12724,"Ġuuraa":12725,"Ġuuribo":12726,"ĠÉĶÉĶrÉĽÉĽ":12727,"ĠÌĥÌģ]":12728,"ĠeÉĽnÉĽ":12729,"Ġerre":12730,"Ġuribo":12731,"ĠenemÉĽ":12732,"Ġullo":12733,"ĠĉčĊ":12734,"ĠÉĶgrÉĶ":12735,"ĠÉĶgrÉĽÉĽ":12736,"Ġullee":12737,"ĠÅĭkÊĬ":12738,"ĠÉ²ÉĽ":12739,"ĠerrÉĽÉĽ":12740,"ĠeÉĽnemÉĽ":12741,"ĠÉĶÅĭÉĽÉĽ":12742,"Ġirree":12743,"Ġign":12744,"ĠÅ©Å©":12745,"ĠÅĭgÃºÃ³":12746,"Ġunnaa":12747,"Ġingy":12748,"ĠÆĨ":12749,"ÉĽlÉª":12750,"ÉĽnÉĽÉĽ":12751,"ÉĽÅĭe":12752,"ÉĽbaa":12753,"ÉĽrre":12754,"ÉĽloo":12755,"Ìģ;":12756,"ÌģÌĢ":12757,"ÌģïĢł":12758,"ÉĶr":12759,"ÉĶrÉª":12760,"ÉĶlee":12761,"ÉĶky":12762,"ÉĶnema":12763,"Ġtar":12764,"Ġtul":12765,"ĠtÃ£":12766,"ĠtÃ²":12767,"Ġtent":12768,"ĠterÉĽÉĽ":12769,"Ġtii":12770,"Ġtant":12771,"Ġturi":12772,"ĠtaarÉĽÉĽ":12773,"Ġtab":12774,"ĠtÉĶÅĭ":12775,"Ġtamp":12776,"Ġtala":12777,"Ġties":12778,"ĠtannÉĽÉĽ":12779,"Ġtaareba":12780,"Ġtany":12781,"Ġtint":12782,"Ġtigi":12783,"ĠtaÅĭe":12784,"ĠtalÉĽÉĽ":12785,"Ġtonnee":12786,"Ġtalaa":12787,"ĠteÉĽrÉĽÉĽ":12788,"ĠtÉĶÉĶrÉĽÉĽ":12789,"Ġterre":12790,"Ġtonema":12791,"ĠterebÉĽ":12792,"Ġtuulee":12793,"ĠtaÅĭgb":12794,"ĠtÉĶgerÉĶ":12795,"Ġtonimo":12796,"Ġtalla":12797,"ĠtÄ©i":12798,"Ġtanf":12799,"Ġtuul":12800,"Ġtannaa":12801,"Ġtullee":12802,"Ġtrum":12803,"Ġtigire":12804,"Ġtulibo":12805,"Ġtagreba":12806,"ĠtÉĽgerÉĽ":12807,"ĠtÄ©Ä©":12808,"Ġtiile":12809,"Ġtonnaa":12810,"Ġtuulaa":12811,"Ġtset":12812,"ĠtÉĽgelÉĽ":12813,"Ġtullaa":12814,"Ġteebo":12815,"Ġtantamm":12816,"Ġtreads":12817,"Ġtrusted":12818,"rect":12819,"rebÉĶ":12820,"regb":12821,"reast":12822,"resp":12823,"Ġnie":12824,"Ġnad":12825,"Ġnand":12826,"ĠnÃ¡Ãł":12827,"ĠnÃ¡Åĭ":12828,"ĠneÉĽraa":12829,"Ġnuuree":12830,"ĠnannÉĽÉĽ":12831,"ĠnÉĽrÉĽ":12832,"ĠnorÉĶ":12833,"Ġnaareba":12834,"Ġnareba":12835,"ĠntÉª":12836,"Ġnorm":12837,"Ġnank":12838,"ĠntÊĬ":12839,"Ġnoun":12840,"ĠnagÉĽÉĽ":12841,"Ġnagera":12842,"ĠnÉĶÅĭÉĽÉĽ":12843,"ĠnomÉĶ":12844,"ĠndÃŃ":12845,"Ġnasa":12846,"plet":12847,"plural":12848,"aaÅĭ":12849,"aaroo":12850,"aanoo":12851,"aasere":12852,"aaserÉĽÉĽ":12853,"aayiree":12854,"Ġast":12855,"Ġaid":12856,"Ġali":12857,"Ġamb":12858,"Ġamm":12859,"Ġaeri":12860,"Ġaware":12861,"ĠaÅĭa":12862,"Ġayiri":12863,"ĠayoÉĶre":12864,"ĠaÅĭkaa":12865,"Ġamele":12866,"Ġavar":12867,"Ġakaase":12868,"ĠbÉª":12869,"ĠbÃŃ":12870,"Ġbas":12871,"ĠbÎµ":12872,"Ġbuo":12873,"ĠberÉĽÉĽ":12874,"Ġbild":12875,"Ġbaale":12876,"ĠbÃłÃ¡":12877,"Ġberi":12878,"Ġbala":12879,"Ġbolo":12880,"ĠbannÉĽÉĽ":12881,"Ġbaareba":12882,"Ġbanne":12883,"Ġbless":12884,"Ġbuse":12885,"ĠbÃŃÃ©":12886,"Ġbanna":12887,"ĠbelÉĽÉĽ":12888,"ĠbeÉĽlÉĽÉĽ":12889,"Ġbalaa":12890,"Ġbanema":12891,"ĠbeÉĽnÉĽÉĽ":12892,"ĠbÉĶgele":12893,"Ġbonema":12894,"Ġbuoribo":12895,"Ġbaroo":12896,"Ġballa":12897,"Ġbanf":12898,"Ġbimb":12899,"Ġbolaa":12900,"Ġbolibo":12901,"Ġbullee":12902,"Ġberibe":12903,"ĠbÉĶgre":12904,"Ġbinne":12905,"ĠbennÉĽ":12906,"ĠbÉĽgerÉĽ":12907,"Ġbennaa":12908,"ĠbÉĶÅĭÉĶ":12909,"Ġbammo":12910,"Ġborrow":12911,"Ġbenee":12912,"ĠbÉĽgerebÉĽ":12913,"Ġbillee":12914,"ĠbÉĶrebÉĶ":12915,"ĠbÉĶga":12916,"ĠbÉĶÉĶrebÉĶ":12917,"Ġbunch":12918,"ĠbÃ£abo":12919,"Ġborne":12920,"Ġbintany":12921,"ĠsÉĽÉĽ":12922,"ĠsÃł":12923,"ĠsÉĶge":12924,"Ġsot":12925,"Ġsare":12926,"ĠsÉĶg":12927,"Ġsund":12928,"Ġsaara":12929,"Ġsara":12930,"Ġseraa":12931,"ĠsoÉĶre":12932,"ĠseÉĽraa":12933,"Ġsuuree":12934,"ĠsÉĽrÉĽ":12935,"ĠsÉĶÉĶre":12936,"Ġsama":12937,"Ġsink":12938,"Ġsareba":12939,"ĠsaÅĭkp":12940,"ĠsaÅĭe":12941,"ĠsalÉĽÉĽ":12942,"Ġsenne":12943,"Ġslack":12944,"Ġsagere":12945,"ĠsÉĶÉĶrÉĽÉĽ":12946,"Ġsins":12947,"ĠsarrÉĽÉĽ":12948,"ĠsoÉĶnÉĽÉĽ":12949,"Ġsonne":12950,"ĠseÉĽnÉĽ":12951,"ĠsÉĶgele":12952,"Ġsigiri":12953,"Ġsonema":12954,"Ġsagra":12955,"Ġsaaleba":12956,"ĠsenemÉĽ":12957,"Ġsuoribo":12958,"Ġsalm":12959,"Ġsullo":12960,"ĠsonnÉĽÉĽ":12961,"Ġsnot":12962,"ĠseÉĽmÉĽ":12963,"Ġsalla":12964,"Ġsolibo":12965,"Ġsannaa":12966,"Ġsagera":12967,"ĠsÃ³rÃŃ":12968,"Ġsagreba":12969,"Ġselling":12970,"ĠsomÉĶ":12971,"ĠsÉĽgeraa":12972,"Ġsooree":12973,"ĠsÉĶgelÉĽÉĽ":12974,"Ġsorrow":12975,"Ġsonna":12976,"ĠsÉĽgerebÉĽ":12977,"Ġsift":12978,"ĠsÉĶgeleba":12979,"ĠsÉĽgrebÉĽ":12980,"Ġsisi":12981,"Ġsession":12982,"Ġsinky":12983,"Ġspleen":12984,"ÅĭÃ¨":12985,"Åĭine":12986,"Åĭime":12987,"Åĭzaa":12988,"ÅĭÅĭmÃłÃł":12989,"Åĭgel":12990,"ined":12991,"inuu":12992,"inse":12993,"inso":12994,"inate":12995,"ination":12996,"inue":12997,"inner":12998,"inary":12999,"inform":13000,"initi":13001,"insect":13002,"erk":13003,"ero":13004,"erÉĶÉĶ":13005,"erÉĶÅĭ":13006,"erman":13007,"ernut":13008,"ergency":13009,"lend":13010,"lect":13011,"lent":13012,"leÅĭi":13013,"leaf":13014,"leÉĽne":13015,"lekere":13016,"letoe":13017,"Ġtoy":13018,"ĠtorÉĽÉĽ":13019,"Ġtoog":13020,"Ġtola":13021,"Ġtoli":13022,"Ġtoll":13023,"ĠtoorÉĽÉĽ":13024,"Ġtoile":13025,"Ġtough":13026,"Ġtogi":13027,"Ġtokele":13028,"Ġtotem":13029,"Ġtolom":13030,"ÉªmÉĽ":13031,"ÉªÅĭg":13032,"ÉªrÊĬ":13033,"ÉªrÃ¡Ãł":13034,"ÉªÅĭÉª":13035,"ÉªnnÃ¡Ãł":13036,"ÉªndÃłÃ¡":13037,"ÉªntÊĬ":13038,"Ġking":13039,"Ġkul":13040,"ĠkÃ²":13041,"Ġkuo":13042,"Ġkong":13043,"Ġkeg":13044,"Ġkick":13045,"Ġkeraa":13046,"ĠkeÉĽrÉĽ":13047,"Ġkoore":13048,"Ġkeri":13049,"ĠkÃºÃ³":13050,"Ġkue":13051,"ĠkeÉĽrebÉĽ":13052,"ĠkannÉĽÉĽ":13053,"ĠkorÉĶ":13054,"Ġkama":13055,"Ġkulo":13056,"Ġkite":13057,"Ġkanky":13058,"Ġkonnee":13059,"Ġkuuraa":13060,"Ġkuuribo":13061,"Ġkonaa":13062,"ĠkoÉĶle":13063,"ĠkaalÉĽÉĽ":13064,"Ġkonema":13065,"ĠkÉĶgÉĽÉĽ":13066,"Ġkena":13067,"ĠkÉĶgrÉĶ":13068,"Ġknot":13069,"Ġkaalaa":13070,"Ġkogiri":13071,"Ġkorree":13072,"ĠkoÉĶlaa":13073,"ĠkÃºÃºrÃŃ":13074,"Ġkogilo":13075,"Ġkurri":13076,"ĠkaÅĭm":13077,"Ġkele":13078,"ĠkanÉĽÉĽ":13079,"Ġkogiro":13080,"Ġkonnaa":13081,"ĠkÉĶgereba":13082,"Ġkuuni":13083,"Ġkuunee":13084,"ĠkÉĶgelÉĽÉĽ":13085,"Ġkuolee":13086,"Ġkonna":13087,"ĠkoÉĶbo":13088,"Ġkuluu":13089,"Ġkallaa":13090,"Ġkogiribo":13091,"ĠkÅıÉĶ":13092,"ĠkÉĶgeleba":13093,"Ġkiss":13094,"ĠkÉĶgera":13095,"ĠkaÅĭmÉĽ":13096,"Ġkankyiri":13097,"Ġkieluu":13098,"Ã¡lÉª":13099,"Ã¡gy":13100,"Ã¡mm":13101,"Ã¡lÃł":13102,"Ã¡nnÊĬ":13103,"Ã¡lÃ³Ã³":13104,"Ġpm":13105,"ĠpÊĬ":13106,"ĠpÉĶÉĶ":13107,"Ġpog":13108,"ĠpÃ£":13109,"ĠpÉªÉĽ":13110,"Ġpet":13111,"ĠpaarÉĽÉĽ":13112,"Ġpane":13113,"ĠpÅ©":13114,"Ġparaa":13115,"Ġpáº½ÉĽ":13116,"Ġpolo":13117,"Ġpue":13118,"Ġpama":13119,"Ġpaareba":13120,"Ġparre":13121,"ĠpenÉĽ":13122,"ĠpeÉĽne":13123,"Ġpaala":13124,"Ġpaky":13125,"Ġpeep":13126,"ĠpelÉĽÉĽ":13127,"Ġpanema":13128,"Ġponaa":13129,"ĠpaanÉĽÉĽ":13130,"Ġpolle":13131,"ĠpoÅĭi":13132,"ĠpeÉĽnÉĽÉĽ":13133,"Ġperre":13134,"Ġpuribo":13135,"Ġpulli":13136,"ĠperebÉĽ":13137,"Ġpuulee":13138,"Ġpinnee":13139,"Ġpalla":13140,"Ġpuoree":13141,"Ġpanaa":13142,"Ġpolibo":13143,"Ġporree":13144,"Ġpirri":13145,"Ġporre":13146,"ĠpÉĽgrÉĽ":13147,"Ġpeny":13148,"Ġpeele":13149,"Ġpiile":13150,"Ġpari":13151,"ĠpeÉĽlaa":13152,"Ġpaanema":13153,"Ġpaanaa":13154,"Ġpinaa":13155,"ĠpÉĶgraa":13156,"Ġpugiribo":13157,"ĠponnÉĶ":13158,"Ġpullaa":13159,"Ġpugiraa":13160,"Ġpinnaa":13161,"Ġpagereba":13162,"ĠpaÅĭÉĽÉĽ":13163,"ĠpÉĶÉĶrÉĶ":13164,"Ġpoultry":13165,"Ġpampered":13166,"heap":13167,"henne":13168,"helli":13169,"ĠdÉª":13170,"ĠdÉĽÉĽ":13171,"Ġdim":13172,"Ġdul":13173,"Ġdent":13174,"Ġdere":13175,"Ġdant":13176,"Ġdru":13177,"ĠdaarÉĽÉĽ":13178,"Ġderaa":13179,"ĠdÃºÃº":13180,"ĠdÉĽre":13181,"Ġdamp":13182,"Ġdue":13183,"Ġdud":13184,"ĠdannÉĽÉĽ":13185,"Ġduuro":13186,"ĠdÉĽrÉĽ":13187,"Ġdanne":13188,"Ġdulo":13189,"ĠdaÅĭg":13190,"Ġdice":13191,"Ġdaala":13192,"Ġdiire":13193,"Ġdenne":13194,"Ġduuribo":13195,"Ġdagere":13196,"ĠdoÉĶle":13197,"ĠderebÉĽ":13198,"Ġdaaleba":13199,"ĠdÉĶgrÉĶ":13200,"Ġdiiraa":13201,"Ġdying":13202,"Ġderibe":13203,"Ġdrown":13204,"Ġdulibo":13205,"ĠdÉĶglaa":13206,"ĠdÉĽgrÉĽ":13207,"ĠdÉĶgreba":13208,"Ġdogiro":13209,"ĠdomÉĶ":13210,"ĠdolÉĽÉĽ":13211,"Ġdelibe":13212,"ĠdÉĶglÉĽÉĽ":13213,"ĠdoÅĭe":13214,"ĠdÉĶgleba":13215,"ĠdÉĶgeroÅĭ":13216,"Ġdarans":13217,"Ġdunse":13218,"Ġdrank":13219,"Ġplug":13220,"Ġplac":13221,"Ġplunk":13222,"Ġlul":13223,"ĠlÉĶge":13224,"Ġlun":13225,"Ġluri":13226,"Ġleraa":13227,"Ġlaale":13228,"Ġloro":13229,"ĠlkÊĬ":13230,"Ġlure":13231,"Ġlouse":13232,"Ġlaana":13233,"Ġlonni":13234,"ĠlÉĶgere":13235,"Ġliiree":13236,"Ġlonnee":13237,"Ġluuraa":13238,"Ġlanema":13239,"Ġluuribo":13240,"ĠlÉĶÅĭe":13241,"Ġlinni":13242,"ĠlÉĶgÉĶ":13243,"Ġluoree":13244,"Ġliiraa":13245,"Ġlonno":13246,"Ġlato":13247,"Ġlugg":13248,"Ġlugiree":13249,"Ġlaama":13250,"Ġlogiro":13251,"Ġligiree":13252,"arit":13253,"arse":13254,"arly":13255,"arter":13256,"ĠwÊĬ":13257,"Ġwil":13258,"Ġwuu":13259,"Ġwiree":13260,"ĠwarÉĽÉĽ":13261,"Ġwuori":13262,"ĠwoÉĶrÉĶ":13263,"Ġwuuro":13264,"ĠwÉĽrÉĽ":13265,"Ġwaareba":13266,"Ġwarre":13267,"Ġwille":13268,"Ġwiire":13269,"Ġwool":13270,"Ġwanema":13271,"Ġwolle":13272,"ĠweÉĽnÉĽ":13273,"Ġwullo":13274,"ĠwÉĶgÉĽÉĽ":13275,"Ġwring":13276,"Ġwelle":13277,"Ġwilibe":13278,"Ġwigire":13279,"Ġwulibo":13280,"Ġwagera":13281,"ĠwennÉĽ":13282,"ĠwÉĽgerÉĽÉĽ":13283,"ĠwÉĽgerÉĽ":13284,"ĠwÉĶÅĭÉĽÉĽ":13285,"ĠweÉĽlaa":13286,"Ġwished":13287,"ĠwagerÉĽÉĽ":13288,"Ġwilli":13289,"Ġwuluu":13290,"Ġwogiree":13291,"Ġwogiribo":13292,"Ġwogiraa":13293,"ĠwÉĽgraa":13294,"ĠwegerÉĽ":13295,"ĠwÄ©eu":13296,"Ġwáº½d":13297,"ĠwirinÉĶbÉĶ":13298,"Ġoh":13299,"Ġori":13300,"ĠorÉĶ":13301,"Ġowe":13302,"Ġoora":13303,"Ġogee":13304,"Ġoona":13305,"ĠomeÅĭÉĽ":13306,"Ġointment":13307,"ĠfÉĽÉĽ":13308,"Ġfas":13309,"Ġfot":13310,"Ġfii":13311,"Ġfong":13312,"ĠfeÉĽrÉĽ":13313,"Ġfum":13314,"ĠfÉĽre":13315,"Ġfav":13316,"Ġfile":13317,"ĠfÃµÉĶ":13318,"ĠfeÉĽrebÉĽ":13319,"ĠfÉĽrÉĽ":13320,"Ġfanne":13321,"Ġfulo":13322,"Ġfunn":13323,"Ġfana":13324,"Ġfond":13325,"ĠfeÉĽlÉĽÉĽ":13326,"Ġfonne":13327,"ĠfeÉĽnÉĽ":13328,"Ġfuulee":13329,"Ġfrog":13330,"Ġfinime":13331,"Ġfuoree":13332,"Ġfannaa":13333,"ĠfÉĶgelÉĶ":13334,"ĠfennÉĽ":13335,"Ġfagreba":13336,"ĠfÉĽgrÉĽ":13337,"Ġfigiraa":13338,"ĠfeÉĽlaa":13339,"ĠfonnÉĶ":13340,"Ġfiele":13341,"Ġfugiraa":13342,"Ġfogera":13343,"Ġfogiraa":13344,"Ġfogilibo":13345,"Ġfrying":13346,"Ġfallen":13347,"Ġgon":13348,"Ġgag":13349,"Ġguo":13350,"Ġgna":13351,"Ġgant":13352,"Ġguri":13353,"ĠgoÉĶre":13354,"Ġgate":13355,"ĠgorÉĽÉĽ":13356,"ĠgÃ£a":13357,"Ġganne":13358,"Ġgonni":13359,"ĠgalÉĽÉĽ":13360,"Ġgonnee":13361,"Ġgalaa":13362,"Ġganema":13363,"Ġguuribo":13364,"ĠgarrÉĽÉĽ":13365,"ĠgoÉĶnÉĽÉĽ":13366,"Ġgonne":13367,"Ġguoribo":13368,"ĠgÉĶgerÉĶ":13369,"Ġganaa":13370,"Ġgolibo":13371,"Ġgunnee":13372,"ĠgÉĶÅĭÉĽÉĽ":13373,"ĠgÉĶgerebÉĶ":13374,"Ġgallaa":13375,"ĠgÉĶrebÉĶ":13376,"Ġgenime":13377,"Ġgiere":13378,"Ġguur":13379,"Ġgunnaa":13380,"ĠgÉĶÉĶrebÉĶ":13381,"Ġgamporri":13382,"ĠmÉª":13383,"ĠmÊĬ":13384,"ĠmÉĶÉĶ":13385,"ĠmoÅĭ":13386,"Ġmire":13387,"Ġmaara":13388,"ĠmÉĶÅĭ":13389,"Ġmate":13390,"ĠmeÉĽrÉĽ":13391,"Ġmaal":13392,"ĠmelÉĽ":13393,"ĠmÉĽrÉĽ":13394,"ĠmpÊĬ":13395,"Ġmulo":13396,"Ġmille":13397,"Ġmuuli":13398,"Ġmush":13399,"ĠmalÉĽÉĽ":13400,"Ġmini":13401,"ĠmoÉĶrÉĽÉĽ":13402,"ĠmeÉĽnÉĽ":13403,"ĠmoÉĶreba":13404,"ĠmbÃŃrÃ¬":13405,"ĠmaalÉĽÉĽ":13406,"Ġmason":13407,"Ġmonema":13408,"Ġmagra":13409,"Ġmulli":13410,"Ġmaaleba":13411,"Ġmuulee":13412,"ĠmenemÉĽ":13413,"Ġmullo":13414,"ĠmÉĶgrÉĶ":13415,"Ġmona":13416,"Ġmelle":13417,"Ġmash":13418,"ĠmÉĶgelÉĶ":13419,"Ġmorre":13420,"ĠmÉĶÅĭÉĽÉĽ":13421,"Ġmogiro":13422,"Ġmention":13423,"Ġmaanema":13424,"Ġmuulibo":13425,"Ġmuulaa":13426,"ĠmollÉĽÉĽ":13427,"Ġmuunee":13428,"ĠmoÅĭg":13429,"Ġmogera":13430,"Ġmollaa":13431,"ĠmoÉĶreÅĭ":13432,"Ġmotion":13433,"ĠmbÉĽrÊĬ":13434,"Ġmirror":13435,"anoo":13436,"anaÅĭ":13437,"anga":13438,"anye":13439,"another":13440,"anced":13441,"rice":13442,"rily":13443,"rious":13444,"ritual":13445,"Ġ20":13446,"Ġ23":13447,"Ġ26":13448,"Ġ27":13449,"enz":13450,"enak":13451,"ench":13452,"ennoo":13453,"enok":13454,"ÃłyÊĬ":13455,"ÃłmmÊĬ":13456,"ÃłnÃºÃº":13457,"ÃłgÃ²Ã²":13458,"gelee":13459,"geÅĭi":13460,"gebaga":13461,"ĠvÉª":13462,"ĠvÃŃ":13463,"Ġvoo":13464,"Ġvir":13465,"ĠvoÉĶre":13466,"ĠveÉĽle":13467,"Ġvess":13468,"Ġvora":13469,"ĠveÉĽrebÉĽ":13470,"Ġvaana":13471,"Ġvice":13472,"Ġvaala":13473,"Ġvanna":13474,"Ġviire":13475,"Ġvoree":13476,"ĠveÉĽrÉĽÉĽ":13477,"ĠvaalÉĽÉĽ":13478,"Ġvonema":13479,"Ġvagra":13480,"Ġvuribo":13481,"ĠvÉĶgÉĽÉĽ":13482,"ĠvÉĶgrÉĽÉĽ":13483,"ĠvÉĶglÉĶ":13484,"ĠvÉĶgre":13485,"ĠvonÉĶ":13486,"ĠvennÉĽ":13487,"ĠvÉĶgreba":13488,"ĠvÉĶgraa":13489,"Ġviiri":13490,"Ġvunno":13491,"Ġvonna":13492,"ĠvuuluÅĭ":13493,"Ġversion":13494,"ĠvÉĶgleba":13495,"Ġvaaloo":13496,"Ġverb":13497,"ĠvÉĶrekpÉĶrÉĶ":13498,"att":13499,"ateraa":13500,"atáº½e":13501,"atory":13502,"ataabo":13503,"ators":13504,"orba":13505,"orate":13506,"orphan":13507,"ald":13508,"ali":13509,"aland":13510,"alous":13511,"alaÅĭm":13512,"altak":13513,"alys":13514,"aliÅĭk":13515,"Ġcas":13516,"Ġcig":13517,"Ġcent":13518,"Ġcere":13519,"Ġcup":13520,"Ġcane":13521,"Ġcred":13522,"Ġcoll":13523,"Ġcrum":13524,"Ġcream":13525,"Ġcakes":13526,"Ġcustom":13527,"inguish":13528,"rombiri":13529,"itar":13530,"itive":13531,"itogi":13532,"itary":13533,"ĠhÉĽÉĽ":13534,"Ġhoo":13535,"Ġhuu":13536,"Ġhig":13537,"Ġhage":13538,"Ġhara":13539,"Ġhala":13540,"Ġhaane":13541,"Ġhama":13542,"Ġhana":13543,"ĠhalÉĽÉĽ":13544,"Ġhanky":13545,"Ġhalaa":13546,"Ġhanema":13547,"Ġhonema":13548,"Ġhalla":13549,"Ġhagera":13550,"ĠhÉĽgeraa":13551,"ĠhÉĽgelÉĽ":13552,"Ġhunno":13553,"Ġhiere":13554,"Ġhagereba":13555,"Ġhuuno":13556,"Ġhouses":13557,"Ġhammer":13558,"eÉĽnee":13559,"eÉĽloÅĭ":13560,"eÉĽbaare":13561,"eÉĽbaarÉĽÉĽ":13562,"Ġyan":13563,"ĠyoÉĶ":13564,"Ġyee":13565,"Ġyid":13566,"Ġyard":13567,"Ġyoraa":13568,"Ġyogi":13569,"ĠyeÉĽraa":13570,"ĠyeÉĽrebÉĽ":13571,"Ġyulo":13572,"ĠyÉĶgere":13573,"Ġyont":13574,"ĠyeÉĽlÉĽÉĽ":13575,"ĠyoÉĶreba":13576,"ĠyÉĶgÉĽÉĽ":13577,"ĠyÉĶgrÉĶ":13578,"ĠyÉĶgerÉĶ":13579,"Ġyinime":13580,"ĠyÉĶgelÉĶ":13581,"ĠyeÉĽlebÉĽ":13582,"Ġyulibo":13583,"Ġyagera":13584,"Ġyinne":13585,"ĠyeÉĽlaa":13586,"Ġyolli":13587,"Ġyageraa":13588,"Ġyennee":13589,"Ġyiibu":13590,"Ġyoribo":13591,"ĠyÃ£ay":13592,"Ġyorom":13593,"ĠyopÉĶgeraa":13594,"Ġlare":13595,"Ġlama":13596,"Ġlaid":13597,"Ġlamb":13598,"ĠlaÅĭk":13599,"Ġlagre":13600,"Ġlaying":13601,"ĠlaÅĭÉĽÉĽ":13602,"oms":13603,"ompl":13604,"omen":13605,"edition":13606,"neath":13607,"nesday":13608,"negebaga":13609,"isk":13610,"ising":13611,"ises":13612,"isÉĶgelaa":13613,"iscu":13614,"elt":13615,"eloÅĭ":13616,"elve":13617,"elves":13618,"elcome":13619,"ÃŃrÃ¨":13620,"oura":13621,"oung":13622,"bam":13623,"baba":13624,"bama":13625,"bagy":13626,"baÅĭg":13627,"bayi":13628,"badaa":13629,"bapare":13630,"bapa":13631,"bakore":13632,"bagbÉĽre":13633,"bakpoÅĭ":13634,"bakelee":13635,"ndo":13636,"ndu":13637,"ndÃº":13638,"ndÉĶÅĭ":13639,"ndÃºÃ³":13640,"ndzÊĬ":13641,"ndÃ¡Ã¡rÉª":13642,"ndÉĶÉĶrÉĽÉĽ":13643,"ndonÉĽÉĽ":13644,"ndzÉª":13645,"ndÃŃrÃ©":13646,"ndÃ©Åĭ":13647,"ndzÃ¡grÃ¡":13648,"ilu":13649,"ilis":13650,"ilil":13651,"ilto":13652,"iligi":13653,"ilable":13654,"ilical":13655,"ĠerebÉĽ":13656,"Ġearm":13657,"Ġease":13658,"Ġevent":13659,"Ġepile":13660,"Ġeebo":13661,"Ġecho":13662,"Ġejac":13663,"oÉĶla":13664,"oÉĶroÅĭ":13665,"oola":13666,"oolÉĶ":13667,"kpÉĽÉĽ":13668,"kpar":13669,"kpot":13670,"kpug":13671,"kpÃ¨":13672,"kpÉĽg":13673,"kpÃ¡Ãł":13674,"kpÉĶÅĭ":13675,"kpane":13676,"kpell":13677,"kporo":13678,"kpeÉĽrebÉĽ":13679,"kpÃ¡rÉª":13680,"kpalle":13681,"kpaÅĭe":13682,"kporee":13683,"kpelÉĽÉĽ":13684,"kpeÉĽnÉĽÉĽ":13685,"kperre":13686,"kpÃŃrÃŃ":13687,"kpoloÅĭ":13688,"kpallÉĽÉĽ":13689,"kpeele":13690,"kpirree":13691,"kpomo":13692,"kpaÉĽ":13693,"kpegiri":13694,"kpÉĽgelÉĽÅĭ":13695,"ĠzÉª":13696,"ĠzÉĽÉĽ":13697,"Ġzen":13698,"ĠzoÉĶ":13699,"Ġzol":13700,"Ġziri":13701,"Ġzone":13702,"ĠzÍ»":13703,"ĠzerÉĽÉĽ":13704,"Ġzáº½":13705,"Ġzoraa":13706,"Ġzum":13707,"Ġzip":13708,"ĠzaÅĭg":13709,"Ġzomp":13710,"ĠzeÉĽnÉĽ":13711,"ĠzoÉĶlÉĶ":13712,"Ġzigiri":13713,"Ġzagra":13714,"ĠzenemÉĽ":13715,"Ġzullo":13716,"Ġzanny":13717,"ĠzaÅĭgb":13718,"Ġzonimo":13719,"Ġzalla":13720,"Ġzannaa":13721,"Ġzonno":13722,"Ġzullee":13723,"Ġzigire":13724,"Ġzagera":13725,"Ġzagreba":13726,"ĠzÉĽgrÉĽ":13727,"Ġzugiree":13728,"ĠzÉĽgerÉĽ":13729,"Ġzirree":13730,"Ġzagre":13731,"Ġzammo":13732,"Ġzaleba":13733,"Ġzogra":13734,"Ġzogera":13735,"ĠziriÅĭ":13736,"Ġzuuno":13737,"Ġzontal":13738,"reet":13739,"asis":13740,"asaÅĭ":13741,"assh":13742,"asoba":13743,"Ġbele":13744,"ĠbeÉĽÉĽ":13745,"ĠbeerÉĽÉĽ":13746,"Ġbeet":13747,"Ġbeard":13748,"Ġbeelaa":13749,"ĠbeelÉĽÉĽ":13750,"ĠbegÉĽ":13751,"Ġbears":13752,"Ġbebit":13753,"ĠbegerebÉĽ":13754,"Ã¬Åĭ":13755,"]ÌĢÌĥ":13756,"boe":13757,"bov":13758,"box":13759,"boil":13760,"both":13761,"bola":13762,"boÅĭkp":13763,"bogÉĶ":13764,"bored":13765,"bollÉĽÉĽ":13766,"boyaa":13767,"booroo":13768,"bodav":13769,"bosaraa":13770,"uuru":13771,"uubiiri":13772,"Ġadorn":13773,"Ġadding":13774,"Ġinne":13775,"Ġinni":13776,"Ġinvo":13777,"Ġinfl":13778,"Ġinches":13779,"Ġinduce":13780,"Ġinability":13781,"Ġindiff":13782,"Ġintact":13783,"Ġintense":13784,"rac":13785,"ram":13786,"olin":13787,"oling":13788,"olom":13789,"olbo":13790,"olic":13791,"olly":13792,"olves":13793,"olomo":13794,"Ãºng":13795,"ÃºÃ²":13796,"ÃºrÃ¬":13797,"ÃºlÃºÃº":13798,"rÉªn":13799,"rÉªkÃ¡":13800,"rÉªgbÉĽ":13801,"rÉªsÉĶ":13802,"ami":13803,"ames":13804,"ament":13805,"amara":13806,"amiime":13807,"amarit":13808,"iribo":13809,"irikpiri":13810,"Ġthous":13811,"Ġthud":13812,"Ġthank":13813,"Ġthunder":13814,"Ġthough":13815,"Ġthirst":13816,"Ġthorny":13817,"Ã¡Ã¡rÃ¡Ã¡":13818,"bÉĽbÉĽ":13819,"bÉĽlÉĽ":13820,"bÉĽÅĭk":13821,"bÉĽÅĭe":13822,"bÉĽnz":13823,"bÉĽÅĭÉĽ":13824,"bÉĽmpÉĽ":13825,"bÉĽllÉª":13826,"bÉĽllÉĽ":13827,"bÉĽnzÉĶ":13828,"bÉĽnwÉĶ":13829,"iema":13830,"imeri":13831,"imaala":13832,"imenne":13833,"imini":13834,"imennÉĽÉĽ":13835,"imboree":13836,"imbori":13837,"imanee":13838,"Ġbay":13839,"Ġbagb":13840,"Ġbayi":13841,"Ġbabie":13842,"Ġbadaa":13843,"Ġbapare":13844,"Ġbavil":13845,"Ġbailed":13846,"Ġbakore":13847,"Ġbabillee":13848,"Ġbawas":13849,"ulous":13850,"ulib":13851,"ulated":13852,"ulsory":13853,"pear":13854,"peree":13855,"pest":13856,"peated":13857,"pegre":13858,"pevine":13859,"tha":13860,"thorn":13861,"thday":13862,"though":13863,"Ġkaf":13864,"Ġkaz":13865,"ĠkaÉĽ":13866,"ĠkayÉĽÉĽ":13867,"ĠkayeÉĽ":13868,"ngm":13869,"ngs":13870,"ngga":13871,"ngye":13872,"ngzi":13873,"ngnyu":13874,"ngyÃ³":13875,"ngzÃŃÃ©":13876,"ngmanlee":13877,"ese":13878,"eseÉĽrÉĽ":13879,"eshaped":13880,"akala":13881,"akuro":13882,"akaase":13883,"ÉĶÉĶbÉĶ":13884,"ÉĶÉĶtÉĶ":13885,"ÉĶÉĶkpoÅĭi":13886,"ÉĶÉĶnÉĽne":13887,"ÉĶÉĶvelaa":13888,"ÉĶÉĶnÉĽn":13889,"igraa":13890,"igns":13891,"igolo":13892,"igileÅĭ":13893,"ograa":13894,"ogid":13895,"oglÉĶ":13896,"ogli":13897,"ogatory":13898,"Ã©lÃºÃº":13899,"Åĭmant":13900,"Åĭmore":13901,"Åĭmama":13902,"ÅĭmenÉĽ":13903,"ÅĭmeÉĽne":13904,"ÅĭmeÉĽnÉĽÉĽ":13905,"Åĭmonne":13906,"ÅĭmÉĽgere":13907,"ÅĭmonÉĶ":13908,"ÅĭmÉĽgele":13909,"ÅĭmanzeÉĽ":13910,"ÅĭmaarebÉĽÉĽ":13911,"Åĭmanee":13912,"Åĭmanlee":13913,"icient":13914,"Ġnyus":13915,"Ġnyaare":13916,"Ġnyuo":13917,"ĠnyerÉĽÉĽ":13918,"ĠnyerÉĽ":13919,"Ġnyaara":13920,"ĠnyaarÉĽÉĽ":13921,"Ġnyoraa":13922,"ĠnyorÉĽÉĽ":13923,"Ġnyaaraa":13924,"Ġnyaala":13925,"Ġnyiire":13926,"ĠnyeÉĽrÉĽÉĽ":13927,"ĠnyeÉĽnÉĽÉĽ":13928,"Ġnyuulo":13929,"ĠnyonnÉĽÉĽ":13930,"Ġnyalla":13931,"Ġnyooreba":13932,"Ġnyoll":13933,"Ġnyaw":13934,"ĠnyoÉĶlaa":13935,"Ġnyigire":13936,"Ġnyele":13937,"Ġnyagreba":13938,"Ġnyonnaa":13939,"Ġnyagraa":13940,"ĠnyagrÉĽÉĽ":13941,"Ġnyunno":13942,"Ġnyenee":13943,"ĠnyaÅĭena":13944,"Ġnyigre":13945,"Ġnyunimo":13946,"Ġnyonyonne":13947,"add":13948,"adÉĶÉĶ":13949,"adfast":13950,"oÅĭÉĶ":13951,"oÅĭÅĭo":13952,"ĠkpÉĶ":13953,"Ġkpar":13954,"Ġkpat":13955,"ĠkpÃ£":13956,"Ġkpare":13957,"Ġkpuri":13958,"Ġkpard":13959,"Ġkporaa":13960,"Ġkpaal":13961,"Ġkporo":13962,"Ġkparaa":13963,"Ġkpáº½ÉĽ":13964,"Ġkpama":13965,"Ġkparre":13966,"Ġkpamb":13967,"Ġkpori":13968,"Ġkpaala":13969,"Ġkpanna":13970,"Ġkpana":13971,"Ġkpont":13972,"ĠkpelÉĽÉĽ":13973,"Ġkpanema":13974,"ĠkpeÉĽnÉĽ":13975,"ĠkpenemÉĽ":13976,"ĠkpÉĶgrÉĶ":13977,"ĠkpÉĶgerÉĽÉĽ":13978,"Ġkpinime":13979,"Ġkponimo":13980,"ĠkpallÉĽÉĽ":13981,"Ġkpiiraa":13982,"ĠkpennÉĽÉĽ":13983,"Ġkpolaa":13984,"ĠkpennÉĽ":13985,"ĠkpÉĽgerÉĽ":13986,"Ġkpogiro":13987,"Ġkponnaa":13988,"ĠkpÉĽgelÉĽ":13989,"Ġkpaleba":13990,"Ġkpinnaa":13991,"Ġkpallaa":13992,"ĠkpÉĽgele":13993,"ĠkpÉĶgera":13994,"Ġkpuoro":13995,"Ġkpogilibo":13996,"Ġkpogilaa":13997,"ĠkpuÅĭkp":13998,"Ġkparsiri":13999,"Ġkpirikpiri":14000,"Ġstare":14001,"Ġstur":14002,"Ġstinger":14003,"Ġstutter":14004,"Ġstoring":14005,"Ġstern":14006,"Ġstreet":14007,"otograph":14008,"ĠAa":14009,"ĠAt":14010,"ĠAÅĭ":14011,"ĠAba":14012,"ĠAla":14013,"ĠAbaa":14014,"ĠAkan":14015,"ĠAfere":14016,"ĠAndonÉĽÉĽ":14017,"uted":14018,"utes":14019,"uture":14020,"utoloÅĭ":14021,"ĠToo":14022,"ĠTuo":14023,"ĠTry":14024,"ĠTeere":14025,"ĠTwo":14026,"ĠTá½¹":14027,"ĠTentoloÅĭ":14028,"may":14029,"mabile":14030,"Ã£ÉĽ":14031,"area":14032,"arema":14033,"arekpÉĽ":14034,"ird":14035,"irthday":14036,"nna":14037,"nner":14038,"nnÃł":14039,"nnuu":14040,"nnÃ©":14041,"nnye":14042,"nnÃ¡Åĭ":14043,"agyÉĽ":14044,"agolo":14045,"Ã²Åĭ":14046,"Ã²gÃ¬":14047,"vember":14048,"seene":14049,"seÅĭe":14050,"segese":14051,"aareÅĭ":14052,"ceiv":14053,"cember":14054,"bear":14055,"beat":14056,"bead":14057,"beerÉĽ":14058,"bebiri":14059,"beans":14060,"begere":14061,"beenÉĽ":14062,"beren":14063,"beaut":14064,"bebis":14065,"yÉĽnÊ§":14066,"yÉĽmbile":14067,"yÉĽmbaÅĭena":14068,"yÉĽtÉĶgle":14069,"ctar":14070,"cted":14071,"cteri":14072,"biko":14073,"bibile":14074,"bifaa":14075,"bikaa":14076,"bipÉĶlee":14077,"ugro":14078,"ugane":14079,"ugili":14080,"ugiruu":14081,"ugged":14082,"ugilo":14083,"enta":14084,"lax":14085,"lagere":14086,"laby":14087,"laziness":14088,"uno":14089,"unity":14090,"unction":14091,"unripe":14092,"unler":14093,"ĠleÅĭ":14094,"ĠleÉĽÉĽ":14095,"Ġlear":14096,"Ġlege":14097,"Ġleak":14098,"Ġleap":14099,"Ġlennaa":14100,"Ġlength":14101,"Ġlezare":14102,"Ġlennee":14103,"ÉĶgborÉĶ":14104,"Ġadvant":14105,"Ġadvise":14106,"Ġadverb":14107,"Ìĥ?":14108,"kÉĶn":14109,"kÉĶmb":14110,"kÉĶmÉĶ":14111,"kÉĶnz":14112,"kÉĶrre":14113,"kÉĶnso":14114,"kÉĶndaare":14115,"kÉĶrÉĶÅĭ":14116,"mpoore":14117,"mperi":14118,"mpÉªÉª":14119,"mpelaa":14120,"mpaane":14121,"mpÃ¬Ã¬":14122,"mpÃ³Åĭ":14123,"mpÃ¡Ã¡nÉª":14124,"mpÃ©lÃ©Åĭ":14125,"mpÃŃÃŃrÃ¡Ã¡":14126,"mpÃ¹Ã¹rÃ¡Ãł":14127,"lÉĽrÉª":14128,"lÉĽrÉĽÉĽ":14129,"lÉĽlÉĽ":14130,"lÉĽnlÉĽ":14131,"Ġanii":14132,"Ġanuuri":14133,"Ġanuuree":14134,"Ġaniini":14135,"strain":14136,"stance":14137,"step":14138,"stitute":14139,"staple":14140,"stupid":14141,"steria":14142,"style":14143,"ury":14144,"urun":14145,"urns":14146,"urday":14147,"ĠneÉĽÉĽ":14148,"ĠneerÉĽ":14149,"ĠnembÉĶ":14150,"Ġneeds":14151,"Ġnectar":14152,"idÉĶÉĶ":14153,"ident":14154,"idence":14155,"bÉĶe":14156,"bÉĶÅĭ":14157,"bÉĶrÉĽÉĽ":14158,"bÉĶrÉĶ":14159,"bÉĶnne":14160,"bÉĶnnÉĽÉĽ":14161,"bÉĶllÉĽÉĽ":14162,"bÉĶndaa":14163,"bÉĶÅĭenaa":14164,"Ã¹Ãº":14165,"Ã¹Ã³":14166,"Ã¹nÃ¬":14167,"Ġwithd":14168,"Ġwither":14169,"term":14170,"teraa":14171,"terri":14172,"ternal":14173,"termites":14174,"Ġforaa":14175,"Ġforra":14176,"Ġforked":14177,"Ġforgiv":14178,"Ġforgive":14179,"Ġseer":14180,"Ġsebo":14181,"ĠseerÉĽ":14182,"ĠserebÉĽ":14183,"ĠseÅĭkp":14184,"Ġsegere":14185,"ĠseenÉĽ":14186,"Ġsewn":14187,"ĠseÅĭÉĽÉĽ":14188,"ĠsegerÉĽ":14189,"Ġsevent":14190,"ĠsebrÉĽ":14191,"ĠseÅĭkÃ£Ã£":14192,"Ġsemekelee":14193,"Ġsekalmany":14194,"Ġseventy":14195,"lÉĶrÉĽÉĽ":14196,"lÉĶnt":14197,"lÉĶnne":14198,"lÉĶnnÉĽÉĽ":14199,"Ġrem":14200,"Ġrema":14201,"Ġrent":14202,"Ġrequ":14203,"Ġrebu":14204,"Ġredu":14205,"Ġreport":14206,"Ġreact":14207,"Ġrept":14208,"Ġreply":14209,"Ġreared":14210,"Ġreceive":14211,"Ġrecover":14212,"Ġreinc":14213,"Ġrenoun":14214,"Ġrepeated":14215,"Ġrelax":14216,"erel":14217,"eregÉĽ":14218,"gbÉª":14219,"gbor":14220,"gbÃº":14221,"gbÉĶge":14222,"gbÎµ":14223,"gbara":14224,"gberi":14225,"gbelaa":14226,"gbuli":14227,"gbuuli":14228,"gbÇİ":14229,"gbÉĶgele":14230,"gbigiri":14231,"gbulee":14232,"gbanf":14233,"gbÃ³rÃŃ":14234,"gbÃ¡Ã¡lÉª":14235,"gbeÉĽloo":14236,"gbelime":14237,"gbÉªlÉª":14238,"gbÃŃÃ©lÃŃ":14239,"gbÃ®Åĭ":14240,"laama":14241,"libe":14242,"libie":14243,"living":14244,"lives":14245,"lizard":14246,"lieni":14247,"liament":14248,"nyo":14249,"nyar":14250,"nyaÅĭ":14251,"nyÃº":14252,"nyuri":14253,"nyeg":14254,"nyaale":14255,"nyelaa":14256,"nyagere":14257,"nyoÉĶle":14258,"nyÉĶgerÉĶ":14259,"nyÉĶgereba":14260,"nyÉĶÉĽ":14261,"nyegÉĽ":14262,"nyielee":14263,"nyabiri":14264,"nyÉĶÉĶrÉĶ":14265,"nyÃŃÃ©lÃ¬":14266,"nyÉĶgerebÉĽÉĽ":14267,"nyÃºÃºrÃ²":14268,"nyambaraÅĭ":14269,"nyoÅĭgoloÅĭ":14270,"challenge":14271,"cholic":14272,"Ġnape":14273,"ĠnabÉĽlle":14274,"Ġtea":14275,"Ġtekp":14276,"Ġteree":14277,"Ġteam":14278,"Ġtemp":14279,"ĠteÅĭkp":14280,"ĠteelÉĽ":14281,"ĠteÅĭgb":14282,"ĠteenemÉĽ":14283,"ĠtekyÉĽ":14284,"Ġtext":14285,"ĠtegerÉĽ":14286,"Ġtegye":14287,"ĠtempoÉĶ":14288,"Ġteasing":14289,"Ġtypes":14290,"âĢĻ(":14291,"âĢĻ.":14292,"âĢĻ;":14293,"gÉªrÃ¡Ãł":14294,"gÉªtÉĽ":14295,"gÉªlÃłÃ¡":14296,"gÉªrÃłÃ¡":14297,"gÉªsÃ¡rÉª":14298,"gÉªvÃ¡Ã¡rÉª":14299,"Ġwhirl":14300,"Ġwholly":14301,"loe":14302,"lost":14303,"logere":14304,"Ġheal":14305,"Ġheave":14306,"Ġhence":14307,"Ġhealing":14308,"ĠheÅĭine":14309,"mbÃ©":14310,"mbÃŃÃ©":14311,"mbÃ¡Ã¡rÉª":14312,"mbling":14313,"mbÃºÅĭ":14314,"mbÉĶgÉĶ":14315,"mbÃºlÃŃ":14316,"mbÃ¡ÅĭÉª":14317,"mburo":14318,"mburoÅĭ":14319,"rebaVar":14320,"ÅĭkÃ¹":14321,"ÅĭkÃ¨":14322,"ÅĭkaarÉĽÉĽ":14323,"ÅĭkarÉĽÉĽ":14324,"ÅĭkaanÉĽÉĽ":14325,"ÅĭkÃºÃºrÃŃ":14326,"ÅĭkÇĴ":14327,"ÅĭkÇĴÅĭ":14328,"Åĭkeree":14329,"Åĭkubo":14330,"mÉĽge":14331,"mÉĽgÉª":14332,"mÉĽgyÉĽ":14333,"mÉĽkon":14334,"nace":14335,"nafere":14336,"nails":14337,"ntu":14338,"ntÃ¬":14339,"ntly":14340,"ntÃ¹":14341,"ntÃ¡Åĭ":14342,"ntÉªrÉª":14343,"ntaky":14344,"ntÃ²rÃŃ":14345,"ntÃºlÃŃmÃ³":14346,"ntenak":14347,"ĠdaÉĽ":14348,"ĠdazÉĽ":14349,"Ġdaily":14350,"Ġdapere":14351,"Ġdabilee":14352,"Ġdaveene":14353,"ander":14354,"Ġsob":14355,"Ġsoe":14356,"Ġsoak":14357,"Ġsooraa":14358,"Ġsoda":14359,"Ġsoora":14360,"ĠsoorÉĶ":14361,"Ġsogee":14362,"Ġsobile":14363,"Ġsocket":14364,"ĠonÉĶ":14365,"Ġonion":14366,"ĠÅĭmÃ¡Ã¡":14367,"ĠÅĭmee":14368,"ĠÅĭmoraa":14369,"ĠÅĭmorÉĽÉĽ":14370,"ĠÅĭmaraa":14371,"ĠÅĭmaaraa":14372,"ĠÅĭmeÉĽrebÉĽ":14373,"ĠÅĭmannÉĽÉĽ":14374,"ĠÅĭmore":14375,"ĠÅĭmarre":14376,"ĠÅĭmarrÉĽÉĽ":14377,"ĠÅĭmaÅĭgb":14378,"ĠÅĭmeÉĽnemÉĽ":14379,"ĠÅĭmÉĽgrÉĽÉĽ":14380,"ĠÅĭmÉĽgelÉĽ":14381,"ĠÅĭmonnÉĶ":14382,"ĠÅĭmeÉĽbo":14383,"ĠÅĭmanzeere":14384,"ĠÅĭmanzeerÉĽÉĽ":14385,"ĠÅĭmolÉĶÅĭÅĭm":14386,"ĠÅĭmolla":14387,"ĠÅĭmaÅĭkuÅĭk":14388,"ĠÅĭmentant":14389,"ĠÅĭmenz":14390,"Ġchip":14391,"Ġcharre":14392,"Ġchop":14393,"Ġchain":14394,"Ġchased":14395,"Ġchoose":14396,"ckle":14397,"cked":14398,"ÃłÃłnÃ¡Ãł":14399,"Ġshit":14400,"Ġshard":14401,"Ġship":14402,"Ġshave":14403,"Ġshady":14404,"Ġshaved":14405,"Ġshadow":14406,"Ġshaft":14407,"ety":14408,"etus":14409,"etere":14410,"ante":14411,"antities":14412,"antoke":14413,"kyu":14414,"kyÉĶ":14415,"kyeraa":14416,"kyinni":14417,"kyirit":14418,"kyigiraa":14419,"kyeemÉĽÉĽ":14420,"ĠgbÉĶge":14421,"Ġgbut":14422,"ĠgbÎµ":14423,"Ġgbaare":14424,"Ġgbug":14425,"ĠgbaarÉĽÉĽ":14426,"Ġgboraa":14427,"Ġgboro":14428,"Ġgbaaraa":14429,"ĠgborÉĶ":14430,"Ġgbarre":14431,"Ġgbuuli":14432,"Ġgballe":14433,"Ġgbana":14434,"Ġgbalaa":14435,"Ġgbanema":14436,"Ġgbuulo":14437,"ĠgbeÉĽnÉĽ":14438,"Ġgbonema":14439,"Ġgbaaleba":14440,"Ġgbullo":14441,"Ġgballa":14442,"Ġgbanf":14443,"Ġgbelle":14444,"ĠgbÉĶgelaa":14445,"ĠgbeÉĽlebÉĽ":14446,"Ġgbulibo":14447,"ĠgbÉĶgre":14448,"ĠgbeÉĽnemÉĽ":14449,"Ġgbigiraa":14450,"Ġgbinaa":14451,"Ġgbelibe":14452,"ĠgbÉĶgelÉĽÉĽ":14453,"Ġgbigiree":14454,"ĠgbonnÉĶ":14455,"Ġgbiele":14456,"Ġgbiere":14457,"Ġgbaalba":14458,"ĠgbÉĶgelebÉĶ":14459,"Ġbonl":14460,"ĠbonnÉĽÉĽ":14461,"ĠbonnÉĶ":14462,"Ġbonver":14463,"Ġbonnaa":14464,"Ġbonnee":14465,"Ġbonno":14466,"Ġbonyuo":14467,"Ġbonfaare":14468,"ĠbonfÉĶ":14469,"Ġbonzoo":14470,"Ġbonkpag":14471,"Ġbonfogeloo":14472,"Ã¨rÃ¨":14473,"ĠgyÉĽÉĽ":14474,"Ġgyel":14475,"Ġgyire":14476,"ĠgyaarÉĽÉĽ":14477,"Ġgyiree":14478,"ĠgyeÉĽrÉĽ":14479,"Ġgyeere":14480,"Ġgyora":14481,"ĠgyeÉĽrebÉĽ":14482,"Ġgyaareba":14483,"Ġgyenne":14484,"Ġgyilibe":14485,"Ġgyogilo":14486,"Ġgyagera":14487,"ĠgyerrÉĽÉĽ":14488,"ĠgyeÉĽnemÉĽ":14489,"Ġgyennaa":14490,"Ġgyob":14491,"Ġgyogra":14492,"Ġgyiele":14493,"Ġgyogera":14494,"Ġgyiere":14495,"Ġgyagereba":14496,"Ġgyagela":14497,"ĠgyÃ£ay":14498,"Ġgyogilibo":14499,"ĠgyaremÉĽÉĽ":14500,"Ġgyolom":14501,"Ġorange":14502,"ĠboÉĽ":14503,"Ġboar":14504,"Ġboora":14505,"Ġbogere":14506,"Ġboleba":14507,"Ġboren":14508,"Ġbokol":14509,"Ġboribo":14510,"Ġbodal":14511,"Ġbodav":14512,"Ġbodies":14513,"Ġbosom":14514,"Ġbokonta":14515,"upon":14516,"Ġsmile":14517,"Ġsmalle":14518,"Ġsmock":14519,"Ġsmeared":14520,"Ġsmelt":14521,"nÉĶre":14522,"nÉĶnÉĶ":14523,"nÉĶnne":14524,"nÉĶda":14525,"nÉĶtuo":14526,"nÉĶmoÉĶ":14527,"nÉĶsare":14528,"nÉĶnÉĽne":14529,"nÉĶmuu":14530,"nÉĶtÉĽnz":14531,"nÉĶdÉĶÉĶne":14532,"nÉĶmelime":14533,"ĠkÉĶÅĭ":14534,"ĠkÉĶlÉĽÉĽ":14535,"ĠkÉĶnne":14536,"ĠkÉĶÅĭe":14537,"ĠkÉĶnnÉĽÉĽ":14538,"ĠkÉĶlle":14539,"ĠkÉĶnnaa":14540,"ĠkÉĶrrÉĽÉĽ":14541,"ĠkÉĶvÉĶ":14542,"ĠkÉĶntÉĽ":14543,"ĠkÉĶlbÉĶ":14544,"ĠkÉĶnvÉĶ":14545,"ĠNot":14546,"ĠNma":14547,"ĠNens":14548,"ĠNanny":14549,"ĠNatural":14550,"Ġdew":14551,"Ġdele":14552,"ĠdeÉĽÉĽ":14553,"Ġderee":14554,"Ġdelee":14555,"Ġdeity":14556,"Ġdegilee":14557,"Ġdexter":14558,"naara":14559,"naapÉĶge":14560,"naafaa":14561,"naadap":14562,"naasare":14563,"naapÉĶle":14564,"naaduoraa":14565,"naazoÉĶ":14566,"Ġfoe":14567,"Ġforee":14568,"Ġfolee":14569,"Ġforeba":14570,"Ġfogee":14571,"Ġfoonema":14572,"ĠfoonÉĽÉĽ":14573,"Ġfoona":14574,"Ġforest":14575,
[...]
